f8ca
f0d7
fa98
ef75
f33d
ef42
f4d4
f564
0901
0a66
f73b
ef45
faf6
073f
0347
fa1f
f749
f992
f3f4
f07a
fe4c
f8f7
09c5
ed38
ed57
08f6
f24c
f919
ee76
04f1
0754
f2ab
0291
edda
03a5
fd7e
fd0d
f182
f6c4
f4cf
00b4
fe33
0198
efb1
03b3
f179
feca
f89e
0d52
fce3
ff21
070f
fca7
ff1b
08ad
fa64
f79c
069d
0760
0a4c
025e
ff68
09a0
faa5
f03f
f101
fd81
f3b6
061b
fe97
f9cd
efb1
f486
fc0d
fa35
f268
f785
f1fc
f5e4
0c4b
0a51
08f5
f23f
f242
f7a4
f67d
fe0d
ef66
feff
0113
f132
f3a8
ec28
ed88
f712
f232
f572
fcef
0798
ef84
fe18
fb87
0b0c
0016
0b76
0576
f697
ff76
f9e7
fd5b
f551
f103
ff81
0a16
fa9a
f885
ebc2
084c
ef8c
025f
0a25
f525
f1f0
0663
f7bf
04ae
f1a7
05e1
08f0
0231
03d4
f79f
ff2c
0bba
0533
f019
faef
fe4c
eb2a
f9bd
fe03
00fc
065c
0544
0590
f3ce
fc36
ff34
08ea
f0e5
f2fe
edf4
0b65
01e9
ed3f
ecb9
fba4
005b
faf7
faa0
ec7c
ee60
037c
ef74
0b43
0586
022d
00b9
033e
fd12
04b9
fbfb
ef9f
f99d
fadc
f0cb
0815
0756
f277
07e6
e533
f1e5
f278
f020
f90b
f664
f556
f983
e5ce
0d74
fa01
f99a
f3c3
f402
0c3a
f1ea
fdc3
0bbb
ee82
fbc8
f80e
0415
ff1e
0a4d
f4d5
0b32
f5c0
f438
f4ec
e2f4
f5ef
fade
0326
f1f0
eaa3
e8f2
ed8b
0341
f93e
fde9
f42b
0a22
0860
fa14
f213
fb03
e50e
ddc1
f40f
ec0a
eb47
ec2e
ebf5
e06b
f5b9
f25a
0165
faf6
fb80
0613
f048
ef6f
fdb6
f867
0b8f
f31b
ffbf
0a7b
fe01
f01a
086f
ee9d
f160
ea80
f6c5
eea2
f565
f347
ea1f
e9b7
fb68
0231
edd4
01de
010f
f645
f930
ee82
fda5
0572
0467
f596
012f
0c34
eee9
f7c3
fe50
00fe
f004
df9b
eacc
0c76
e0c4
f58c
060b
e60b
f933
1467
01ca
037c
037d
0bcf
f642
eee8
f4f8
02c4
f5a6
f330
f753
ec7b
01ee
04e3
ff14
07a3
023f
f908
086f
f8c6
f61f
ec04
faba
0525
fb95
0429
faf5
ef23
fdd9
028f
f42e
f372
f4d5
051f
f938
06a4
f2cc
03bb
eeef
087d
f14e
fe19
f401
f452
014e
ffcf
0340
0ce7
fb62
03aa
f5db
0319
028f
0552
f681
fcb2
05fe
f216
fd0d
f8cc
018b
037d
0329
f8f9
f3a5
fc25
0692
ff3e
0763
068b
fe60
f45e
f8be
025a
fe5b
f21c
fd29
018b
0c14
0272
feea
0217
f29b
ed50
fbd7
eeec
f906
0ade
eeb8
fa73
f827
06d1
f32a
03ee
0a5e
f0e9
ff1a
0ab3
0275
f23f
09e6
032b
0012
fe4e
0546
ff73
fb77
ff2e
f755
f46e
f2f5
f0d2
ed0b
f9a4
fe77
0409
01bd
f73e
02cf
eebb
03be
0336
f7cf
f932
fa7c
facb
f7ad
fc15
0762
f51f
0ac7
fb69
0889
fac6
087e
032e
0364
001b
f741
08c3
f89d
f23c
f53a
052a
05e6
0d04
00b5
f324
feac
f1a7
091d
0905
f346
f957
0600
ef24
0412
f72b
f117
0748
fe14
f12a
019a
fc62
075e
fb95
f142
fe74
f1b8
ee4f
0aa6
0450
0a20
09c3
0086
0deb
0200
0884
ee71
0dce
fccd
f2ea
fe41
fb2f
fb77
0709
056a
091c
042a
0168
f17f
0603
f6ec
0243
0a0a
03e4
039c
0d98
0544
002b
0a0e
ff91
edd3
fd98
0b58
f0ce
092f
f159
ec9e
ed9b
fd3f
ffa3
fb6a
ffb6
f6ab
f190
efed
f38d
f781
f311
eed2
ffb8
f1a1
010a
035b
fa96
eea3
0752
fcf8
fbee
f428
fa87
0709
f21a
fdc3
f1f8
ef2f
00ca
0a38
f039
fa8c
ee96
f093
00d0
0b7f
f098
ff87
04cd
0a72
ef81
04e5
0c39
0a34
fc0c
f04d
068c
f18c
ec72
04b4
f806
0929
f717
fb95
0815
f793
022a
ff5d
f8ce
ede9
07c8
f87a
f45e
0a95
fc39
0410
f230
f00a
f8f8
0db6
fc2c
f4cc
03de
01ac
f8f3
05c7
0afc
fa23
eec2
f42f
ffbb
f41d
fa5f
f8d9
0ace
ef89
f3a0
039e
fca0
06a0
f31e
0ad8
04bd
004a
ee9a
fd1f
f580
f165
effe
faab
f3e1
f58f
eddc
0886
ee76
0a58
f623
fe29
f84e
f25f
f17d
f7ad
f7ce
0e0e
f061
f516
03df
ed59
ee43
00e5
04f6
fa4c
efc2
0a40
00d0
f992
ef01
f361
f940
f0d7
0a3a
07b8
0364
0081
04b7
04a0
fe35
0719
ffa4
04b6
f723
fa24
ef0e
00ab
f12e
05ee
04af
fde8
f7e5
ef9c
fc37
096e
f07d
0851
0741
f0e5
0c74
0533
f18a
0304
f0bf
f030
00f5
03e0
00e5
037a
f078
f72f
ff21
04e8
0c3c
f8de
f4c1
08b9
f822
04ec
ef24
01e5
00f8
f5fe
f555
070c
f156
facd
f962
0715
fef6
f468
f1f5
f670
0188
05f2
f40f
fca8
efe3
fcfa
f0f4
f1a7
ffed
fc56
0774
0bd2
f0a4
f720
fbb3
04bd
03f5
f43f
06a4
f1a2
f5d0
fc06
0be2
075a
f9fd
f339
f8da
02e7
ed25
fb60
f673
0191
027b
ee47
025e
ef76
f602
f12f
ecc9
065b
f1f1
fb8b
0202
f061
f119
02c8
0057
efe7
fd5b
f112
f1ec
f183
f794
0b00
f26a
f4c9
0537
f75c
f636
0092
f46c
0c44
f8ba
f5f9
05a4
f3b4
f165
005a
01d7
0b89
f968
f9e5
f17b
ef9b
0c53
f53d
03cb
fa5b
01a2
f376
f9c5
f345
066d
03d3
fb2d
0a58
f829
feb5
f920
fbae
0849
f69a
f8c7
ff7f
fad9
fe5d
02f1
ee89
f51b
f7c8
eaff
006a
f859
f40a
0ae1
0bb7
0588
0576
fb36
04a0
f0ad
f3ab
0409
02fa
fb39
0650
00f9
f17a
f0bc
083e
ed7f
f042
fbe8
038c
fe45
059a
f103
00f0
0225
09aa
ebbb
ee14
fe9e
fb8f
f61f
f8d9
fada
ee1a
fe58
f267
0a77
00e3
08cc
fa15
0859
03a9
f316
effb
fd12
036d
f46c
02d8
f9b9
eeea
045a
f978
0652
02f6
078f
f885
0990
0c5a
07ad
fdd4
fbad
0664
01f8
ef6b
0449
0ae9
00a0
fdef
f339
f9a0
f6fe
01cf
f22f
edfd
0414
04e4
faa1
f9c2
ffe4
f31d
08f7
f23b
0bc9
f465
01c7
f453
f8a9
f276
09b5
efa9
edcd
04b9
fa0a
0749
f767
0082
0424
fff3
eb46
01c9
089d
ffc0
f4d9
faa4
fe7c
fbb6
01b1
f677
f4e0
06b9
fcc9
0966
0c4c
ed6a
ebe9
ed0c
0417
087a
ef41
ff8b
01e1
0471
0aaa
f222
0795
0ad9
f4cf
f2c0
01cf
fc09
edff
0b45
0de4
f0bc
f8dc
0c2e
ffad
f58c
f601
0a23
015b
0250
0442
f46a
fc7d
f956
ffdc
feea
ff70
fecb
f0c5
0557
0062
0496
0b29
f638
f93b
f739
0905
f37d
0bb4
fbc3
efdf
f4d7
0087
09a9
0247
eaf7
04c1
0517
0739
ee7e
f95c
f531
fe29
034a
f5ce
0270
04af
0313
f564
efdb
08de
f027
0448
ee8a
fc42
02fa
f1c3
f1d5
092f
fceb
f0fc
effd
04bc
f705
ee8d
f6c7
f339
fe79
f1da
fd7a
0ae9
fa7e
fb46
0251
ef99
0db8
05b2
f191
0666
faea
f813
feda
0704
0727
fb0b
f52e
0257
f8ab
08b0
ffaa
02cf
f004
05ee
05b1
f44c
fac2
f4ba
fd4e
f5b5
0295
08e0
fca5
f6ac
fc41
f49d
061b
0489
065c
ea63
0cde
0399
f5fa
00fc
0327
027c
f5e1
010f
ef39
f456
0009
f8de
f449
fff6
e7a9
ee30
ee9e
fec9
fdce
fc5e
e856
003f
fd86
f8e5
f8e8
fcd3
fbdc
07b7
09e0
0cdb
eb81
fe91
f3f9
09ad
fd00
fe00
f0a4
00c5
064a
db41
f5ee
e8bc
e131
e9b5
e733
fe1e
ea50
e463
f4d9
edbd
06ce
efa4
07a5
f82a
f64a
eed9
edff
ec18
f2e7
e418
f4fa
f377
e689
f8a8
f5d2
da41
f00e
0617
07e5
feb0
faa2
02cc
fd67
e8b6
f1be
fb6d
03d4
fa85
0a58
f863
f36b
0187
fa56
044f
f299
e88b
fe9e
f8c3
f587
fb44
ec5c
ede5
f66f
eedd
f31d
f360
eb95
07b3
03c4
fe1e
08fb
0787
faae
f967
ea1f
0562
0129
f8c5
0988
fe78
0051
e531
f40a
e69d
f498
009f
f5d0
1484
0247
0c4b
0276
f037
0b6e
f44a
fb24
081b
0248
02b4
fc26
03e3
0b86
fa64
f94f
0885
f638
0a27
f89e
05f6
0bde
02d8
fd3e
0bbe
f3f8
f68d
fe5c
0ac9
0bc3
04a3
0283
f9a2
08e3
0219
f614
f687
f18e
0413
f490
f688
00f2
05a3
f73d
f970
0152
fcd1
f9ed
f910
0aec
041e
fd14
060e
fccb
04fd
ef93
fc9a
f088
f3c7
fbc1
051e
f532
fb7d
f462
f644
f6ea
ec85
0368
0211
f268
fccc
e406
f93a
f12e
df4c
edd1
f3f5
ec86
ef99
ea40
ee34
f4d2
fc33
ff58
fea6
03b2
efc9
026e
f651
f1cb
f4f1
f615
f23e
eac3
f62d
fc9c
0485
0294
022d
ea6d
f45f
03e5
09dd
07d9
fd8b
f0e1
fcff
0377
f2cf
fa99
fb79
e916
0593
ff47
f2fc
fc1d
f150
f294
fb0d
f124
fd40
0276
0339
f09f
fa65
f77f
fe0d
0725
fa5a
f5fc
f70c
00fc
0255
fe95
ffc2
0288
0901
ef6c
f247
e5df
e23d
fbdc
ef38
01a2
fb72
0870
f67d
013b
feb5
006e
fb22
f044
eeed
f2d5
0188
ee8c
f0cb
06ea
08ed
ebdf
ff1a
ef04
f92d
fc46
08a1
ee57
fe94
0b1c
fb46
ec06
0cf9
efce
0589
0f77
fd77
fea0
f0be
f5bc
0006
0252
f0ee
05da
fe51
eddd
f85d
f93e
06c2
08db
0718
fc0b
fcfd
fd43
ffe6
f5d1
fb2a
0392
00e4
f1dd
f93a
097d
fc15
f515
f844
f1b5
f861
f80e
f3f9
067f
f7ff
eedc
f521
f428
ff63
ee96
ebdb
f16a
eec3
f63b
0248
eeb2
f306
f1f7
f87e
eb9a
f467
ec3a
f231
f1cd
ed89
0614
f403
fb34
eef2
f884
03fe
f69b
f2c2
ed2a
eb4f
07e4
f932
08fe
fff9
f050
f6a6
e9a5
016f
fd7b
f497
024d
f2b5
f792
0161
057d
08db
041a
fbc8
fbbf
f537
055f
f18e
f251
04e0
04c0
faff
fe30
f8b9
08ee
0496
f42f
ecf1
f25f
f79f
f7ca
fe3d
f301
fc8a
f448
ed62
edb7
f412
097b
0017
eb5d
eab0
fd6e
f1d9
f749
fcf9
f118
09ad
00d0
f65f
0643
fe73
fd58
fff2
fad4
0502
04b6
01ab
f89d
f3d9
eeff
ee3e
004e
f925
ed52
f635
033a
ff96
0bb0
f219
f413
f9e7
e9c5
0863
eac4
03e0
ef33
024f
085b
fb65
03c6
0c4f
ff79
026c
02ff
f031
f480
f694
ed1f
fe2a
fc8c
09c7
0978
f4fb
0cc0
f3aa
f4f2
fbc0
fb5c
f930
f742
fa4a
efb7
ffea
07c0
fa73
ec5e
f3c5
efff
ff59
fb0b
fd2b
fec5
09c1
ebfd
f012
0459
f97e
046e
fb1f
f509
0ab9
f383
0426
ff93
ef34
f447
ff5c
f4a3
06b4
01b6
04a0
0661
f068
f5b8
fe9a
fbec
0b11
ec06
ea8c
f923
f3eb
003e
02ae
fa4c
fc7f
06ca
04f3
0485
f72f
f6c0
efee
fcf8
fb85
f0bd
0bb1
ff8d
03f0
f0e6
f25b
0521
eb0a
f223
fe23
04dc
ff3e
ffc8
f3a2
0b3b
f6ad
fbac
eeaa
0744
f98d
06d8
f7e2
fd08
024b
f050
f05f
f409
02ab
f155
f9a6
ed64
fabf
04c6
ea92
f78c
f82a
0299
03c8
f8c7
093a
0cdc
fdfb
f79f
efa5
043a
0223
0015
f8d0
0300
0466
f580
0b22
f256
f57d
f2d1
0d47
046a
fbd4
f14c
f69a
0385
011a
01cb
f749
0c97
f2ef
eeb8
0016
fa80
0b36
f32c
05ce
0606
fd0d
fd06
0b6e
0a8d
0a59
01d4
fc18
05ee
f92d
f521
fb31
063f
feda
048e
0db3
0cf8
ff93
0c7b
f20f
eed7
fd3e
f99e
f6d9
0908
fd30
ffad
fee2
0383
ebf0
fa4b
00f5
0525
f459
f18a
efa0
f6cd
f4ac
f393
0874
f207
f3a2
fb78
0b3c
f764
f9ca
f9e9
03d0
04ba
037c
fcb7
02f4
0797
f429
f724
f973
f667
01a5
08e7
fef7
f88a
fcd2
081e
0346
fdeb
f6f2
ef6a
0961
ef73
fb5d
0089
f369
ee5a
ed08
ead4
ed83
f63f
f0e4
ea8d
041c
f987
02d3
fa2b
fb2a
f1b4
0996
ee20
0176
0a5c
ee59
f60f
0d2f
fb66
fc9a
fb65
f383
048f
0034
f4ad
f8bc
09ff
eef1
f977
f462
ff0d
0511
00c8
fa92
f53c
00be
f798
0bfd
ee6f
06ed
f185
00c8
0e75
f5df
f157
fa0d
f853
0a73
0a40
f4d7
f0f9
002b
fc8c
fc60
068c
09eb
00c4
eefc
f5c6
0874
0531
f28d
0021
0b80
f904
08d2
f4a2
fbc1
02e5
0641
f348
05e0
0666
fc8c
07c6
eec5
04e6
f229
0bef
04d0
fb88
01b9
0b14
0a21
0bb7
0079
ef0d
0999
011e
0a76
fb1a
f2c0
f544
eeec
f286
f89d
0594
00ec
fabb
f8cf
f145
f670
f87e
f282
052e
005f
f035
f479
05ff
0835
fdd5
03cb
f78c
f8d9
084f
f7f4
08c3
05a4
017e
f8ab
fdb6
f3a7
fdb8
f564
fb98
0c18
052e
fe3b
002f
0bee
ee25
0895
f410
04c8
0c20
0c80
ff7e
f7d3
fb96
f580
f1f6
eded
f535
06a8
043b
0682
081c
fe30
fe65
f77b
f743
0b16
fe3a
f884
04dd
eeee
0156
f0df
fa8a
0830
0846
04cd
07c4
0ac9
f4db
fa58
f6eb
f9fe
05e9
f2ae
f79f
09a3
f128
fc3a
ee59
07b2
0c92
005e
f28e
f82e
eefb
f88c
03db
f506
f60e
0d32
fb4e
0c88
fcb3
0c43
07b0
069a
ee25
f592
0892
0164
0b6f
005f
07d7
f8d1
f874
f917
0165
fb3c
f4a0
077f
085c
026b
093d
fd36
0e12
0383
fa6a
f47c
f5c0
0186
0841
098e
00e6
f228
fa04
04b9
08e3
fbd1
0538
0627
0d36
f7c8
fb3a
01b0
0344
fcec
0a6d
01a3
0da9
ff69
0b0a
f1ae
f190
fca8
ff19
0bc4
074f
f22b
fc08
f7a1
021f
0954
fdb1
f654
f421
f891
0799
f5c9
0d54
0da0
04e3
0dac
f3f0
fac9
0331
087c
0d08
04f9
faac
ffcf
fd6b
01fb
0ba4
0221
098b
0cfd
0a22
f396
fa24
0d87
fad7
033f
02d1
f27f
00b0
03ce
effe
0d44
ff3b
0264
0662
f6c5
0c52
03d9
09ea
feb4
fe71
f81d
ee10
eef9
f4ca
f1ca
02c9
f71f
f836
f0a4
0a4b
f5ac
f786
fca8
06ad
f1f0
f03f
01ac
0dc0
fd8f
07bd
09d7
f94c
0295
01b9
ef74
f5c0
01b9
fe8b
006d
fc01
fa38
ef88
fd1a
07d0
fb88
05e4
ed5a
fa7e
02a0
f292
fa7f
f94f
01f1
0a4d
f5f9
f9f5
06fe
ef18
f1d4
fcaf
f7ad
051c
f2ce
09bd
fda9
0457
ec05
f9b0
028c
097b
f27c
04b5
ecc7
0976
efaa
f536
eddc
faad
0112
f6fb
fc10
e7f0
fb70
fc33
00b9
eb28
ff6f
fbe6
019a
0481
f0bf
06f3
0cb4
eff6
037c
f7d3
0b80
0419
06f8
ed13
06d6
f90f
efab
0250
f1fa
0190
f2ba
ef65
f220
031a
038f
f057
021d
fee5
0344
f94b
fbb4
0515
f89b
f26d
f8b5
f333
f9e7
fbff
e901
0277
ed1f
e8e6
02ea
fb2a
eaed
ed5e
0346
f89d
fb5f
ffe7
fdff
ebb1
070f
065b
fd6c
edca
f6ee
f1a3
f4d9
f364
07d4
085c
ed99
065a
0537
fa18
edd3
f8fb
fe5f
f2ec
fc86
e989
fba6
f61f
fe1a
ec84
06ca
094e
05d2
f379
ed09
ed54
fe8f
fe33
ea24
ed8d
e991
fde0
01bc
e968
eff8
ebad
fda8
0394
ebe0
f83f
e75c
e64e
f5c3
0142
0247
ee79
fe7d
f14b
0d63
f8d7
f33c
0c88
f1c9
f728
fbfe
fb31
04bd
f5e2
029f
ff31
05c6
0d02
0f65
1004
06bc
f6cc
f72e
f9f2
fc7e
f4dc
0c71
002c
0686
ef48
f327
fd77
f6c6
022c
02ab
0828
f203
0a4e
f509
fd35
fb22
ff30
0625
f46e
02be
0db2
f7dd
0bc8
f51c
fb3a
ff3b
f20b
fbd7
f772
f99b
f085
042c
f687
ff6f
f142
f73b
f557
ef1a
fb55
09c6
eb67
0830
f14b
f58f
eddb
05db
06a8
fc67
ff9d
0b22
f989
0024
f278
f2ce
f37d
fb4b
0084
f4ab
0b7a
f987
063b
faca
ecf5
f619
edad
0191
0476
fa98
fc23
f156
f75c
05e0
f00c
07ed
0961
00a4
0224
fdc8
053b
eecf
ff2d
085e
f79e
f4db
06c4
ed50
0574
f176
02c9
f72f
ef33
0992
04ee
0bde
ee46
fae8
fa4d
0270
f968
fbb7
f2c7
0a61
fa2c
f76c
f567
03fb
f74e
f754
f24b
0a0f
f01e
f669
ee36
0411
0122
f87a
fe20
fa3d
08e1
fabd
f536
fe04
f7ac
0ad4
09a7
fcb9
fada
f483
f946
fe28
f989
f27f
f960
0196
0739
f2cc
f327
0338
006e
fc40
ed6c
f0cd
f9f9
0838
0ac6
f35d
f1ef
05e6
ff8f
ec89
fb5e
fe33
05e7
ef90
fb7a
f710
fbd0
ec35
ee54
02be
fdec
02ce
eb65
f498
07a4
027d
05e6
fe85
09d4
0500
fb9c
0309
fcf4
f812
05a3
f54f
fcd1
0558
01d1
0699
0799
fc07
e8f4
f3bb
e22f
eedc
eb5c
e3af
e5b0
ebbf
0a01
07cd
fac3
f490
f4e4
03ea
f5e8
ee6e
f5e4
f6d1
ef7b
e919
f1e0
fd27
ec04
eb13
e01c
edea
04ae
00ac
f7e4
f797
f7e9
f7a5
f632
0454
f586
f3d4
0893
017d
ee13
f1d5
04ca
ed8b
05d3
07ed
e8c6
fa9f
e6c9
f16b
041f
f970
04c7
f5f9
e68b
fd92
fff7
fa1f
02d4
f986
ec7a
fedc
f330
ffc7
0a90
05e4
0262
ed48
eedf
eab0
ebae
e8c1
0425
e59b
f4a2
ebb3
ed20
f5bc
e7ea
ff69
00ad
0ec3
f597
f0cb
08cf
0298
0d58
0842
0830
ecf2
ede7
fcfb
0520
049b
09fd
ff5b
ee54
f691
05c1
f5a2
017a
05f9
f77a
fb8e
ffc5
0a91
0b29
f6d6
fc29
080e
ef05
ff24
f160
0b4f
f330
09e3
0ba7
f411
01f3
0480
010b
0582
0a75
f6aa
ec1f
f65b
f222
086c
01e5
efc7
05ed
fc2d
fe9c
f68c
f094
f75b
f798
f937
00cb
f691
03b8
fa6c
f326
f483
fb49
f176
f357
018f
f165
fd6f
0153
feae
08a0
0a43
057b
ee39
03bb
01ac
f61b
fb5c
0c7c
0daf
031f
f879
f6e3
f5a4
f64e
ec94
0bdd
f0ce
f9e8
fd59
0617
0503
080d
f78c
0aea
0318
f881
fada
fd14
0bb8
013b
08cc
07fc
fa0b
ecce
0d0a
fdfc
f2f2
fa25
ff70
f952
fbbe
07af
f47e
ec17
ee1b
0aab
0014
fec8
084f
f4ea
07b8
f46a
f176
0814
fd50
08d7
08af
fb7a
f263
f3b9
08a2
096a
efd8
fcae
f7bf
ef9b
f790
fb6c
09dc
0a6c
f042
0153
ed7f
fc07
faf8
0678
03f6
fdc0
eeac
f74f
0999
f5ca
f8fa
f5c6
092b
08c3
00d7
0afb
f9aa
fbb8
0583
0309
ee5f
0460
0425
f71b
fa7e
0a80
ece0
f7d7
f5d6
efd2
f99e
000c
f108
f0b5
f6c2
ef62
fb81
09c6
fd1b
ebcd
f7dd
06d0
eddf
f066
f670
ecb8
069a
04ce
09c3
fc91
ffdc
0248
0413
02fa
0982
fb2f
03c1
020f
f1e4
f6dc
fdf2
eee8
01d8
02fb
fc5a
0a20
f40c
fb9f
f84a
01eb
fc4b
efe0
06e2
0b57
003b
fe00
f3cf
fa68
0308
04d3
fcca
045d
f5f9
f89a
ef0e
ee20
040e
0769
05b2
f12a
067c
0be0
fd56
0811
07a9
0be1
ee4a
ed34
fc57
0b63
09b4
f828
f9d1
fec6
04b0
0ba1
f9ea
ece4
fe2d
fb69
0adb
0c07
fc5b
0b90
fb0b
f66f
fcbc
fa15
f331
033a
fbcc
f321
fd8d
fcc1
0708
077c
f288
ff25
02b3
f9b1
f169
0093
011e
ed7a
f31a
fe20
f12e
f969
ff12
f130
fac7
e9e0
ec41
f034
eef3
0c93
fdcf
0956
0ccf
0934
085c
ee2e
f5b6
0279
ed8d
02bd
f572
f958
f9aa
006f
0928
00fe
0cbe
07fa
f8ae
f609
f57e
0bde
0748
018a
efa9
f065
ffe9
f33f
fdc4
086a
fcbf
014a
0683
fa20
f2f4
0a2f
ffcd
044c
0153
0ad7
fc78
f182
05cb
f561
011b
0caa
0d18
f60d
0ae8
f458
f88c
0811
ff33
0283
fa4c
01ca
0b8f
063f
f193
02d6
082d
0bc2
ee11
f804
0965
fd66
059e
0319
f018
f45b
f978
f63e
ee64
063a
f62d
0356
0df5
0603
0109
f9fd
f4d3
fb8c
f3c7
08ab
ef4a
fd89
05e3
fe9b
f873
f831
0635
ed84
03a6
f28c
05c5
fd7d
028f
027f
0ccc
fe3c
f102
f190
0243
0a1c
0ae9
f824
f2cf
f83b
fc1f
f8d1
fff7
0b6f
0299
0c39
f3c9
eefe
05b3
f9d9
0576
fad6
f7f0
fb79
0770
0d57
f18b
05c5
f25e
ef31
02c6
0e11
f06b
f096
fe30
f32f
08bc
fc57
f650
fa9b
ee33
f540
fd95
0959
0034
fbf9
0b37
f428
f863
0064
fb05
02b9
f5a9
ee8a
08b3
fd2d
fb37
ff31
ed7c
fd0d
f270
077e
fd9e
020f
fafb
eeea
f7a5
ed3c
0b00
eec1
0468
043b
0c13
f669
f908
fdc1
050b
054d
f5c1
0ced
f1ac
fe6c
f2d3
ff86
f75e
edaf
ef42
01c6
f908
f98c
0368
fbda
f65c
094c
0b64
075b
f865
04ca
f7fd
f6e6
faa8
f3bf
edbb
f5ee
07fe
f8f7
f77b
06ff
f76c
fa8d
f076
fa3d
f389
04ad
faf9
0a4e
ea04
f892
f23b
f417
0575
0af6
fc9a
0222
0024
08f3
069e
f40b
ee55
f900
eb2b
f542
f6c3
01ad
f774
068d
f332
00d1
eaae
f1ed
f02f
03b6
f9e1
f271
0df5
0c8c
ec3d
00b5
099b
00df
f737
f456
07e6
edab
fd12
ffa9
eb2a
fa6a
078e
fc39
eb22
04de
f07e
ff1f
07ac
f777
002d
071f
f48c
f537
068c
f8ca
0b64
098f
eeb2
ef4b
f8c6
0497
f10a
077b
032e
eb68
fb65
eee8
fd06
eb0e
f22a
04ad
0c47
fcac
000a
f00c
f7f9
ff15
f770
f1d2
0458
f0f4
0599
e990
fa0d
f64a
03ec
057e
f4ab
fab7
01ea
feb2
07e9
0c39
f344
01a9
0be2
0116
08b7
f49a
ee07
fc45
f998
fb7a
0b32
fa87
ed7f
f4f1
080f
0133
04f7
0721
f4a9
0098
fa16
f043
ff09
0118
fc12
0517
fbc5
0940
0d17
f4a8
fa69
fee3
f88d
ef81
f5fa
fa2d
f650
03e5
01a5
f440
fa98
ecc9
f52e
f1c7
f799
e892
fce9
01e7
e73e
e8d8
e7ee
f4f5
fa7a
fb26
f9d8
f1a7
f547
06b2
faae
e98f
eead
d68c
db47
e8f8
e0c8
ef5b
ea76
e5b7
e8e5
e7d6
eac4
efcd
f10c
012b
eb22
fe8b
ef64
fe03
ee32
f41f
f9c0
08ce
ffb3
ffcb
eecf
edfa
06c7
fcfa
eb47
fefc
fa3d
f416
fa94
ed3e
ea72
fd8d
04a0
0199
052f
fa19
0b49
00ed
f4d0
038c
fcbf
0186
e999
f742
f7c1
05b0
f3fa
0335
eaf4
ecad
0394
0195
1685
0c0d
28f9
2d19
198c
1682
0d6f
0791
f802
f088
fdb6
0dd3
066b
0908
f77e
0919
0af0
fe68
0c0e
f830
fcb2
f018
0811
0814
040d
f48a
0758
0303
f933
0bff
0a62
f5d1
00e9
01a9
0134
fa62
fdcd
fb48
fbf9
fec7
0358
fa76
0bcf
f3b8
fc12
0a21
f857
f47f
ee7b
fe80
fffb
faa2
f13e
0746
fd47
00f5
f650
0a32
0054
01e7
044d
f9af
0cfe
fa8e
f9f3
f74b
055b
f729
f3f4
042e
021e
0894
f502
ee17
f64f
ef58
f8c5
00a4
f7f7
0887
f08f
f907
0e0c
f8c7
0ce4
0a7e
f6bd
ffb1
04bd
0805
01f2
092f
f058
0187
f1b5
05b4
efaf
fca1
076d
fd26
ff28
02f3
0a74
ff2d
08bd
eeb2
fff1
0490
f99a
f819
f52c
0a28
fe7f
0266
f2a2
eef7
f08e
f9d1
0ada
f0ee
0120
f252
ee5d
05ec
0817
0494
f80a
057f
0cf1
07ae
fd49
fe64
f642
f695
02d4
f837
fddf
f302
06b6
02f8
f321
fc69
0634
ed56
f6b0
09a1
fe19
fb9d
f88a
0392
f276
0bb0
f59c
0891
fd36
f160
065f
fe57
edd5
f2d0
087b
0c5c
fcda
01b0
ec8c
fe84
01cc
fa6b
ef64
04af
05ad
f59f
eaef
f858
007c
f8b6
fbb0
f76c
ef3c
f431
fa96
f829
0111
f53c
f59f
ff98
0a74
0956
04d1
f7f1
f43c
0948
f0bb
fd8c
08b5
05fc
f2f5
0a16
0c2d
f437
01ad
0171
f8b3
009c
ef53
05ec
f3a6
f308
0052
f37f
ed58
fd1a
fc98
f203
f51d
07cc
02ca
f3ce
05d7
062a
fe73
033f
031f
f382
011e
f72b
0de0
f334
f258
f113
f471
fc83
0b79
00d6
080d
fa32
0435
0967
fddd
f6d4
0314
f388
fa65
f6c3
064d
0090
031e
f1e7
041e
0807
edd1
f879
0397
f121
f8d3
0b81
09a4
0c15
f456
edbe
fe40
f8ec
f784
0a51
0a94
fbeb
fa48
f29f
0380
f799
0ae0
0c56
ff89
fbba
0184
ed71
f768
0a21
ee61
eeb9
fb9c
ff8c
0009
f718
f2e5
f72c
fa45
f888
f24f
ffb0
064f
0215
008b
04f9
fd94
0ab0
0591
efa2
00bb
f98e
fca5
0414
f574
0211
f62e
f667
08c9
fe86
0202
f3b4
f533
098d
fa2e
09e3
02a1
03f0
f767
f329
fd98
0e56
07ba
f4c1
eff0
0296
055f
f48a
0bdb
092a
f8a5
f39a
fc79
f1f7
f186
eff9
0868
092f
084e
fc91
0016
ec3c
ef11
fad9
f076
0d8d
fea1
0541
047f
06cf
0479
fcdf
f370
f523
014a
faa3
f82a
f975
0b88
f7f7
ede0
08e5
f69f
fc36
039b
02e2
0712
f91c
088f
0b8f
f20c
f4b4
f0d6
f643
f126
fdb7
0aa8
ff5a
f4dc
069b
015e
f770
01be
f355
04e7
f9cc
00d3
00e6
f6e7
fafe
fe2d
f0ca
f714
f588
0591
0646
f60d
093a
09a1
09a4
f9a8
fbbd
0883
fa7b
0044
0167
ff64
0734
0a51
fdf8
f145
fd5f
0a59
f247
f622
0dd7
097c
05d3
0470
0b3c
f310
f222
0d1f
fff1
fe50
fd39
fec2
fe07
fd47
f303
f28c
f3f4
0006
fdcf
f777
eec3
f70c
ef4c
f8dd
fff9
0825
0184
051c
f118
022c
0698
f901
029d
fcfb
0614
f0b0
04c8
ed6f
f65a
f1b0
f96b
0c8c
0cb4
f8f9
f81e
fe3e
f5b4
eef8
0a0a
f34e
fa0a
f314
f60d
f43d
f521
09b1
ed6c
0888
0ce0
fa5e
fe54
0147
ebdc
051c
e90b
0480
f552
0371
fa63
fba5
fe37
f258
f1bc
f5dc
0485
f54e
0492
fb0e
f605
0679
fbf6
0a8e
07e2
fa59
fedb
fc85
fec6
feaf
f7d1
021e
f992
e7a8
f0d0
fa89
ec8b
f7df
e786
fd67
fd0d
0474
f003
f863
ff73
f7cd
f912
0085
fc5e
ef47
fb7b
f2b6
f2ba
ed2c
f79d
ed35
f7ae
fc84
f9d9
05bf
eb58
0675
ec6c
0346
ef20
f49e
ec57
eff1
f285
fb25
eece
f409
07aa
01d0
0452
eed7
f3eb
ff76
e761
f88f
ec03
0627
f771
edc9
fbd2
03ad
f1b5
0110
f04b
fc85
028a
f7cc
0692
00bd
03c9
f271
08f0
05b4
fc7e
eda3
0028
f17f
f7e8
f264
eff5
e279
eedf
e99d
f66a
017c
0451
01bf
f49d
f254
ed9f
f2e0
f365
0c02
f22c
0bfa
ee8e
0c29
0921
02c8
f6f3
0a0c
0b0d
fe39
f36e
0c4e
efc7
eea5
08bb
f2a9
efc3
0cb6
05bd
fcaf
ebb7
ff71
0969
f206
097a
0aae
fe9f
0b55
05be
f37a
0711
0907
f5a5
0a5c
f95b
091a
f218
f8f3
0413
fca4
f43d
08c7
04a2
f68c
0a4f
0c44
0300
fb79
f245
0897
02b5
f0be
f501
ef10
f904
0625
06ad
09d5
f00e
06d5
fc89
0476
f4eb
06de
0a04
f33f
ff13
0d91
fd41
fa8d
00ac
fc1a
fcf7
0b36
068b
0409
ef0e
ed3e
facf
059f
fe3b
ee71
0164
033d
f0bd
f17e
ec72
f46d
098c
f837
074c
0a03
f1cd
ffe1
0bfd
025e
f16d
0d0b
f097
eec3
f871
f418
ed9d
0bae
02f1
fb78
f96f
fe97
f0c7
0a83
fd7c
03f6
0b8b
0592
edc7
edab
0c7d
066b
0691
f380
0b37
f647
f177
022f
0637
fd0a
f095
0750
f4cf
0836
f3f5
04fa
f57b
084a
ed1e
0743
f21a
fff9
00d9
07fe
ef4a
fb25
f334
f3e3
f64d
feae
fdd7
09a0
0478
0cec
f3aa
ef87
f186
0681
feba
062e
0249
fff3
f6da
0160
fba4
ff68
feca
f0e8
0259
0d36
0444
fae2
0ef9
02b2
feaf
f292
fe5e
04c5
0c91
00b0
f70f
f094
0aad
ef88
07b3
f0e8
fdc5
0790
f9ed
ff66
f8a8
fcd8
faf5
f70a
0642
0b2f
0ddf
0320
f772
02e7
fac0
0599
f343
0dd0
ff62
f3b0
f437
0886
03b0
ef04
f1bf
ef71
09e9
fac4
f2ca
f782
f4b5
0148
0ea5
03e9
0d95
fa0c
0d9f
017c
f36d
0a7c
ef98
f4df
0790
f9df
eee9
f94e
0899
fb5d
f976
05fa
f912
000b
01df
f047
fc00
044a
f27b
f4e7
0004
fe1e
0330
0975
01d0
f119
001e
fbe2
05c8
089b
f332
0727
fdbc
ee84
f790
f1de
0903
0d34
facf
0376
f1af
0a19
0d71
02b5
ff0e
ff24
f75f
f1d4
0806
0404
0c37
f19c
f35b
0204
0260
f847
f9c8
f9b5
0aeb
062e
f729
fc5f
fd6a
f63d
fa52
fdb7
0b61
07c0
0d57
ef95
fa06
031c
023b
fa1d
fdb4
021c
feb8
ef91
0384
0536
0b9a
03ac
f306
f0ac
0710
fa65
f203
0e11
0414
fb31
f397
0b39
0abf
04c1
075d
f89b
f5e1
fcdb
ef31
0b05
f819
f3c9
023c
fd08
f7bc
f96c
0bef
0d37
069f
f0df
ffb7
f020
fcd1
036e
0193
fe39
f02f
004a
f3e2
f166
facf
f40d
0ccb
fb06
fa83
f9f8
fde1
047a
0839
f334
09a4
fe81
0b5d
03ee
0f2d
0354
0a59
0eec
0672
f546
f764
ff72
f312
ef41
ff60
ef2a
f3fc
fb36
08f3
0014
f8c5
035d
fd74
0985
0e20
f6f4
0a75
0a0a
08b5
fe12
f1a7
f6ff
fe32
07bb
095b
0d9e
01b4
fc4b
0e51
0c93
fef4
f877
f12d
f464
00e2
f44d
f97f
f125
0d3b
091c
0f3a
0e28
05ba
0ebd
0077
0de7
f3d4
f1a0
f96d
ef45
f742
0c2f
039c
f185
0a78
090b
f80c
f283
fb47
f808
fe74
0b63
f090
fc85
fc82
f605
f399
ead6
f261
eb6f
fdfb
ff94
0152
f8e1
f6b4
ef0a
0954
0507
fc2e
0181
0624
ef0b
0527
feff
03aa
0054
fd46
0325
0c50
fdc4
f6ec
efd3
0b33
0191
07b5
f22c
0ced
fc56
01af
0042
fee2
0ca3
f62b
ea2f
f8ae
f66c
0486
fe5f
ff58
e6cb
fa81
fd3d
0bb1
f1ab
f7d7
03de
feca
0178
0d07
f280
fc65
0609
f765
01e8
f96c
ef4c
f07c
07ed
f200
e11b
df97
dc66
fb09
db19
f31b
e045
e53a
f115
f29d
f81f
fbe8
f10a
eb54
f641
ed59
fe67
0367
fa41
ecb1
fc9d
e6da
e256
ecea
f1d8
fd2c
e67e
eb53
f09e
feba
f83d
f593
e632
f257
eca8
e611
f426
0784
fa97
ee40
f8bd
f9d9
0874
f06c
0211
efa2
0076
fdc4
fde2
ea0d
e95e
ff1d
e9ac
e69e
fccb
f283
fe5a
0918
eda5
f6fa
f86e
07f8
003b
04be
f1f6
f07a
f6e7
0b47
fad8
02b7
0356
0064
0452
f8c2
e9a4
fb9f
1461
006e
f577
eddb
0600
091e
f6ee
0983
fc67
fe93
031c
075e
fa4a
082b
f008
f288
09ab
f601
ec96
f3d6
05a4
fb35
fe65
f776
0568
f3ac
ecc2
f34a
00da
fd42
eeaa
f79c
0287
f98d
044e
ede0
eeca
0b8f
0515
fb50
0de7
0b82
050e
ef26
07fd
fc54
00bf
06f7
f8cc
0881
f6df
fa8c
02e1
090c
f703
f89a
f083
f2e1
0cc0
fdcf
003c
00c4
05f3
008f
095c
edd3
07a0
0aab
effc
ed64
0312
f135
f84a
eec3
0443
f4a1
054b
06ae
eef7
ee43
fecd
01be
f12e
f56a
ef0f
fc10
0069
ed05
05cd
0641
f5cd
f5d8
faba
ffa8
fba6
056b
f673
f776
fe3b
f965
fb7e
fbe5
04a2
f7f6
0427
fce5
ee48
00c8
fb59
fab9
0280
fd8e
0d12
03f8
0320
0a96
0282
06cf
ee6a
037d
04ac
f7e7
fc4d
0bb9
f1b1
f448
02d7
0334
eda4
f00f
f89a
f021
05fd
01b0
fb5b
0ae8
02ad
f260
ee00
f5fc
05b6
ed35
0303
f449
03ce
fd64
ecf5
02b7
05c2
ed9f
fcb9
0021
fa68
0948
ed13
f5bb
f5c2
f0d0
0564
f6af
03b7
f166
020f
fc46
059b
ec80
0943
f7f9
0ef7
04ac
f80d
fbde
fef5
eeed
ef42
f834
0560
fdf7
00ad
07ec
fb60
0bbd
f5e9
f25a
f06c
07c3
ede5
f847
fb29
ef46
f4d3
f678
f711
01ed
0aaf
01b8
fe3c
05e4
02f8
f847
fb88
f260
00a2
09a6
09b0
f485
f9ea
0a1a
066c
ed19
f81d
fcf1
f798
04c8
03ac
ff84
0881
0588
ec59
eb70
e786
fbd8
0127
0076
010b
0577
f565
f87b
fec3
0742
f3f4
f0fb
f7c7
fd81
f7be
ebe2
03cf
fac3
ffdf
e7f9
06f4
f649
f536
f869
0629
ea94
06d3
f198
0883
ff99
f2de
08b0
fed8
ed05
f8ee
090a
0881
ed4c
f32c
083d
edec
03d4
f662
fd45
0457
00e2
f289
ee59
f34d
0117
fd2b
f377
0344
086b
064f
fbb3
00ae
feef
f188
ff4c
039a
f338
f617
f564
fdcd
f5eb
f751
f83b
0b2c
04c5
ffed
f17c
0233
