0057
03bf
f1b7
03eb
fb39
f89a
ed67
ebc9
06c3
0555
04fb
ed4a
ebf0
f5a5
f547
0493
fe67
03ba
0147
ea09
00f8
04d3
01f5
01d6
faf9
02b0
fe2f
fb18
0516
efba
03c9
efcc
efb1
f395
f5bd
0589
fb72
e7bc
04ea
f05a
f6e1
05e0
048b
f73c
f1a5
fc00
01d5
ffe3
face
0425
0005
029e
f6f1
f28f
ef36
f766
03d5
fa10
feaf
f4ce
07db
f26b
fc3f
03ad
f8ed
ed68
0066
e712
ffc8
f8fc
e19d
e653
02f6
f6f6
00e8
f188
f28b
fc9f
073b
f367
f740
f5b2
f69c
f26c
edca
e469
e4a6
e9b1
ec8f
ea18
e9bd
ff18
f714
eaab
04dd
f6b7
f920
eb5b
e8d8
f83f
f87a
00ff
f14d
fe81
f614
0545
f129
0049
03b7
ee6b
eb84
ff12
ea43
f9ef
f0bb
fc2c
eb4d
0967
eb4a
ff7f
ecb3
0710
007d
faa1
eace
032c
eebd
04b5
f1f9
f8dd
f84f
f4ae
f35d
076c
f00d
fede
0aa7
09f0
0dbd
fdd9
0517
fd7d
09c0
0005
