f4c6
f700
f1a2
fb76
fa14
051a
0c18
fde8
0d31
f479
f435
fabe
0745
f8ed
fee0
0320
f092
04d3
f5d2
f5ee
00a3
fc4e
05e3
0c82
fbae
023c
0dbd
08df
f4cb
0d5c
ff3c
099a
f13d
fd4e
05cb
0644
0f00
0b9b
0062
f92d
0ac6
033f
0903
f404
f12e
f3e0
0601
0253
0fab
f3eb
0519
fc43
fcfe
01a1
06e2
f211
0006
0525
f2af
0229
f2a3
031d
0c30
f799
fd65
f5be
f039
097f
fbbc
099e
079c
ff0b
0be0
0176
fbe8
fe92
fff2
f282
0230
f823
fd97
07a8
0549
f498
fa76
046e
f9bd
0f1c
0038
f4c4
02ad
fcc6
f81a
094a
04df
f0fd
f555
f4d7
0308
0c54
fc09
0047
0929
fb33
0eb4
f799
fe7b
0e59
040f
0491
ff80
06f4
0433
f99a
fbed
f1ff
f1f1
0744
fb74
0b03
08ed
058a
0a02
08e6
084f
0209
0704
fd7e
f9ad
fecb
0aa9
0535
0d70
0b1a
0f35
f690
f638
f196
fb84
ff5f
01c0
f601
0906
f545
0663
072a
f5fd
f921
f593
0daa
f9ad
feeb
050e
fc3b
f147
f490
f279
f518
023a
0c0c
fe13
0c6a
0169
fdaa
f83b
f5e3
0dd0
0d23
0c8d
f4a8
f8ed
f972
02d5
f56a
08c8
0079
f933
f7f4
0609
03c6
fe49
ffcc
0904
0f30
0c1b
0389
0007
f1cd
0d86
f3cf
06e2
0f23
04c7
05d7
f9c5
03a0
fdc9
fa8a
f9ca
f01d
0148
098a
07b4
f957
07d5
063a
fec8
06bb
035e
fa7a
f4d5
0015
f6f5
0bd1
0d74
0252
01b4
0e61
0ed2
ff8e
0444
0956
f0ac
091c
091a
f59c
0c3b
f1b1
0a63
086b
0811
f881
0c10
0938
0d5b
004d
0539
f1fd
06a1
fdc4
066e
ffc8
0f93
0878
f961
0d46
04c9
0115
026f
07c9
fc4a
0f99
f9fa
f0a0
0702
f92f
fea7
f9d0
fb58
ff19
f04b
0f68
0543
f46e
0da0
f2b5
0e4f
ff7f
eff9
f193
0da6
f3ce
f85f
0dfb
06e5
fa5c
0f9e
03c3
02f7
f5eb
efa1
fb8f
f5e4
f7b7
037e
009b
014c
0eb8
0082
04d2
fbd4
f3a3
f159
f2e1
f72d
0889
fed2
0a15
fe6e
0d33
f1a3
001b
0369
08a3
0275
0c82
01f2
fec9
fd55
fe3c
f1f1
09d8
f978
f32c
f70e
fb05
098a
0ddb
fb27
0bc6
f2de
fe51
f8b2
01e0
04b3
f9f4
f84c
0920
f663
08c3
fdf8
02cc
015b
f226
fc6e
05d0
0195
fd1f
ff4b
0615
f0a0
02dc
f7bc
f841
f6d8
f98e
fe97
f03c
fca3
0691
087c
fdb9
0107
079f
ff79
f5b7
0070
0ea5
0a5d
098f
f202
f01f
0c2f
03da
f6cb
0f9f
0722
f70d
f86e
f56e
0531
0626
0c9a
02fc
feb4
f0aa
f7b4
0715
09b2
0d9a
0f52
0368
f028
040e
f155
f99d
02a9
f1d1
fbdd
f24b
0c07
fb67
f259
0494
f98e
f951
f4b2
0c15
f171
094d
0c61
08eb
0944
0aee
fdb0
f6b5
0d98
f9ba
0e18
09c9
fae3
085d
0a68
0f96
096b
f565
02f1
fba1
f9a7
f507
f123
0a68
0829
fed3
f411
ffc2
f724
0a45
0f21
fbad
fed7
07c6
0106
0ec0
fd53
fe00
0f21
fb52
fba7
0365
0b3a
03bd
f22c
024e
fcee
f2f8
0ec9
082e
0292
09f5
0075
f894
099d
f25a
f198
f445
0da2
f2cd
f3bd
f380
087a
f6b8
f4cf
f3da
02cc
f756
0a44
f76e
0562
0327
f2ce
0dda
fb1f
f58c
f14e
f1be
f704
fa16
08ba
062c
0932
f6b1
073a
032a
f714
06df
ffc1
f601
0cae
f5d3
08a2
0304
f915
f73d
0f93
fab3
0065
0073
0323
04e2
f662
0672
0014
068a
0f29
0243
f320
f744
f73a
0c9c
f90b
fbcd
02bf
ff9b
fe24
0eb2
f90e
f564
0610
0723
f3ac
07d3
f97a
fd35
0198
073f
094f
0231
fa20
095b
f27c
0ae8
0a87
f938
f606
08d3
f87d
0b16
f57c
fb24
ffb9
f54d
f379
0ddc
07ae
0101
f33d
f9aa
08ff
07bd
fb5b
f5c1
f79f
f299
0c5e
0583
0836
f714
feb5
f93a
03b8
f26a
0b9f
f8f3
05ef
f7c6
0829
fc33
06d6
fef4
f130
04a8
f00a
0dbe
048c
f0fe
08ac
f69f
067a
fde1
0ace
f002
f438
f1fa
0c83
f77f
0f5c
012d
0f65
f7f8
f019
fe9b
0226
f414
f4ad
07b5
f601
014a
01df
0b7b
0f61
fe40
0ef0
0292
0bca
f774
0294
02a7
04ba
073f
fe29
f189
0a02
f8c7
037f
f29c
f742
0e42
f09c
f938
07af
07f8
0a90
09cf
f5f8
f8a0
f09c
f913
03bc
f11c
05cf
feba
fb72
0baf
fce7
0e9d
0e9f
f6fb
feb4
fd3c
fa55
0f47
fa6a
0915
f6f3
fd52
04ff
09d1
f150
0dfb
0608
0eaa
fbda
0ebf
0aa5
08d5
f701
090b
07da
f126
0a22
fd0b
f1c3
f0b7
fdfe
04cf
0112
00c1
f53b
0e1d
0361
f790
027b
fd44
fceb
fdd5
fed1
0c1d
f35e
0edd
fcde
fda7
f66f
f18b
f2d7
f82f
0411
07df
0294
00f0
06ac
0e7d
0acb
fdb1
f153
0e80
02a3
fb70
f335
fc9a
007a
0b07
02b4
0107
f967
f6b1
017d
035c
ff5a
f04b
05d1
fb6d
0a0c
f065
0508
f7c7
0dd4
03bc
0bb4
069d
fc1d
f804
0afb
f515
fe38
099c
017a
fb25
0526
fd96
0f31
f840
03ee
0aea
0cb1
0b91
f49d
f9c0
fc13
f58e
0ce7
048d
fe44
f507
f3c7
06ca
fd07
f7e6
f142
0010
0cfc
fb87
effb
f86f
f52c
088a
f5b1
f6f0
f0c8
f7b7
f302
0ee9
f6fc
0021
fdd3
f868
fec2
003a
fb82
fd63
ff54
f029
f9e9
f90e
f0ba
f15d
f45b
0b5e
fc53
0d0f
f849
0f0d
f2cc
f242
08bc
f09d
0bc5
0302
095d
0cab
fe47
f390
f69d
f09d
fae0
f761
0dac
ffb3
fe1e
efc0
0d3a
fda9
faae
0728
f2b5
f5c8
f3c6
f68d
0f67
0de1
0f0b
0254
03cf
f0d5
0406
fe68
fffa
02b1
0786
03d8
f912
f113
0858
0bc6
f100
01eb
f27e
fb11
017c
f2fc
001b
0aef
0149
0dbb
0266
08bf
0734
0190
f4af
fd50
0833
0f17
0d37
07ff
fc0f
0665
0c10
f2d5
0c00
0aa9
f562
003e
09d8
fd86
06c9
08b4
00ea
064f
0a35
0ac6
f71a
fa7f
f898
ffa8
f506
f516
02c3
fd01
0b92
f695
f746
0f6e
ff1e
0ed8
04e1
f0f8
f1a1
0b38
083c
01ab
0e21
03da
0970
f3a3
041e
f13a
f66d
0adb
f575
f38b
f969
fe5d
f766
0a9b
0b33
0e6e
02a3
048c
fa2d
0f4a
f02e
f9b2
f067
f1d4
f6b9
0c11
f3ca
07bd
ff47
fb22
ff29
f552
091e
0e2b
0049
08aa
f55d
f83c
08f7
07a3
00e6
0242
f127
fc65
f6cb
f40a
04ea
f75e
0ab5
0cf8
0e77
0148
0cbc
0c88
fc02
0efa
00c3
0794
f4c7
07a4
0595
f50b
0e1c
0423
f482
0261
f5ee
f190
0e6a
fb54
0cf0
f8c0
0ed6
f35e
031e
034d
f1cf
ff36
0e72
f769
f443
053a
018f
f8a0
0389
03a9
f0f5
035f
f24b
f3fd
f2f0
f426
0aa7
0b04
fef9
0a96
f369
fd36
08d0
f010
02a8
ff5c
00a4
0194
f6a8
0166
fc65
0c25
f338
fbf3
f9a5
0b71
0e9a
0d16
03ef
0ce0
fde1
0ea2
0a28
02ae
0623
0d3f
f667
088c
0f53
f41d
f2ca
fb2e
0d5e
fd2a
07b3
fdb8
0fae
0943
f8d0
0dea
05e4
00bd
0fbe
fffc
f5bf
0202
fdbb
0b82
f17c
0f58
ff66
0047
fca7
0f6a
f9b0
fde6
f19f
f6ff
066d
f7c6
0659
0375
010c
0725
f4f1
fbc1
f071
f121
051c
ff03
05ba
02a0
0050
01cd
0306
f33a
096c
fb4b
fb51
083e
f7d1
f498
0f10
fa31
009a
f7c8
fcfb
f311
056c
016d
ff71
f802
f0ae
f4b2
f31b
0a57
0a4a
0230
f911
f8ff
05da
f35c
fddb
f0be
f901
0364
0c59
f00e
f487
fcf9
fc3b
fa1b
f5c9
fe6d
0bd0
0f7f
f135
f00c
fbfc
f49a
f99a
fab6
0db0
f7ff
f447
0019
f141
062e
f0aa
fc82
0232
f620
0bfc
fa74
0e3f
0651
0340
f84d
0f7f
f9a0
f3c4
01bd
f920
fc71
f579
f0f0
f69d
f6ba
0604
f04f
0054
f314
fad5
0bfa
fc30
f481
f3d8
f877
0e1f
0448
008d
f7e1
f40c
0abf
f796
0cce
f784
0056
0141
020f
0df4
f4c4
027c
f07a
0a83
f7d7
064a
f2aa
f850
f3fe
0fce
032e
01d9
fa43
03a7
f287
f20b
0e81
04d4
f84d
f98a
f12a
f530
f4ac
f218
f953
f737
0bf3
01bf
02c1
02b9
fd81
fcca
fda7
faad
fdbf
0fd6
f995
0026
07ac
04d3
f30c
f312
fdeb
fc65
0d94
0885
036f
fddf
f150
f8ea
045c
fc95
feec
fc7b
f74c
0763
f71c
0d37
fd5c
0fd5
fae0
ff73
f1e8
0f4d
fe0d
f69f
f0bf
0540
f0c6
039d
f6ae
fbed
000f
f4db
0c1f
f49b
f366
f491
0c19
008b
08d8
078e
0787
f631
f1bb
04f4
f355
ff73
0dcb
03ad
f80e
04ca
fda9
0b51
00ce
f9fe
fbef
f535
00c7
0244
0da8
fd9b
0ec7
0e5d
0624
0877
fa8a
033e
0c16
f8a3
04e5
0386
f054
f697
0927
007d
088f
f4b1
02a7
f84d
05b0
05fd
fd4a
f8ff
ff06
013a
f08d
0109
0421
0de4
f234
090a
052a
f948
0407
04ed
fde4
fbf0
07b9
f96c
f30f
f98e
fa16
f52e
f4e3
07c3
f670
f00e
0015
fb41
fd03
f57a
03ed
0e6b
f308
08a5
0a9c
f5aa
fe53
0b98
00eb
00d3
f683
0378
0e68
0883
081a
0819
f8db
0e71
f672
02e7
0e6b
02dd
ff10
0d2e
0106
f533
f8c6
0049
0279
0bc1
f83a
f7df
f24a
0edc
00fe
f54b
0d81
003a
ffaf
ff51
0887
f858
fdca
fb8f
f919
039c
0541
f0d8
0db0
0e67
06ed
faa0
0818
f53c
0046
f88f
fdf3
0ba5
02c5
0c1c
0f63
08bd
f0c2
0915
fa69
fc39
f502
0fbc
0fb3
0f76
0eb3
f8ff
fac7
0cea
0f10
0580
0e61
f0bf
00d1
031b
0b12
0c25
09db
054b
0e2e
f1d4
f3da
ff71
066d
0734
01a5
0ccf
0b66
f730
0b78
f5ca
fe81
0e41
0581
01a6
fa4c
fa1b
0b16
0c94
fa11
0605
f745
0525
f8a4
022a
0270
f47c
06fb
0a96
f059
fee0
f526
08f2
f0ed
f4df
f313
000c
f2eb
fd5e
fc46
f7e6
0138
00ab
f651
fc47
f925
f1c6
0df2
072c
0815
f359
02f8
09c4
f310
f765
0371
08b2
00a2
f213
0576
f8fc
f672
06a5
fb23
06ab
0d97
0b69
f61b
f0e8
f157
f049
fcd2
02d4
ff27
0961
040b
f9a6
f961
fb32
fd57
0604
fe85
f078
0f96
f66d
05e5
febe
f1ba
fbc9
0ba6
0a22
fa2e
0875
f2d0
f017
f9b3
04f0
f015
f6f2
03ce
f78a
0aa2
fe25
fe8f
0358
0515
02bd
0ada
0be6
f181
f395
098e
f930
f7ea
09a2
fb9b
f5bd
0caa
fe2b
f7c0
046b
f0b0
0f62
0878
f86a
fd44
0273
ffd9
f079
f9f4
0d52
015f
0d61
037b
f0e8
f474
0d2c
fdce
0a0e
fa4e
0d00
fb4b
048b
0e2b
f686
0f1d
0ea3
0e07
fdec
f329
f9dc
0d1e
0f0b
0396
f57e
0045
0f99
f244
f0db
f11f
ff3d
f632
fd9b
00b3
fd85
0606
f95e
fc61
f19c
0f0c
0013
f0e4
fbaa
fc11
0582
0e71
0761
f59b
f6aa
f46e
0874
fa31
f692
f11c
fbca
0df7
fbc6
0ec3
01d4
f1d2
fbaf
ff36
ff5f
09a3
f160
fa0a
f5b0
0a61
f827
01f4
fcb6
fd26
f3c0
fac2
f0ea
f3de
f09b
0168
0b0b
f373
0876
0e49
063c
fb84
0c40
f05e
06ca
f2fa
068b
00aa
0edb
0fbb
0c17
0095
0c58
08a8
0bd3
f871
0001
0e39
f9c6
f3e0
0b54
f46e
fe04
0c43
0927
f1fc
f6de
f991
09e5
0025
ff35
05f8
f6c9
f65a
0c59
fc78
fa1b
fe25
083f
0657
0050
0774
0aa1
0033
f35a
f7a0
fe80
fa15
ff2a
fe8c
035e
0184
0658
0ca7
f1a5
0ce4
0edb
f7bc
f9bf
08ec
00f4
fb0b
f7d7
f651
0358
f52f
0b80
f693
fff9
0284
fb47
0521
0aea
fa76
fe00
0152
0ee5
0a57
fa57
0f8a
fb38
fc97
f3d9
0041
f117
0f77
fd65
fc5e
fc6f
fc22
0431
0372
0ef1
fc83
f71d
fea6
0ff9
f4b7
ff33
f50f
f4a3
0bb8
0293
f7ab
f962
0dbb
f517
fdbf
fb13
f7bc
0a57
f6ad
022a
f544
f73e
075d
f783
0fa3
f10c
fe54
fba4
f13e
0509
f7e3
fc86
f414
f713
f901
04d8
f064
0cd3
f2cf
045c
ffbb
0749
0025
fe98
0007
027c
fc39
f2f4
04b4
fa9d
07b8
09dd
083b
f82b
090c
f09e
fdd4
fa42
fda3
f666
f711
f3de
0c85
02d0
f75a
fb68
00c4
0879
00ae
fdee
068b
03b7
f105
fa94
07f5
f1f8
061f
f465
f022
f856
f4bd
fb9f
f768
01fe
f82d
f8c6
ff1d
0184
0218
fb58
019b
f696
09d0
f558
0655
0abe
fe9f
f16e
f945
f250
00d8
ffff
f98b
f6f1
f9f1
003d
03ba
0267
f780
0b9f
f130
fc69
fa73
06c3
05c0
0b05
09f8
f045
fe7c
0eef
fee3
f558
f86a
fd8d
fb8f
0fd1
fecb
039e
f6c4
f26b
f050
035f
f265
fa0b
f2ec
fc91
f7f0
0d7b
f4a2
0e64
f38f
0f1e
0d5d
0e5b
fa2a
0281
f253
0ced
f16b
026d
fb9a
0bd5
fe24
0ae2
f0d0
0cf0
f8fd
0c67
fb3f
087c
f9a8
059f
02b9
f287
f397
0b13
f005
f57d
042e
0014
044a
043a
0415
0d35
0222
07c4
0cb3
0444
f5e5
0956
f0df
02e6
f708
f80e
f144
f6a0
f623
f880
0c0f
068d
002d
f318
04de
0612
fb4c
fe20
fd72
f9ad
f457
f510
07c2
0d8f
0bba
fcc5
f139
f8c9
fdf2
0b1f
0811
f80a
07f4
0f37
0409
083e
f957
007e
f416
0ab4
04f6
0e40
09b2
f60a
02f7
feb3
f66e
043f
f558
05a5
fbe5
f13b
f284
f0f4
f505
f105
0b47
f0f3
0f42
08df
077e
f248
ffc1
f788
f0d4
0f7b
fbd1
f273
f205
0938
fdda
f3ee
ff14
f717
f191
0e23
f728
0fa5
f667
04a3
0876
00a1
fced
ff41
f999
0524
0da6
f0eb
f7ac
05e0
fc27
00e6
f2a5
05a5
f408
f307
0a68
f9a4
00fc
0d44
0f0c
042c
0812
01ed
00eb
ff96
f061
f76a
f650
08c6
f591
fd08
f5e3
0bf7
fceb
0d8a
f11f
051a
faf4
067f
f517
f473
f214
f35f
0c5c
f8c3
f657
0bab
0405
0376
f96f
055d
fdcb
0d9e
ffff
084b
f21f
0e58
f2d5
0ae8
f541
0715
ff1f
0589
f977
0dd2
fe66
0927
0006
f6ad
0bc7
0e31
091c
f230
f37e
0b1b
0d7e
0ecc
0aff
f9c3
03b2
f50f
f009
0472
0be4
081e
fba7
f5c9
f097
0280
feed
f086
074a
061f
0a51
fffe
f18d
f327
0ed9
faaf
f788
f479
0ed5
0607
f66c
0e24
0c0b
f600
0f88
f981
0f44
fd55
fcfd
f1ec
ffd7
0c7b
08ad
0ff9
081f
f33d
06af
0b19
f065
fbcc
f0d4
f9dd
0359
f309
f707
03a4
f78d
0b5d
ffdb
0082
f09a
fabe
095f
0920
0bbc
f6a5
f727
0fd1
f8c8
fd8f
f090
f870
f6ba
f15c
0c7c
0afb
f7c1
004e
f4ce
0c56
02f5
07ce
f95d
febf
0d1b
f201
07b3
f3f6
0202
08c6
0e74
f5c5
05bc
044f
0192
0001
f1d0
0b14
ff05
f0a0
f393
0193
f853
0777
f9b0
f5c9
f0ca
0273
0510
f527
f74f
f7be
0d58
faf0
f49a
f45a
0292
074e
fb0f
ffbe
063a
03a8
0b0c
f06c
0fab
fe09
fade
f77f
f3c7
081c
f1e7
0173
0910
fdeb
00b7
fdd1
01a4
01f1
01a6
f618
f3d0
f7e7
f8be
fcda
0747
fa16
0510
fe81
0615
0381
0691
fc38
f08e
0f48
02a4
fa8a
ff47
0cc6
0273
08d0
0380
f914
0433
f0ac
0a9a
fc4b
0538
0eb1
ff26
0948
f516
f53d
0c14
f85c
0de6
0700
0979
0204
0ab4
0064
0a14
0d81
0ce5
f012
fd11
f427
0cd0
f1e9
f1bd
06ec
f701
0665
fa76
f92d
0bb6
0e3b
fbdb
fd13
f742
0d69
f2d5
0586
f96f
f346
f04e
f90e
fa39
0186
fea5
fb07
00e2
02ce
0f60
0f3b
078b
f038
f659
07aa
f8a4
fd5c
f813
f50e
f4df
f95f
f4e7
fb13
0386
0baa
07e3
0412
f888
f70c
0d97
03c6
090a
062b
06d9
f921
feeb
fc9c
fd47
0886
f23c
fe70
ff25
fc8a
03f3
fe46
00d2
f7fc
046c
00ce
fc12
f565
0378
f064
fe19
0eb8
f010
01e2
fb18
f2b6
0022
0ddd
f778
f850
0719
fada
0c09
f89f
083c
0a63
0d2d
f999
0a7d
09c3
02ff
f3d5
0b47
05fd
f860
095e
009f
f41a
f1c2
01bd
0228
0de2
f73e
07f3
f220
f009
0870
f168
0801
0507
fee1
f0b5
efb6
fdc3
0630
02d5
fd2c
005c
f831
f011
0e05
f5a9
059b
f9c7
f7f4
0183
f28c
ffaf
089a
0c56
0c8b
f790
f7dd
0bf7
eb24
ff0b
ebee
ede5
fefb
f449
eb1c
e1a6
ef23
eb2e
fbcf
fd07
e37a
ecc1
e2d4
f9f4
f363
e3a2
ead7
f5e0
e68b
ffbd
f0a5
f64f
f378
e09c
fb47
f719
00b6
0636
ed1e
e817
ed17
f0f1
0c07
f66a
0f7d
f2b5
09c1
f367
0a47
067d
049f
01d0
ff81
fa1a
fd6f
02d4
fcd2
f820
0b15
fe2e
f8ea
055a
fdc3
0235
0145
fbcf
f132
fa60
0b40
fc10
0c7f
0cab
efea
0e4d
efb0
0d8b
fb10
012c
f543
0f5b
ffab
0ab2
0d7e
01bc
f35b
0a53
00b1
0487
f29d
ffd0
fb92
f237
f6ba
feae
f190
0890
f4d0
0d9f
f998
faf2
fec8
0b30
f092
0f8c
04f2
0b4c
f089
0ead
f9a4
0c68
f8ea
fdf8
01d1
fc03
00d1
ff95
f574
051e
f4f5
0ebd
fd48
ff6d
0a52
0122
fa97
fadd
f01d
f0e9
f39e
f966
ff5c
0ffe
09aa
0bc8
0ecb
eff3
f435
0033
0085
09c6
046b
f023
002c
f5a2
f028
f0c9
efc2
0b75
f6b4
f883
f607
fe92
f0d1
ffbb
fe68
f075
fde4
024f
0640
f713
f358
003a
ffcc
0b27
fea8
02d7
0b8e
f0b7
ef58
0c95
03e9
08fd
f160
f713
0506
efe3
0a31
03dd
0b97
fb0f
efcb
ffb2
fd13
0b76
0bb5
0116
f15b
0117
f72d
f243
07a5
092f
0779
051b
073a
0e76
fb8e
fe4e
0e57
f0bc
f982
fed1
f05d
f467
09ce
f1ae
0823
f543
fbed
f4fd
f730
0f65
0295
fdf6
f666
0736
fce5
0026
f707
05fe
f3cf
fda8
f038
0ac3
f9c4
fda8
fb15
f47c
e406
f154
ec12
e56a
ea75
efaa
e71e
f770
f67f
f71d
e602
e023
0439
039b
036d
061e
f4e6
fa2c
edce
f39e
e086
e9d2
ebe9
ff52
008d
0c86
f0b1
e743
070a
ec08
031b
fbf7
f22f
05b0
06ed
ea39
e252
f84d
fe58
fcaf
f8e2
fc53
fa29
0bbc
00c2
ee6c
f999
ff98
ec19
e9ed
ef29
fd05
03be
f623
0575
ff78
ecb3
f366
f953
04eb
04ce
fbd3
edd9
fa8d
0473
01a5
0e75
f7f1
f514
f736
ec76
f5f0
0132
069c
00c7
f103
f231
01b5
f11d
060b
f887
f525
f91c
0b3d
eee9
ff0b
f80c
040d
ef19
f230
04e4
0946
ee9f
f0d8
07e1
ef3c
03ad
0d13
002d
0092
091c
fe68
0ad5
fe9a
08f2
0229
ff71
0764
ecb1
f128
0285
f9b0
ee44
0b9d
ede7
f450
f191
fec3
fb78
05fe
0717
03f0
fa82
f048
fa19
0d85
01fc
ee2d
011b
f141
fe95
00fe
efd6
027b
f63c
0655
0683
fb50
030c
f978
071b
0dfa
01a9
fe2d
f9e0
f5b7
0593
f39e
008e
0b6c
feea
f852
ee99
02ae
ee08
f8a5
f488
0267
0a87
ff2a
fe16
fdd7
fe6a
0c99
fa15
f3a1
f9fc
f162
fd10
f841
ffae
fb2e
fda4
00c2
f3f1
02fc
0b6c
f86a
fa2e
f3f6
f820
0d50
0cfb
0907
efe1
ff37
f101
f60a
ff62
064c
f994
f33f
00b3
f090
0801
091c
fc6d
ff63
ff51
05f4
fd7f
08e9
06ea
fa05
00ff
071c
fa2e
f2c5
08e6
f14f
f0cb
fcfd
f823
f27d
0ca5
0643
00ff
0641
06da
08e6
fa17
049c
fd46
f901
034b
f186
0267
f419
f9c1
074e
f642
00f9
07b9
0033
0c1f
fe11
0d9c
0d37
f202
0836
f6f6
062e
f63d
003d
ff60
02a0
fa20
fdbf
fd3a
02bc
f53b
01b8
f6de
05d7
edf4
f2ff
eec0
f713
f09f
0823
f1bf
e8d1
feb4
f120
ff3e
0773
f7d5
e65b
f2cc
ff4b
fc25
f9aa
025d
ea2b
fdbf
f909
faa0
ecc7
fd2d
f1f0
fd64
05df
f111
fd09
06cd
0b01
f3b5
004b
f9c1
f14f
f3be
f510
0df4
f9d2
0c4c
fd69
0573
fc34
f27d
efe7
fd47
0d7a
0681
030f
ef49
067c
0ba5
042c
fa86
f055
f284
014a
f00f
f8a9
fb6c
fbe8
fd7f
0eaf
0850
ec87
fb9f
eb2e
ec72
f503
fd5e
fb2b
eef5
dedb
d9cf
e6b5
05d8
fcd0
eadb
fb24
eeb5
f3bd
0ae1
f167
ef7c
f26b
08db
f68f
0578
ef92
e834
f311
fb97
fc1b
f95e
03d3
fac5
f2fc
fed3
f1be
fec5
f626
f050
049a
0c73
ffd3
fb53
f0cf
0140
0263
000e
eb9f
0053
07e9
fa32
fdff
0a46
0740
0549
f7d6
f95a
0c99
ffb1
0a8b
0bd3
f3dd
0286
f6df
0680
ef63
f6bb
efbd
fce7
f82f
0152
fde0
0e94
fff1
0b1e
ff4a
f6d2
0278
00f8
08d8
03af
ee22
0bc1
07e6
0a05
01d6
00e5
01a9
0745
ee1e
016e
0b26
073d
0a9d
0155
fd45
0887
f77f
0832
f517
ff5b
f9e4
0696
06e8
ed4a
0a53
febc
050d
07c5
0479
fe77
01e3
f219
f50b
033e
0050
efad
fa2b
08c3
0e49
f7cf
00f2
fd62
fd83
07fe
f676
0981
f79b
fcd0
f00b
06a9
0a1b
fc4e
08ec
f5b3
fa2a
f652
ff28
072c
029b
fe89
f930
fdfa
f641
fcec
fe8e
09d0
01ca
fa30
f6b4
f9c9
0c9c
ee45
ef08
f286
f7fb
fbf7
f513
ee29
f9c7
0721
032a
0af9
fe34
02b2
02da
f3bf
f7b1
f62c
efe6
fe7b
fbb9
fa67
fc88
ffb8
f24c
0a13
f705
01ba
011a
078d
eae6
f68d
0767
0650
f645
e486
ebdc
fd35
ff96
004e
f64f
f3f9
e999
f7fe
f4ef
03ef
0804
efab
f1ea
02b9
0f5b
0916
ff10
fe15
fb09
0f71
0244
0901
015a
01d0
f812
f684
072e
fa0e
04f3
0221
fe0a
f901
029c
ff52
0488
0d94
0a12
f11b
021b
f892
067d
f65c
f530
ffd7
0a70
fd62
0554
0ef8
f6ba
fa57
ff53
fe5c
efdf
0a70
0f17
0065
f357
fc8b
0b9b
f63a
0b1a
0232
0d61
fe19
f7b6
0cc3
f655
05e2
f3d7
f9bb
f3b3
ef02
f6f7
0a8f
097e
0a5e
0881
ff1b
0346
f31c
0878
095c
f59a
06f5
0bfd
0bfa
fe36
0677
0848
f217
0815
027b
05dd
0758
02fb
f23e
0302
0c6d
f76d
f7eb
072b
02bb
fb8f
00ac
fbd3
fdac
0704
01db
f7e6
fb05
05d9
f864
f8d2
0211
0c25
f3d7
042a
041c
0d15
024f
fdac
f4a4
07f4
f6c7
f824
f9ac
f847
0d96
053f
f0f5
fc46
0ceb
f164
fc48
09d5
0cd5
fef8
fe3d
0093
04d4
f4f9
f370
01be
e737
03d2
ef7e
e378
e47f
e237
e6c8
039d
0552
0699
0103
f1f4
feeb
f6eb
f8dd
f720
f6e3
f301
030a
f9ea
fcd2
f5b2
f2ad
f84b
07b4
ffe8
04b2
0f06
0218
0262
0dc0
0795
0d13
ff9d
0474
00ad
fff9
07c8
f7c6
0c2a
0a5d
059e
fc4e
fd5d
0e7d
f986
0571
f469
0202
01b7
0019
0e94
f620
05de
092e
f134
f242
fb0a
01a7
00b6
00e6
fe6a
03ae
0415
0cfd
faa3
0cf0
f5c7
f673
f31e
f005
086d
f76d
0f5e
f1d4
f477
fd98
f920
0d13
07c3
0cbf
f4c9
00bf
f13d
f52d
0daa
09a5
fd57
0aaa
fadc
f487
092b
fff5
fc24
09fe
f794
009d
f520
08e7
f8ba
efe4
ff48
0c38
0945
04fa
0ae9
f6c5
0fd8
04ea
0cea
0036
0ac3
05f3
ff02
f3ad
0f88
0681
f9de
0c68
0654
fe30
0647
087e
f02f
0703
096f
0a5d
0577
0837
0bb7
f944
0638
0642
0e64
0dd0
f4eb
f27b
0eb2
0800
f830
f018
fbc6
f76c
fafa
0b43
f125
e293
faa0
f68a
fb4a
f18b
f64a
f250
e7f6
e90e
fac4
e973
ee67
ece7
f4a9
f447
e479
f612
ea51
e963
f02b
039a
f0e5
f119
0ac4
e513
f5f4
eb89
0030
fe36
ff51
0d8c
095a
0b3e
f35c
f740
0b32
f028
faf0
08ed
02d0
04d3
f265
0019
f764
fe69
0414
0663
ffbc
09dd
fa35
ee72
0497
0887
f689
01a0
0671
04a9
f707
ef2d
09ba
ff2a
f85e
f53e
0abc
f6b9
006a
08e8
07c2
09ab
09d6
058a
0c15
03b0
feb7
f338
fb2c
0235
0d46
0271
f6f9
eb9a
0538
f4a1
0120
f5ef
fbc9
ea28
ec94
fcf8
f1c9
f9a9
eee3
f9dc
0a13
f87e
051d
eb45
fad2
f64e
fec2
ffc9
0e41
0763
fbf0
f988
0e88
06cc
0bd9
f0dd
01ba
fbe4
036a
fa9b
0db1
ffc9
f859
f98b
0819
03f0
05d7
f859
0d14
fc10
f8ed
03aa
f241
f0d4
015b
f9c3
0160
0249
001c
0194
fc29
f0c8
ff42
0de5
f15b
eabe
f076
fd72
f225
0310
ea3f
f448
f6ad
fe3b
fe9c
07f7
058e
fd15
ee80
ec36
0912
0145
f48e
edea
f304
ec02
f765
f159
fdfe
e0eb
ef83
e39d
eea6
f299
fd10
f96d
f715
ec2c
004a
fdfe
03d4
f030
0c89
03d2
0c16
fae8
04ae
f841
0640
09ac
f79b
f1ac
05e6
f3c1
f54b
0ae8
f81a
06ac
fc65
fb3f
f6db
f51a
0ccf
ff10
01e8
fec3
f049
fc12
0532
0261
0431
05de
0bd7
fe43
000b
0806
fde7
fcbb
fd22
07f1
fc91
0971
f1e1
ff57
0882
0226
fbfc
f21e
0bdf
0c55
f8b6
034d
fd65
001f
f165
028b
ff0a
0892
0aef
fe0f
00cd
f1e6
f33d
f01e
f44f
ff85
fd92
f31f
f2d1
f6f8
055d
03ed
f8c4
efe4
fbce
0d75
f7f6
fa50
02e0
ff90
0bb0
f496
f37c
fd99
091e
0e30
fa47
fdca
f82f
fe18
0b63
0c4b
efcc
0a46
f6f9
069f
0141
fb75
02f7
ffee
07ea
fcb8
0f32
fb28
019b
0294
f439
fabc
ffc0
07c3
f83d
f673
08d4
fc91
0ee4
06bf
06a2
f1f6
facf
f010
07c1
fb86
078e
0f13
efaf
f647
fe75
fa0e
ff4d
0a2e
f3e8
f730
0a89
0dc2
0124
fa9d
f4ee
08e4
fc52
f7dc
f21a
f606
00d5
f1b2
0476
f7a6
f364
057d
0295
f89e
fb42
f03a
f6a9
08f2
08b8
f8c8
f71e
eef9
0b10
ffa1
f155
06c8
faa0
f732
faf9
f5a5
0b6c
0a78
f264
02aa
0004
0bc2
08f8
f9aa
fc51
ef9a
f10e
fc96
0280
fa84
eef3
f702
f83c
fa18
eed0
011e
eb34
f4ff
f7e2
ef63
e98a
f600
ffa3
f0aa
002d
f175
f1ab
fcbd
fb84
ec7d
e808
ee5a
fba9
02ef
0423
030f
f7d8
eae2
f407
f19b
f315
0117
0607
0101
fd81
0c54
f0b1
fec1
04b4
f1e3
f7ee
0205
00d1
ef33
feac
e86b
f747
04fc
f7d7
ff23
eced
ff37
ef3e
f81e
0438
f415
f471
f625
eeb2
035e
f255
f586
01c9
0a4b
0344
f93e
0dd0
f37a
f71a
f965
fad1
ee45
0892
0829
016f
05d9
09c9
faa4
07b3
f075
f760
f2c0
0d1b
0dee
ee72
0d16
f8a6
fef8
f832
0092
0b95
0329
0944
f400
f97b
fae4
0a2f
fae2
0cbc
faea
0b96
0aa4
f443
0552
fb58
ffe8
f608
fea5
f5c4
f1fa
f912
07bf
0a8d
0bbb
08e0
f585
0da0
f6fc
0193
03c1
f891
f435
f193
0780
fd07
fc0e
fd74
f504
093b
0dbe
086f
0b6a
fea0
f6af
0a28
f794
fbf1
017e
f6a0
099f
f30d
f0f4
02d4
ee4a
00d3
ff2e
f5fb
f985
08b9
0b75
0826
f49a
073f
0471
0588
f34c
f3ef
0d1b
0314
0095
0740
087b
0496
0dcb
f71c
fa7e
0c3a
f177
053c
feb8
fda2
0eb3
0ace
024c
fe1c
f017
fbc5
0aa1
0daf
0378
facc
0cf3
f13d
f30e
f0f0
fc7c
f65c
f591
00f3
ff07
f50e
06ff
f172
f3fc
06c4
f652
096a
f533
f706
0fa4
0b93
f7aa
fac2
fe70
fd5d
fbe9
0ac8
02b7
09d4
0a9e
02cd
fbab
00a7
08ef
f671
070a
0613
0610
0882
fb76
0f27
0122
0636
f359
0d71
07fe
f390
f6f7
fbf5
f727
0872
06ea
f25d
051a
ffec
ff5f
f759
ef3f
0da5
0e76
0e5b
09f5
0bb4
f9ff
04cb
fd94
08a1
f391
0419
00d8
ff9e
0dea
f764
0566
0277
002d
ff75
fa51
eeae
0342
f908
0784
f460
ef8a
00c5
fb68
f066
f28d
fa3d
f269
0828
03eb
e722
f19f
f8fe
06e5
05c7
f620
07c3
fad3
05b4
f452
0aff
eb72
f70a
0ae3
f067
f757
077c
0b50
06f0
fb98
09e1
f02c
0bfa
fac0
f433
efc1
efeb
04a4
f291
0870
f083
0262
07e4
f947
0301
0e27
f793
07ce
049e
085a
01f8
0417
f2e2
088f
fad8
fb2b
f07a
020b
fbab
ffe9
ff58
f035
f601
f352
f9ad
0620
f4e0
f601
fd3e
eda6
f3a0
e733
feb0
f2ff
fd84
00fa
f12b
fc92
f1ea
fa3a
0274
ea25
ea88
fa72
04ba
038d
0ccf
f21b
ebc5
f0ff
00be
f7d1
0382
fdf6
0d72
ffbe
0b08
f66b
fadf
f8cf
fcc4
061c
0d74
fc9e
f37c
f999
f2b0
027a
fce4
00fa
f89b
0882
fdfa
027f
f969
fe72
00b0
030e
f46a
0dc2
08ad
f2e1
ee8b
04cc
0ae9
091f
ee75
fe11
0806
0813
f248
ef14
fc9b
09f2
0970
0d3a
02f0
f169
fe32
f059
0383
0676
f7f3
fbb4
f4d4
f8dd
0766
fc37
0937
080f
f2c0
06f7
ed78
ede1
0805
fead
fc3c
f1b3
02fc
f372
ef9b
0e9d
031e
f467
013c
01e3
0c3c
038f
ef1f
09ab
fa21
f966
0426
fb57
ff42
0f13
f486
05b6
0255
f360
fb50
0e34
05b5
fdd2
fb68
0ed1
fdcb
05e5
fcd3
f1b1
f7e2
f36d
f5e1
f566
049a
093a
0bb1
f828
01e4
f82b
f139
f59d
ef66
fe59
fe34
f864
f99e
f6dd
081c
fb2a
f628
0624
f8e7
fcaf
fb35
0c98
f577
ff70
f6cd
edba
0355
0235
019e
0f29
f95a
0628
07c4
f90e
0ae8
0b40
0a8c
0054
0b57
06e1
fcf1
fa8b
0d4e
f587
efc9
0ef0
05ca
fed5
ef95
f7c8
f416
ea09
f6a4
fa5b
e05e
e6fa
03e5
0849
ed91
f789
ea45
07af
0825
070e
00e3
e663
f363
fba2
04b8
0d8a
0874
e320
f4d5
f328
0742
0fbd
e94d
e87b
ee6d
f3fc
eb07
e7c7
ff70
f2c8
f6a1
f5f6
fcb7
f1b3
0e65
08f6
fe33
fac1
0a1e
ff0f
0725
fec0
0297
fd4f
0a46
f17a
f066
ffaa
f29c
f06f
0765
ff06
f40d
f657
08ab
0187
04c1
0512
f73b
fb6b
ff0f
fc87
0430
ff64
07be
0249
f3ff
04db
09ee
040f
fcab
f0f7
0cb9
07fa
f0c8
fd5d
ff4c
ff9d
0e83
01d4
fddd
0885
0e5f
f773
016e
0aef
0234
f315
f2c0
fcec
0b90
f8ce
f098
fe92
f586
fa55
04f6
f818
057f
f211
f1ee
07cf
ef5d
f5c3
f8f0
0a7c
fdb8
f517
049c
fc6f
f6bf
0b4b
f990
0dca
fbb3
f874
f02e
025d
f83e
fb3a
ffaa
f83d
f49c
0dc8
0706
f182
fd68
05e6
0953
0730
0159
02b0
0857
f8d9
0549
073e
0c62
f09b
f565
05b6
02b9
e8c4
f391
f28a
ff00
f910
ecf5
feec
03d5
f6d9
fcf3
ee2c
0352
0a6b
067a
f788
f01b
ef6b
fbee
f426
0546
0544
0f57
edd7
0746
045f
08f2
f181
f1e4
00fb
0cec
0846
f813
f29e
0b86
0793
f005
f69b
027e
fe4b
050a
ff43
0ab4
f28d
01bf
f2d6
0645
f733
0bf9
f059
f808
0a19
fc61
002c
0689
0a56
0bdf
fbfa
01d0
0315
0d43
f05d
fef9
012c
f655
f40d
0d97
f1d2
f879
01e2
f457
f2b2
06e9
fb14
07de
0afe
f5d7
f8d0
0155
0de2
0913
0b75
f0c2
f633
fdef
f7c9
f577
f72d
0b89
f21e
f680
f3b2
f8de
0789
0b3c
f51e
fa02
0f67
f398
0e42
f93f
0a18
00ab
03e8
f2cf
f408
f8c0
01a3
ff25
0060
0bf7
0f3c
0a1b
0d16
0201
04cc
f5bd
0126
fe41
0a37
f7a4
fb85
0a23
f7c9
f3a7
0e05
fe85
097f
0c6d
f668
fa1d
effa
f0a4
fbe3
f4bf
05a1
f648
00a0
0c93
0a70
f4ec
02ae
fe28
0484
fe4b
02aa
fa12
f069
f730
f7d5
e880
f111
f8f3
f0f7
ed2f
f05f
f863
fcc2
f70e
f8a3
0b71
efb6
013a
eb46
fbc3
fd78
0248
0585
04dd
e119
e7de
f77a
ff25
f7c3
e835
e24c
f954
fa7a
fb62
f802
fc5f
04c5
f172
08fd
f988
00b8
0cc0
f8da
0820
0c47
ef01
f1ce
f6de
f5de
0894
feb0
051c
ef29
f1b2
efd8
f437
f487
efe2
0bee
eda7
ff92
0507
f43f
0a32
f04a
f046
f3e6
f457
f1ed
fe6a
f956
f1cb
f61b
fb86
0114
0680
ebf3
f61c
fe9d
f528
f5e2
0634
0885
f182
0120
0762
0c60
f03e
f5c3
016e
f3f0
efe4
f49e
f1ac
081f
fe5b
f099
07e5
0583
0c7c
f233
ed69
fd49
fabf
0527
0c4b
08f8
f4d7
fa1e
048d
0719
0a52
0707
f30e
fd06
fc23
0426
00fa
0866
f0d2
f0ce
04c2
f15f
f35f
f988
f2e1
feff
fbd5
f7fe
f4ac
0193
ef46
fa70
f4fe
0a93
0894
0122
f8b4
f456
0de0
ff51
f2c3
f941
fb5d
f1da
03b0
06ff
01fd
009c
0552
f663
ff1c
fe6d
0194
ea63
f030
0483
fee0
f37f
eb0d
f819
029b
fe23
0721
f730
071d
ff65
f789
f396
ed2b
f708
f181
f400
fa6d
ed4c
06f0
0510
08bf
fac6
f60d
fb29
0098
f428
fa75
05e5
0378
09b5
0eb9
058b
f54a
0ba5
fa60
0785
0360
0754
f6fc
f18f
f71d
f9a2
f9e1
fc17
0a73
fc1c
f727
0973
0e9e
f529
0c1e
fa8d
f534
fbc9
f8fc
0a8e
0a8d
0b95
fc74
fa81
f18d
0beb
f82a
f6f1
0147
ef77
0cfa
f54a
f6f4
06d9
00e4
001a
fa94
009a
08d9
f437
f282
054c
0717
fd77
01c6
09d0
ef07
f889
07ad
f150
054f
fa0b
f752
0115
f11a
0ed3
f7d9
0be5
0bd4
05a8
f8f5
0b12
0494
087c
f2d5
09cb
02f2
f72d
f9db
0605
02da
0397
0c57
f266
0b43
071c
f035
0758
0e6e
098f
09dd
f247
ff67
0c62
0e38
f0d9
f7ae
00bb
fe83
0ab9
fb03
f9f4
f06e
07f4
033a
fb81
fb0a
f470
fa01
f4c2
fb8f
ff4b
0bd1
f3a8
0510
f89d
ee40
f5b4
0113
f871
ef1b
031b
08b7
f39c
0216
0b6c
094e
09c9
f1ec
f4ca
faf9
f657
f2a7
03e1
eec6
0449
f621
0e28
fa86
fb21
f430
fcfb
0a69
0694
fc7c
f40d
06cb
054f
095f
f749
09cf
0b20
0331
eed2
0152
0230
00d1
0bd0
f987
fd50
0868
fa4b
09f3
f12a
0430
0274
f239
0dc4
00dd
f422
f0de
0743
f298
0973
fbb6
fd2a
ff94
019a
f77d
ed7f
f8d5
fa9f
f88a
f296
d91f
ed58
f1e8
0295
edb7
f214
e854
01bd
04f0
eeef
e91e
feda
02d1
087d
ff04
f267
e24a
f553
f01d
0af8
f8ec
0160
0345
f616
0731
fcef
0e2b
022c
fd9d
eec2
f096
ff8b
fdc8
f7d5
ee57
e231
ef2e
ec73
eeea
ec78
f37c
e705
fb06
f451
f93a
ed80
ffbe
0a79
f9f0
02cf
f544
f34a
fc13
ee74
f1a3
093e
0d5a
fd68
0659
0277
efad
f76d
efa1
00b9
fca5
f621
face
fa81
0275
f27e
efad
fbec
f03d
efda
0e2c
009e
0bf8
05c7
04e2
f9dc
0606
0b49
0606
f700
084e
f5cd
fe72
061c
0135
099e
0658
0b45
0e93
fee1
f6e1
f58f
f39b
0e0a
0832
07b1
0ad0
fcdc
f647
0693
f734
fe33
ecae
011f
f8d7
f2f3
eea6
ee02
f249
ef03
edfa
062a
00b8
ed84
f044
0128
f13f
f761
f2f9
f1ee
07b4
f8f9
f4d0
f7ea
0564
fcc6
f7fd
edf1
05ef
0736
f418
ef95
f0ca
fd4f
fcaa
f3b0
f0e7
053b
fea4
f77a
00a5
0b2a
0e48
fa23
0b20
0314
f416
efe5
f20b
00e2
f421
00b3
0454
0a72
0d40
0862
023c
02e1
f310
0356
f9d9
f5a8
0b39
00aa
f40e
03ac
f5f5
08c9
f045
0020
f6d5
0f1e
f18e
08d9
0ee0
fc78
f8b4
03af
f65c
f1f3
0956
027d
fecc
03f0
0a4c
0442
0165
0579
088b
076a
09b1
0c33
0902
fa70
06db
0e51
0241
f716
f85b
04a8
0b6c
f8db
f8da
0dc4
0281
00ee
0d88
fd3c
0219
0c79
f6e4
0ad8
ef68
06da
fb49
f186
f18b
03dd
fe9f
f286
0eed
fcfe
05c8
f02f
f439
0cf9
0299
fc61
f148
0d06
f8c5
ff2f
0a16
039c
f579
fc7d
f3d3
f08d
09e5
f1f4
f1a9
eb8e
e93f
f574
059c
0305
09eb
f493
0857
0871
f708
fbdd
faca
019f
0725
0b93
fe90
fa85
0921
fd88
0b67
0360
086c
00bb
f29a
efb3
088b
fb56
08d3
fe0e
f43e
06d7
f4ce
06df
0ca2
fea0
0203
0807
f681
f55f
f787
01d3
f31a
0842
f854
04b3
feb0
0479
f977
f082
fcf4
0636
0997
f0c6
0baa
f21c
0944
eeaf
efd9
06ad
0804
f2eb
f9af
f504
03d1
f179
f4a7
f7ca
ef07
f7ce
fb31
fccd
f94f
f6a2
f4aa
eeac
0230
e73d
ef5f
e55d
e737
e75b
f3b1
ed16
ee5a
faf9
f03d
eeef
049d
04e3
e77a
faff
f39c
f32c
f55a
e5d5
f33e
fd8f
efbd
ff76
f1af
0932
002a
f087
0059
0799
f650
ee9a
03d2
05a2
0bdd
01ef
0ac8
00cc
fd70
fc72
0c2a
fe21
fc78
ebe3
faf4
f0b2
0e82
f5c3
fc08
fb4c
044b
ee0c
fe4d
07de
0ab0
07d3
ffba
0552
fdd5
062a
0553
f974
f5c2
0796
083b
f940
feb3
055c
0849
f937
f335
05e4
098a
f70d
f4c8
0bda
f657
f756
06aa
0bb9
fa27
fe50
0a78
f029
00e9
f653
f563
effd
fc9b
f1f2
0263
0135
0c8b
f1a1
0701
fa89
f5d2
0c49
f825
f1d6
f31c
00fa
04d2
fc4a
ff51
0658
ffd9
f628
f117
fc79
f15f
f580
0291
0b15
00d2
fa62
f3ec
f505
0b00
f40e
0691
0383
036d
f0c1
f94e
f4b1
f5c9
f945
0af9
fc3f
f951
04ae
01e8
0da7
f5af
f8c1
0480
0d39
f802
feee
f911
f73e
f5f5
0d28
0902
fd3c
fb71
f782
fdc0
06af
08e2
0a8b
f078
fd85
f43a
f4c5
f735
06d2
fe6a
054f
02ae
f8c5
ef6a
0191
0018
0798
06f4
ef7a
069b
08eb
fc13
f175
06c9
006d
fcee
ec96
e89d
f1b8
eb74
f461
e2e8
fd7f
078a
f5d7
f866
f63c
003d
f969
02dc
1212
071b
fbef
0017
ebbb
1752
079d
f58e
f57c
f849
f2ca
0fad
fc97
f46a
e87f
ec0f
eafe
f4e8
0a0f
f999
045a
0d4f
012f
f821
f524
0a34
04f7
f742
f546
f1f0
fa6e
f300
fe9f
fa4c
0a3c
f0bb
f491
0a20
f60b
f26f
0517
077b
efa2
061a
fbcb
f260
f8f1
0513
f8ea
0695
f496
0493
fd18
03bc
fcd5
0f55
f73e
0678
ef3e
0aa3
f123
f5b2
f312
f6dc
f976
fe9c
06be
fc39
f42a
00d8
f03a
0b5d
f734
f80c
0b1c
0e22
07d2
f947
03ee
05f9
f1f8
fa49
fe44
f6fb
0427
fe08
0262
f999
071d
0397
0563
f2e5
0bce
01b2
0906
05ca
f5de
0d4d
0993
09de
f265
02e2
0cff
f7e5
f9bd
f504
fe95
0b39
0975
038d
f428
0c71
05a1
f762
0737
fb16
0686
fb94
057b
0748
0373
fc98
0c09
0017
0dd7
fbd0
f06b
f571
fb74
fe7a
fae6
005d
e580
e5e9
ecae
fdc2
ff18
f199
f38b
f36a
feca
0d29
04a1
ea46
f3c0
ee4e
f753
034e
03a2
06c7
07b5
fc2a
fc72
fe5b
e98c
ef2f
f84f
f4ee
f4ed
f1f4
fc71
ffe6
0552
f48f
f9f4
090d
0967
f7b0
0cb9
0d0f
f00b
0b54
f0bc
00f7
feb4
f9f4
fd8b
f494
f2bc
f9f5
f4cc
0d00
fe30
0e19
00bf
ee88
004d
0001
f480
f150
f285
fd8f
0b7d
00b3
f085
eff9
fcf7
0965
022e
faa4
f0a6
04f9
02ba
070b
f682
fae1
f60f
02cd
09cb
f196
fa42
0f36
f92a
056c
f58f
0514
feb2
08c4
f335
f0a9
05d8
f9b8
ff1c
f1ca
f266
f299
fe4a
0256
f3de
0975
f1d6
fd41
f972
f4da
f33d
0ca2
fb36
0bc8
fd7b
0eac
fbea
04a7
f80b
0acb
fa89
f790
0292
f3f6
00a6
0707
fc82
0b3d
fafd
0263
0852
f9c6
f9b5
0128
f141
04c9
fd15
065a
0da8
f060
f610
fe2d
0558
fc1e
f9bf
f46a
fd11
0bff
0485
09b5
0715
0259
0527
049b
0714
057b
f9c6
e0d0
f2a3
fff7
fe1c
ee57
eec2
f754
e591
e51b
ee5f
fa84
f20e
f534
f564
fb17
0420
edde
dc14
ee29
fa3b
039f
0477
fb54
f365
f844
eaaf
02c7
ee75
0e30
0d3c
0771
f2ac
0795
fc7b
f5af
08cd
0a97
fee0
03de
fd9e
f569
03d6
0a50
f1d5
0290
0d11
f6f5
fe34
fce0
05a2
01dc
0990
f85b
033d
fb77
fadb
fb14
fe24
0e73
ffa9
0b48
f661
fd4d
0d36
f7f2
0bbc
fcd9
ff27
fd93
f7c6
fb63
00eb
00d2
f253
05e8
f0e0
027b
eedb
f16b
0009
ee5b
075e
fcf7
06dd
07b2
f9d5
f575
ee5a
0325
f0bf
f7d1
0442
f58b
f386
fc79
fd44
0565
f5b6
ee4c
fcac
0076
0740
f6b5
f1a8
0735
fb03
f41c
004e
07a5
fe6c
0464
fd4c
fcbb
0ba6
f9d4
f51d
06d6
0987
f307
fe41
0c35
f142
f4ad
f347
0a6c
0ab6
f5a8
0937
f3be
fb1b
fc6a
0760
f77c
fd92
f7b7
0c3d
032d
f7ae
fbae
f498
fc0a
fd0e
f0b2
f10f
f153
f946
f185
0693
09bd
0203
fbe3
e73f
0cbf
f771
060c
f545
ec3a
ea3b
f082
f3e2
ef3f
face
f682
ec05
fc51
042b
098f
f35b
e8d4
ff17
0a8e
0733
f7e4
0111
fc23
0c40
f022
054e
00af
f41b
ffc8
fb36
f834
f8eb
04df
fab9
08e4
f0d6
01f3
fe51
f7b2
fe02
0a62
f909
0e39
0101
fc87
f3f2
f0d6
096e
f3e6
f62b
f3ed
f9ac
0722
fa8d
0c0b
0361
0140
06a6
0e77
0c2a
f454
04b8
01ab
0af6
0a8e
0dbd
fb5b
0561
fe98
0097
f037
0d79
f40f
0025
feb0
f5ff
f398
01d7
f52d
f04b
f590
fe69
0afc
0182
fadf
f302
f6ad
0518
0d36
0183
fde6
0234
0863
fd07
fed1
0a90
0ad1
0e55
f2a1
01a3
047d
f5cf
0429
051e
f77b
f681
007f
f743
f197
f4ef
05b6
067d
ff77
0c92
fb97
f663
f124
f3cd
04fc
075d
050e
0b59
0cd5
f2f1
0b32
0b48
0823
fd72
f625
029f
fe94
07c7
0b26
0bd8
f818
f9b3
0b4b
f4e4
fdca
fb28
fcb7
0994
f5fa
0d28
f6b0
0aa0
06f2
f20f
0e3d
f8e0
0380
011f
0107
fa11
f04d
fb49
f1a6
0954
03c1
0c96
056c
03b3
092c
fcd5
0f65
0bc5
00c4
09a5
f4a1
f2e7
00cb
0733
f060
04f7
f3e8
0d2e
0e3b
f26e
0076
f36e
fd38
f8c9
02f7
fa24
09e7
ff53
0408
f00e
055c
fecb
087b
069d
f567
07a3
f897
0dd8
f532
f5f3
0a1e
0a07
f9b9
05b9
0206
f7ae
f64d
f211
0cae
f235
e955
eac5
f857
0874
ef6a
0720
faa6
fcf0
e961
fa40
ef5e
0450
fccd
ebf3
05fe
f856
09fc
fba2
f216
f702
ee4b
f765
095b
f271
014d
f4ec
fa0a
03bc
0016
fa0a
f1fd
fbd4
fc7b
f300
f1c0
f85c
f129
0035
f0b6
09c2
ffbe
06fd
0a0e
00aa
fd36
f851
0654
fdeb
f0b8
fa69
fb5c
ff2a
02a3
fec8
f9d9
f796
085b
ffca
fe85
fff3
04aa
0240
0f2b
fe9d
0b92
fd4d
094d
0c50
0660
fc7a
f2cb
01ff
f30d
f55e
f9d4
075e
f211
0d54
f272
fb6f
0299
f4a6
f238
0327
0150
0d6f
fb91
0e56
f615
00c3
fc6e
f166
fab9
f916
03e8
066f
f920
0692
05fb
f20f
012c
0307
0141
f11c
f8e3
ffc6
0e61
f032
00a9
fa66
0673
fff8
fcb6
07b2
f8a5
06fe
f125
0e82
fb40
f84d
ebb7
07c3
f02d
f555
0034
fe33
f3dc
06fc
0d8a
003a
f1d8
ff50
0e25
0eb6
0269
f5fa
f62b
013f
fa3a
fb9a
00a2
09f0
0ecc
03be
0ba0
0456
f26d
f1a5
0a96
f349
02a1
074b
0ae0
092a
06b6
fad8
09d5
f115
0872
f099
0bed
0c09
f97b
f07c
fc32
0088
0a03
fa69
f225
0a23
0176
0aec
f023
fad7
034a
f15a
f453
fa9c
013e
fbe1
f788
0f3c
f882
f64c
f4e8
0b25
f830
fa20
05a1
f49e
fee6
f612
0cda
fbfb
0e20
ffd1
0af5
005d
0f25
faa7
f0a7
0f7a
0d11
f0cf
0d84
fcfa
01c1
034d
f45b
fa4b
fa16
0374
f2e6
01c8
fc4b
f25a
0ab8
0e50
f4f7
08c8
04d0
fb12
f09c
0e7a
0ec3
0e4c
f1ad
eff8
03bd
09d3
05cd
fb37
ffa1
067f
f8ba
0ad6
0e61
09c2
0c66
f09b
f26f
0516
09a5
fa7a
ef3b
0962
04ea
f097
ff67
fd65
0883
09e0
fa84
05cf
0ad3
0882
f07d
f1fa
ef9c
f3ed
ffa9
05a0
fcc2
059e
f590
f0bb
f611
f697
fa45
03c1
eec4
f3ae
f6d9
f46d
ff8d
f2c0
0191
fa83
070a
06a6
ffe0
ff82
0fc4
0e55
f57e
0d1e
fece
07dc
0842
0491
f5f6
f3df
0ab8
f070
fb27
f1ef
fd44
0916
f485
09f3
059f
0df0
f713
f0da
f2de
f1dd
fca3
f22e
0651
0849
fb05
fae0
0867
0b11
0cd8
f77a
08bc
f812
f344
ee3b
f70e
fdf3
fd56
01fe
0309
f193
0c14
009e
04be
09d9
f324
fd1c
f9f7
02de
fcce
f31b
0265
eea8
0b1e
f63e
f5b1
f4d7
016f
f29d
f4b8
02e3
fbcd
f277
02ee
0ee0
0e94
f98f
f6bb
f1f9
fa70
f383
f3e7
fd69
f982
f2b8
feda
05d7
05a6
034a
0c04
f45e
fdeb
f419
f4be
f966
f32a
ee53
0e73
f9fb
f659
f1bd
0af9
0ad5
0740
f759
fa28
fd3f
0868
f34d
0111
f815
fc0d
0256
f5a6
f229
edcc
0a28
f15f
0659
ffca
0909
0133
f63f
f147
0944
ee4b
0694
0569
0ca9
f9c6
fd8d
0b81
08de
f612
f35e
efe0
07c3
f944
f72b
09fe
02a6
efc4
0c90
052c
09d3
fe64
0d8a
fdaf
025c
0444
f992
f2a4
0af0
0a7e
0684
0bfd
076c
0767
f796
f07a
fd2b
f265
f78a
fe80
09c0
0ed5
04c3
0971
061f
f2de
f5ad
049a
09ce
fe84
02e8
f2e3
0aa9
0a37
f2f6
f268
01cd
f553
fcbf
f85c
088e
f503
0c40
ed70
f034
fbf1
0c77
f166
fdd1
07e1
0a8e
0d1a
0bab
f29b
f46c
0e4e
02ee
0687
0be0
fa6f
faff
edf3
046a
01ad
0631
0ee5
0636
0dfb
0fc4
f7db
0ac9
05a2
09f6
f2a1
0818
0161
fb28
0763
fe39
f214
0db3
ffd7
ef79
fa2f
0764
fed6
fae1
ed0a
ed1c
ed74
f9e8
0aa7
fb32
033a
ef91
fbee
f6db
f702
07cf
0227
f0eb
f130
f4fb
00ef
0bbd
fef8
f8e5
09a6
049c
f7b7
ee98
03ff
f069
f37b
fef0
f44b
0fb9
f8c6
0ca5
ff1b
f8ba
f548
fe80
f02d
fecb
fdb8
f745
fef0
f49f
f965
02ff
01e6
f77e
f9e8
f21d
0999
fdc1
06c1
08b9
f71b
f189
f9c1
f52e
f7d1
f5e7
0225
0a71
f873
f04b
f8fb
f17d
02e8
0b4c
03cc
04b2
ff44
095d
ef70
f31f
f980
096f
f076
0d96
ff5c
0058
0b42
f3fe
fbba
f06c
0358
f03b
fdc9
051a
0c6f
f990
f059
fbc3
0da1
0b6a
fdc0
01a5
f380
f9cf
f7df
07e1
f493
0cb1
00ca
f607
fe32
fd1d
0219
0cca
f456
0135
f6f8
0475
0747
f104
0b0c
0d69
0b59
f9a8
0119
ffbc
f14f
f16b
faec
061f
0bd1
f6c5
f4e3
0209
fcd0
0727
01b1
fa16
0936
03a1
f339
f9bc
fbf4
fd7d
fc6e
f3c8
f50d
f705
fe0c
eefe
026e
f794
09e1
f66d
fb88
f0e9
ef1c
009d
0d93
f948
0753
0628
f423
f862
f61d
00fa
0ad3
0d69
fe05
fe08
0acb
07e5
f2fc
00d0
f827
08d6
ff2d
f08a
0761
fa63
0576
0bc8
0b44
044d
07a7
0a9d
0096
fd6a
f4d4
fda9
0e70
0326
f14d
0042
06b9
03a9
017a
0078
0b7f
0285
fc33
070e
fbd1
0cd8
f6d1
f339
f160
0378
f2f6
fb04
f76f
092e
017c
f7b4
076e
fab4
f352
0ad1
fdb8
097f
015d
08d7
f420
f028
fb5e
f855
fcbd
fae2
08ed
0c13
0cef
fbe8
f88b
fa83
09c1
0b92
0963
023e
fec1
0f15
fa00
0196
0965
0853
0d0d
f078
fa11
081a
f41a
f56a
f406
fedb
fc83
f315
0292
fe98
fdcf
0288
f238
0e75
012e
0e9f
0914
f8d5
0f84
fcfe
0f54
0632
05eb
024d
02d7
04ed
036b
0eb5
f017
f4a1
fa89
0f69
02be
0795
0b1e
0c71
f6b2
0dc0
fbde
f5ea
0059
efd3
02a7
0802
0cb4
0456
0aaa
ffc9
f899
ef00
f1ba
0beb
0cf5
f0a5
07f0
f488
f6e0
0e2e
0c3d
fac8
f2bb
f21d
034a
f38d
f5f9
fd3f
0785
00b1
01f1
ed4f
02ba
0585
ed3e
0464
ed8d
0aea
f417
f75e
fc2c
07ad
051e
0bcb
0318
f7ef
08f2
0c11
fa7d
0c5b
fe2b
09c5
0a26
f5c3
0696
fc85
fad4
f5ac
fd61
0171
0a34
0781
f20d
0c6e
09fe
06af
0838
f29b
0883
07cc
fcce
0da0
f93d
f899
01fd
eed1
f5ea
f83a
f4e4
072c
f37a
f2b8
f8ea
03e9
0ca5
f2de
095f
fbc5
f8d9
f375
0599
f4af
f349
fc6f
0423
0c2f
06f9
01a0
0940
f452
05c2
fe67
09d8
f841
083f
f8fc
0b51
f025
048e
f41f
05b7
0800
0885
0ba6
fa99
f107
f5f1
0da1
0b83
0074
0b16
0268
055c
08f7
f37b
fb81
fe7c
0f80
031a
f78b
f3f4
f739
f24f
017a
f9a1
fe4d
0713
f117
fcbb
08f2
fe81
08c1
f66a
0872
f6b0
08eb
fb4b
fad2
0381
0146
f33a
031f
ee10
fe6f
f2d3
fbe5
fe66
0dad
023e
ff44
01a2
09f5
03d6
f437
0a6e
f6b3
051c
fe01
074d
03e0
f49d
f224
0440
0136
0e02
f33d
0515
f257
0727
fb80
0687
f8ef
fbce
07d4
04e9
f7d5
f516
0a83
f0b8
00ac
0df8
f890
08e3
08da
086b
f671
0102
fb5d
0106
f5a7
fc40
0319
fc72
0b01
f0b0
0fc4
03df
0d6d
0b52
fb1b
0474
f4a3
0a08
04bc
f58e
f883
0dda
007d
f0c6
0a5d
fab1
00c7
fc6b
f1b3
036a
0a3b
f15f
05d4
f378
02ae
f9aa
f21a
0765
eff6
0199
f394
f7d8
f696
f706
f451
f228
02c9
f63e
04c6
0b06
0a89
fefb
f78e
fee2
0058
029d
fa76
f584
0275
0292
02b8
fcc9
ffe0
099d
0755
0667
0881
0c48
0a78
08ed
0019
f83f
054d
ff82
064d
fa9c
f7e9
fcfd
04a3
0c1b
f4e1
feaa
f36b
0b25
0cf0
fab8
0cbd
0167
f68e
fe59
f8b6
fb21
049a
0c74
f2ce
0cb9
fbd7
f82c
0cd5
fddb
ff89
02c1
02f4
fe6f
0703
f37c
08bd
0f67
f7ea
0e36
f32b
07d5
00ae
fbcd
09c4
0925
f8fc
0d6a
0d28
fcf9
0459
f1f5
0baf
fd90
096c
f39f
f888
f8eb
f459
f70f
05d0
0c46
0e73
fe9c
09a4
f9df
0ce0
f0fb
f284
0aa5
f8c6
0256
09f3
f2fe
0a92
f159
09fc
f189
0184
07a4
f48d
0daa
01eb
03b6
0690
fbea
f335
07a2
0967
01ae
f948
f4be
fa28
f54d
040f
fd6b
f9da
081f
ff64
0933
0a61
f708
0847
0afc
06cc
090e
f45a
f344
f61a
fba4
03fd
0055
fbe3
04cd
f847
0e51
f18c
01b7
f1df
f40e
f08f
0d6b
04ed
00dd
0459
03bb
fa42
f402
fcb3
fb3e
0962
0940
f62f
0ab5
0aea
035d
0041
f0a6
f8ba
041a
f532
ffc7
faf3
0ca6
0a55
0dd4
0514
0059
fafa
f9d1
f769
0463
f757
edba
ff0e
f60f
0cf8
0bac
03e2
f1a4
fb41
fdba
f823
fbc5
f7e9
f325
0640
eec7
face
0ef7
fd1e
f144
ef2a
f7fa
fd41
f186
faac
0b9d
f894
f539
0236
0b39
0bf1
0b1a
06de
0926
032e
f4a4
f1b2
0e68
0dd7
0ec3
f721
0d39
0959
f3d7
0cf8
03d9
096b
f276
0cbb
fe98
031a
02f9
fbb5
f96b
f1ed
0a03
04f9
ff66
0730
01db
0d18
f088
fcfd
f6f0
0d30
0913
f4bc
f068
0d6b
03e8
f76e
f3db
ff3f
0a88
f190
0c31
fd2a
0baf
f7d3
f8a6
08d3
f3be
fba4
0e0f
f5d6
fb96
0507
0390
f53e
0166
f508
f97d
f3c8
fe21
f8f8
06fc
f3a2
0710
f5b6
0785
f99d
03f0
08b9
003d
0478
0189
0b0e
0de7
0bb1
fd8a
fbfc
03d6
0bd3
018f
ffe3
0eb7
f462
0551
fc82
f3f8
f0cc
0914
f018
056e
0c9d
f430
f210
0dd0
005f
083d
01be
fd8a
084d
079e
0f6f
f8e5
067e
0653
f843
fa08
f5fb
0bf3
0d54
fb42
f3ca
f2a0
0265
0457
f4bd
f570
f64b
fa0e
febc
0928
fb7b
000c
fb90
fcb2
fb02
f5aa
087b
f057
fcfc
03d5
fd8d
f43d
059c
f14f
f29b
f04d
f737
03ba
fdd7
fc9d
f3db
0cac
ffdc
f3d1
ff06
f33d
f5b3
fe48
f402
fb23
f3d3
f6fb
f057
f12a
f60c
fb51
0fac
05bd
fa76
fe06
0d5e
0446
f964
f553
f320
04ab
03c5
0973
fea9
0947
03d0
069c
084b
03f5
f1c4
fb1b
f3bc
f2ed
0abb
fef3
079c
f865
0b4b
0488
ee56
ffed
f672
fb93
efdd
f0d3
f449
0918
0426
fa4b
f674
035f
00db
f9c1
ff67
026b
0083
0bb3
0aae
f99f
0ca6
06b7
fe7d
ffcd
ff4f
fb7f
fb55
04d5
f23b
0383
0c06
0c64
0356
0205
020e
fe0c
089f
0921
004c
0a42
f40e
facb
f629
0a11
ef35
0197
fa8b
05aa
f368
f8fb
f5e1
04a9
fa5f
f5de
f638
056a
f1c5
0102
0c3f
09cc
f1e1
00f5
f5b3
01b6
0e2a
ff87
eddc
ffe1
0a0c
ff40
f7ea
04af
f7cf
0b75
0dde
0a70
046f
fbdf
f606
f51a
f60d
ef31
07c0
fcba
f073
f825
090d
fa63
f667
ff37
05fa
f4be
0cae
fa50
0867
0cd5
0cb0
fe9a
f47f
09dc
ef82
06cf
f4e3
00f1
0073
0a4f
0d1e
0e35
01c0
0d57
ef7b
f026
0aba
03d2
08b3
f743
f446
f7d4
efb6
0df3
ff13
feb2
ff8b
021d
08e0
efb7
0aca
f005
fadc
06a2
0fb3
019b
f3d7
01ec
ffde
f280
f4fc
0319
0621
f6a4
02e5
ff4b
f0ec
f7b9
f200
0b19
04eb
fc9e
0cae
0881
0eac
f9c7
03c3
eebf
06cb
f003
0e6d
000a
f950
f573
f0b4
00a2
f91c
0ccc
fd01
0418
fae1
0a30
099d
f706
041c
07b1
0b60
fa27
05f6
fc80
f134
f83b
0a63
073a
f178
fd23
0835
f9a6
f0e2
ff39
0561
0c21
0dae
005c
fec9
083d
f495
0778
0eff
ff13
ef19
fe18
f71c
0861
032b
08f7
fc9e
f81f
0b4e
094b
0077
f128
0b4e
f966
075d
f6bf
08ac
042b
f16c
0fdb
f583
f66c
fab6
fff6
f87a
0577
f9e5
f7b7
fee0
0139
06cd
0052
f99d
0210
0d98
0c5c
091b
fd0d
f260
fd04
020d
07ff
04fa
f95b
efc6
f029
ef96
0400
0a59
01b3
ee53
0a57
08df
018a
06b3
edf4
0230
078a
f340
0a12
fb43
f6e7
f3cc
0772
f282
05e3
058d
f96a
0403
02db
ffe1
ffab
fafd
06ae
092f
f496
0488
0b68
f439
f5f6
f02b
0636
feb3
ffff
0139
0d2d
f57e
f450
088d
f2a1
0b42
06f9
01f5
09f9
0cfc
f08d
fdba
026b
f3c8
0659
f1e1
068d
0611
0382
0280
fce7
0496
05f5
020c
0b6e
fe34
f25f
f553
0006
09c8
05a5
06bb
0669
0b9f
05f7
ff51
ef49
0eb0
0d57
0491
ffcc
0bbd
0173
03bc
f202
f154
054b
03ee
f16f
f1e6
0938
0117
fa9f
04fc
03b0
0deb
09d2
0574
ff57
f814
f7c5
ffca
f05e
0646
f11f
02a8
efc7
efa6
f639
ef79
fd89
f337
f89c
f3f1
f129
f675
ffb6
fed9
f1a5
fcc5
ef5b
fcd8
fa9f
0580
046a
0d95
07de
fd33
033a
fe50
08e7
fd21
ff73
03a6
022e
0809
024c
04ad
faad
f4f3
035c
0961
0f10
f751
efe6
f598
0bbf
0dec
fbc5
f818
fa86
f56d
f178
f7ba
f902
0d74
0564
0f68
0963
074d
0dec
f8ed
f2d6
0e57
0bf4
f850
fff4
0392
f679
0c90
f9dc
f220
0d39
0362
fdbf
f460
f74f
07b5
ff68
034e
0571
f882
ff65
f965
f83f
ff84
fd3d
fe23
fe6c
f4d7
050d
f4aa
011d
f03a
055f
0925
f380
fae3
f8ef
027c
f249
0c92
fa1f
f135
0774
072c
0104
0524
f581
f7ff
f938
015c
f104
fdfd
ff3a
0d61
f459
fa7e
fdb4
fdec
f65d
0073
0df0
02c6
0718
ff10
fef3
0027
fff9
0351
f864
0f13
05e4
0e9b
f3bb
f719
0c30
0ede
0623
0d64
ff6e
0f4f
f93e
0b8c
f6f5
fe37
f3f6
f249
f87c
fb35
0cac
f83a
0c62
f5b1
f5f4
fa59
f084
ff11
0a1c
0043
ffe8
f351
ff8b
f498
f0fa
f20b
0e9f
0b4e
05ad
f18a
f8d9
f5e8
0427
08d2
011f
f94e
f8bc
f622
0a78
f19e
f14c
f857
fee1
fc8c
f485
0466
f3af
fe02
f7ac
0352
f2d2
0575
fcef
ef5d
0c6b
09e6
078a
f249
00b6
f402
f452
0cb7
f61f
fb87
0a69
f06f
095b
0b39
0482
fa9f
0026
0e3e
f016
0d70
ff54
fda6
08c6
0969
f259
f27e
0b6a
0e95
04ab
0d85
ff63
f73b
ef4c
04c2
0bec
f2b8
0b89
f00a
fd40
f8db
0f3e
fc69
f8d6
029b
0573
f5b9
febe
fc35
fa4a
f1d5
fc07
0bca
00a9
f45d
0bc7
f35a
0150
01ee
0723
f35f
0260
fe98
fde1
f111
f7f1
f8b7
05f2
0948
fac9
f79a
f43f
0620
f446
ff60
f017
03b6
0800
fe86
f128
0118
0dfd
0791
08fd
0c72
f332
0936
f6f0
0c1d
f48a
fdfb
ef5c
0ccb
0f38
0dea
023a
fd90
0055
0ae8
f4b2
0e26
f778
f7d6
07d8
0e9d
fe04
0dc4
093c
f0d3
0d56
fde1
09bf
efd2
f53a
f3ab
fe97
fdfd
fc19
0430
019b
0700
0a5a
06a3
f43c
0cb6
fc18
00b1
f8b1
f08f
fa09
fd4a
ff22
ed79
03ce
fd9d
f81f
fffb
0253
fd35
f9b0
0a0e
f47c
e399
fefe
fc18
05ba
f9f1
f1a6
e7b5
02b7
ef89
0b6b
ff07
fc14
f526
fd59
fe6e
ffef
032c
fdd5
fde4
e87f
0be6
0be1
02a2
fade
0ead
07c2
f19e
f82b
0576
f099
f0e6
02b3
f2cb
ff9e
0e9c
fc9e
08ae
01b0
f8d2
fc2e
f407
f0eb
f955
f22d
0d42
fcc7
0cb5
0ed2
effa
fd8b
0d00
fbd4
0015
0f48
0d62
f327
083b
0989
0e02
f016
f018
f438
f864
fe6b
0ddf
fca1
ef25
07ce
f72e
f787
04dc
0709
f3c6
0a52
0573
f614
f4d4
f08c
053c
f317
0322
ffb7
f953
fef3
0c46
fa00
0248
f275
08ae
f143
08ff
006f
0ee1
0262
0dfb
010c
fe2b
f459
0e48
fbbf
05e2
f912
f6af
f76d
fcd1
078d
0333
f3fe
f5bf
04db
0f56
0756
f288
f109
f254
fc7d
fd7e
0a95
03cb
f374
fa9a
f04f
097d
031f
0b87
f1f4
02d6
f794
0f85
06bb
01ea
fc4a
ff8b
00f7
0b71
034f
0b68
06f5
0d3d
fe56
ef6a
0a49
f9c0
02b4
f6ef
f282
0a03
05bd
f30e
ef51
fa0f
febf
095a
0dab
feac
0231
0b5d
fc9b
00c7
04ae
f5fa
00ec
fd27
0e2e
f73c
003b
fc54
f35f
032c
f76b
08f8
ff9d
0867
f661
0c8e
0620
edfc
088f
073f
f823
0b4b
ef31
0108
075c
00b2
03e8
f522
f760
f78f
feb8
f382
0b3e
043f
f7e5
0145
ee12
f9f7
0b82
fec8
f33e
f793
0b54
0c0c
0760
fe2a
f3b6
e744
06e8
ed5a
019a
ea66
ed54
fe4f
0593
f53b
0afd
0216
005e
f4b9
fb77
f60f
f06a
06cb
f0e2
0701
ef70
0809
0cad
f976
fd41
ed3f
05bb
f795
ffd8
f35f
02b7
ec96
f14b
0132
0bca
ee27
ea2f
f279
eb4d
f746
0682
f798
fa8c
0567
f00b
f504
0cef
f6f8
fc64
eea6
09ac
0b5d
02fe
efd0
ebf9
fee2
eec3
08ed
08a4
0a8d
ff8d
096b
01cd
07bd
fa45
f4a9
0dc1
0351
f400
f493
fb94
fd55
0bc3
fc60
f9c2
0943
f09b
fb28
05c6
fe23
fa6a
0cde
f511
f08f
092f
fbb1
08b4
0023
f810
fec0
047c
fde7
f7eb
ef5f
f3f0
efa8
f689
f993
ff21
0056
fdb6
f254
086e
f50e
fed5
01e2
ff75
0c73
f1ab
072a
0ada
027c
f72b
f70e
f3ec
ee4e
fb42
fdb7
0968
f2af
0497
efa5
f1bc
0b2e
f7a2
f0ca
0d39
fd3d
ff8b
0a89
fcef
fb92
f676
00bc
fa7e
0267
fbde
0c24
0400
0cff
004c
0744
0bb5
fd37
0233
f301
f1fc
f104
fea7
f38c
0769
00ca
0178
f692
f691
06af
004b
fd6c
fb05
f28c
0626
01a1
0059
0594
ef54
091c
0423
fc4d
0a5e
f928
fa41
050c
f12c
fbc3
fc69
fb48
0437
f312
00e6
07a0
0694
f101
f15f
0878
002b
f565
f935
f7da
0d84
0c28
0f2d
f835
0dcb
0a00
059c
0790
fce6
002a
f12b
06c3
0deb
051e
fa4c
f843
f721
fa0f
0715
003f
08bd
00e4
efd3
f294
f19d
0dd9
f0f4
04f6
0c2f
f3ca
f18d
0053
024a
0873
f312
08f8
0943
f207
ffeb
fd77
0581
f3f1
0e03
02b9
077b
0742
0715
f89a
f0da
f71a
0469
098f
f314
08dd
f4b2
fc80
0cb8
0c8b
f8aa
03a2
ff6b
067f
03bc
02a7
0335
fab9
eecc
0b15
01af
06d6
f215
05eb
f0a9
edd8
091e
0763
0939
ef87
fac1
fca2
fd39
0482
0ba1
06d5
f108
01f1
075f
ed93
0b03
ff87
febd
f20f
0720
01f3
04ac
f8d1
088e
ed67
0787
fb19
f141
f208
f2ef
0adb
008c
eed5
0531
f6c4
f626
ee75
0c3d
0d0f
ff53
f6a1
f5cb
f661
0685
f907
f968
f0b3
05a5
ff35
f3a4
09cd
067d
ff5b
0219
0901
f56f
fab4
f0b2
0c15
ee4b
f8b1
0de3
f97b
ec0b
e476
028e
0396
f276
006a
ea18
0065
f7b6
0195
ee83
0592
f8ff
f384
06ad
0329
0035
fa95
0585
0898
04fa
0e36
009a
f355
fc33
ec4c
f084
fded
f4b4
0467
0919
0468
f6c1
0eec
f858
0bea
045f
050c
f63c
efbb
fe46
ebe7
e935
0ab9
fe04
0811
0ae6
fe29
0200
0858
f1f1
f7ad
fe36
06b0
f11d
0608
f1f5
f8bb
eeb7
fece
f2cc
fb40
07fc
0038
f8a5
0a53
0b15
ef7d
f44d
fc87
fde7
0db7
ee4b
f493
f798
f307
f443
08ef
f7e2
04fa
f6e6
f091
09ae
f90f
0a52
f374
0263
05d5
06d5
048e
fbfe
fb29
fce4
0bf7
0425
06f1
01ae
0c12
0ce3
f431
05d2
fba0
01fe
070e
0e18
f000
06d4
f2bb
f7e8
0476
ef5e
0768
047d
fc99
0acb
f390
05e4
f0f7
06e1
0928
f2ec
0a80
0ab3
f8cd
03e4
fbf1
f673
f4c0
fef3
0245
f09b
0218
ef98
f17a
038d
f80f
0413
f59a
f22e
ef4e
fecb
f203
ff08
f9e3
03e8
054e
ff84
f39e
f9c1
fb51
fdd9
0b8f
057c
0dd1
fa6f
f4c8
0054
0505
f782
05ed
f311
034f
0941
fd32
0a5a
0499
fc45
0ade
077c
fec0
0381
0e2a
0f7a
0dea
0094
f16d
fc50
fe68
0cd8
f69d
fb00
f38a
fdc2
ec90
ef77
f501
f95a
0496
f2c9
f5ab
fb02
f219
fdb3
fad5
e4e8
0727
087e
e151
16a7
feb4
f2a1
eee7
06db
e9ef
0582
ef64
f5b1
ffd5
09fc
fcd9
f6d3
0436
f203
ee78
f1a0
f636
fe1b
ffa1
0a96
fd09
03fb
f7a6
ff2d
09ba
ff94
0562
fcfb
00d4
f828
0907
f895
017c
fae9
0a72
fc24
0d93
fa1e
0ead
f73e
0ae1
0e63
03e7
f155
fb31
03a6
0632
f209
fdca
f6ac
06f4
f5bb
f678
03f4
060b
060f
0d57
f8a4
f447
f623
f6f1
f4ea
0993
f50a
fcaf
f5f8
0858
fe3d
f107
f517
f73d
eeed
ff51
f0cc
047d
09cc
eeb3
087f
fa1d
fb25
fe7f
f246
f55d
f48f
0c48
f49c
0c63
001a
fea7
0069
f07a
f202
f4b6
ff30
f919
093f
033c
f5fd
f850
0c52
ff4d
fb99
efb2
fe32
0e9c
fb6d
0c3f
060b
061e
f8b4
f540
f4e8
f045
0aa4
f4fb
0c82
f1fe
f6d4
fdb4
0037
0056
0090
fb18
f2f8
fd85
0676
0274
fb6c
f3a9
fbbc
fcc2
ff9d
fbdb
fc4a
0d8f
f7b0
f376
fc72
07f3
ecc9
0b3d
f205
0cc6
0280
f533
029b
036c
f7bb
081a
0a0d
f9bc
0b16
fd87
0700
fc9e
fd9c
f4cf
0014
f6f6
04bf
f999
fd03
f1f9
07ea
f115
0b1a
090c
ed41
09c5
09df
f8e7
f4a0
070e
0cb7
0057
f174
0930
0098
096b
075e
f6b3
f435
ef5a
0dbe
eec7
04f8
f63c
06f8
f2fd
046a
007f
ff80
f4a7
02d7
ff89
fe69
f390
f805
06c7
fffe
0e20
f0ce
fca8
0e4b
fabb
06fe
07cc
0910
0b86
fe7a
0c09
04cf
06a0
f351
f680
06b6
06b1
0cf0
f4cd
0d11
fc1a
040d
f4e4
f913
f5f9
095e
fe2a
f840
042f
f5d5
0ded
06b5
0e35
0460
0d3d
0d6f
0d6b
0881
0643
f3b7
f032
ff9d
0114
fca7
0886
f4a3
0e36
fd0e
fd64
04d3
0aa5
f8db
0019
f4de
fd21
f21d
0c61
0ed5
f8f3
f43d
f972
fa5e
0381
0844
f9ea
05ac
0077
05d5
fc07
0b8b
06fa
f662
f100
f29a
0a1a
f9ad
f0b9
f82b
f855
06c2
fbce
ec39
0801
efa9
f511
0c8f
ed0b
f0ef
00f6
f937
f8b8
0720
08a8
ea57
f5b8
ec29
0073
fdd6
f848
efbd
0726
0354
0e28
048b
0c66
0bb8
08c8
fa34
f28c
fcdb
f90c
0c76
fb86
f7ad
0a69
0a20
f43d
f78f
0e3a
ffed
fef0
07d3
0df3
fd2f
eeb9
f5de
02b7
f7b4
0d0e
f5d9
f718
fb7e
f8cc
f3ac
0aa0
f65b
feef
fa83
f896
0ca7
ff87
0410
0c2f
0846
020b
0ba4
ef4e
054b
fffc
0b19
0d86
fff3
0203
fcc3
0c27
fa4f
f37c
0af1
ee6b
eb5b
026a
00fb
0794
0103
00ec
efaa
0527
f1dd
0e7e
f81d
06af
090d
ff80
f0c9
ef1c
f402
fedc
f494
f279
f8bd
08a5
f0e7
fd16
f451
f763
0f39
03b4
f440
f5c3
0f13
06b0
0fa3
fb06
0a10
0511
04ae
f326
fbd4
061c
04d1
f9af
f665
0be8
f5ea
02e7
0845
f46b
0307
0823
08d3
08a8
096d
0075
f8e7
f460
03e3
f3e6
0e1c
fa6a
fee8
0894
0b4c
f143
f78a
05eb
f3eb
09c8
f00f
fb12
0094
f6f9
02b5
091b
03b7
f37c
fa62
fdb2
f1cd
07d3
0d1e
0c64
010e
058f
082e
f1c8
f528
fbce
fe97
062f
f576
0731
f133
f473
098b
f338
0468
060d
fa30
0602
fcae
f0c1
f75f
0414
fd60
f8ae
fb16
fcff
f62c
03e3
0655
f064
0a81
f5ee
f2ec
f932
01f5
f082
f766
0c94
fa0c
f7b0
0efc
07b0
0920
f30c
063f
f55c
fa96
f1d8
f83b
ff24
0597
0818
f4ed
fe65
09a7
f055
0ab9
fcbb
f3c0
fd0f
092f
f80a
f2ef
0d96
f2f8
0a66
f6fc
f37d
f320
0328
f1e8
0bc9
ffd5
0265
0df1
f4b7
f615
f1f6
0fb1
0ca9
fac9
0afc
fb9c
0486
f773
f371
02c2
fd7c
0954
f667
f631
fe5e
f139
f53b
fff5
0b4d
f79f
00e1
01f6
041f
094d
f0b6
f4d3
f519
f924
fe55
f781
f1cb
f32c
f025
f19f
0f53
f7e3
055d
f341
00de
f2ee
0f25
fc15
074c
f296
fe6f
fbef
f59b
f123
01b5
fb4b
01f1
0ea3
f381
fd02
f474
0465
f33b
0bf0
f525
09a8
fbf0
fab4
05e7
f605
0419
0034
ffbc
f5e2
fc83
f5df
f65a
03d1
0fd4
03d9
f8e6
058b
fff8
fc83
f4d8
fd97
08a7
f368
fa44
07d9
0038
f1a1
0ba3
0ea3
0a73
0763
f68d
04fa
f467
0f21
012a
f4a8
f08c
fc35
0878
f5af
fc8a
f896
0219
f5fc
fbc4
f89e
05d9
0893
0412
0503
030f
09cb
0572
049d
02a3
fca6
0ab2
f450
08f0
084b
0209
f4f5
fa74
f8e1
004a
fca2
f2a7
f563
0863
00a8
f204
fcfc
fc2a
0cd7
f589
fb5a
0dab
071b
0cd7
0bc8
f8f8
0d61
01bc
032c
f34c
05df
ff83
0ee0
f2a1
fa4c
f5f3
0b96
045b
0d1a
03f1
f3c6
09ab
f1a7
0cd8
f47f
04f3
0e71
0259
0ea6
f83f
0d7e
022c
f818
f3ea
fbf5
fd75
03f3
f4ff
f95f
0900
ff9b
077a
0e16
ff68
0558
fc4a
f86d
fa7b
f425
f459
f8ed
072f
f62c
f638
0c08
0aec
fb89
fcbf
09d3
0545
f3cc
0c2f
f8d9
0b23
f2b6
08bf
f663
02c5
0897
f85e
056a
0f3f
00fe
f51f
fb3a
0ddb
f9be
0843
fe50
fc05
0aeb
f6e3
fd27
f67f
0d30
fc02
010b
fd6d
fb2f
0439
ff6f
f570
0905
0bb0
f296
f20f
093e
fbf2
ffdf
faa4
044b
f58e
06fe
f205
0adc
fb1b
f54e
f12b
f595
f96a
00f1
041e
0a7d
f52f
0896
0c4c
f4f7
f887
0655
0e5a
fd23
f09c
f7fd
f606
ff2f
0f19
039b
ff1c
fb3d
0bb8
0cd1
0879
f92f
fdfb
faf6
f58c
f691
fef1
05ea
01a6
f1f5
fc51
0af4
0043
0e23
0015
0814
fd88
0cf8
01e4
03e8
0c76
0bbb
f27c
f4f8
02fa
f177
fc25
f6ab
0198
0c95
0c2d
f091
002d
fcff
f246
fc8b
f8f0
fa76
06dc
f036
0dad
01e9
f337
065f
06a3
0017
09ce
020d
f8dc
f5f3
0739
0612
04c4
09b5
f941
f76d
f2bc
f5fb
f818
fb40
f026
f836
04d6
039d
0212
f8d8
f3a0
0af8
0822
fe58
0541
0dac
f2f2
f2f9
fd2f
0981
0333
f2ed
fa20
fab3
f672
f965
ff64
fade
0da3
07e6
f8ae
02de
f1a7
0b9c
f2b8
0136
f541
0c6f
fd22
fe96
0c04
04ef
f515
f300
ff65
fc0b
f50e
f31e
fad0
09c5
f824
0092
f8a9
016b
0818
f48e
00cf
0625
0c19
f06c
f5df
0ef4
009a
f3c9
08a6
04ee
fa39
0322
0cc2
f483
ffaf
f761
f2c7
0318
f89e
0ad2
f64a
f5a8
0389
fb1d
f840
f66f
0c23
fd74
f97a
ff33
f7ca
fe41
0a89
f61f
f258
f4da
f008
f3ec
0a6b
085c
0be9
0998
f772
f39a
0cb2
0989
0bf6
0487
0a33
0eba
fee5
0bc2
02b7
f799
f0b0
fc8e
ff0c
f7cc
0486
04d3
0c3c
f4a3
ff37
05cb
0b5a
06d5
0bdf
0f2b
033d
053a
0484
0c67
f4a1
0834
0c70
ff2e
0316
fd76
0e63
f00c
f1e1
058d
081e
014b
f35b
0883
f3c2
0e98
fd0d
0029
0bde
076d
05ef
0f84
fbd8
0986
0598
063d
02f0
f292
064f
f925
f4a2
0e46
f1a7
0fad
f87c
0257
f80c
fc3a
0bb8
f23d
f9fb
0484
f774
fa61
f58a
f39b
fd6e
f89f
0d46
0a1f
0506
f227
052b
01c3
f00a
f43d
fcc4
fd66
f99f
fc9c
f799
0e80
f4aa
f41a
f68d
0be9
0fd9
f192
f4fa
0d94
f213
0419
025a
0177
f87f
fe32
0470
f17a
0443
fb0c
0092
f3fd
f8a3
0733
0f4b
0e0d
06c2
f838
fb3d
0fd0
fa45
05d0
0264
0e56
0e99
f6cb
0566
054d
0357
0daa
0bf6
0d7e
fd6b
089b
0d6f
0011
0f9a
f1b0
fb45
032b
f137
0517
01ef
0539
f9d6
fa14
0f59
ff02
0fb0
08ce
f98e
0f5c
078d
fc26
06d1
f3d8
0308
f95d
0c63
0dbf
071c
f471
f46b
08c6
f53f
f741
0203
0b3a
069c
f2c1
fffb
f05d
0ba6
fc4b
ffd9
08e5
f20b
06a4
08f2
0354
fe25
fde8
0918
fcea
f695
0c4b
02b9
f3f7
0861
0c94
ff85
fb1b
018c
0173
08b7
f05c
029f
f921
0457
073a
f73e
f3b6
f9c1
050f
0554
0309
f6a8
09f2
f3b0
f039
0b92
0713
0169
f0ea
f1cb
0158
00ca
f3b5
f097
012f
0493
fbf0
0e6d
038a
03de
f20f
f1ba
f45d
05df
fb6a
fbfa
0aff
07a2
023d
f8e8
0c9b
fb8c
f9a2
0e2b
f7a7
f75c
f988
0e9a
0992
07d6
fa9a
f56f
014f
0f36
00df
0879
fa4f
0185
070b
05c6
f6e4
fb08
0e8f
0f7b
0e11
0c71
f5ce
f80b
0931
f9f0
0352
f385
0efd
05bb
f38d
f2a5
ff14
03eb
0ee7
ff69
f101
09b9
f3a3
fe17
0d93
f2b2
0d7b
0f9f
076f
f5df
f073
fa76
fca1
f780
0522
0be5
f1c9
f2f5
0580
fcba
f3b5
fc4d
fb9d
0bfb
f125
f73a
0899
fd9a
0c28
fd35
f6bb
f641
0041
01ab
f50b
0a41
ffbf
fa34
f655
f9bf
0d31
ffc7
f742
07f6
f60a
03bb
f36e
021b
f27c
0c31
0d5f
0493
ff82
f03d
fb99
fc1b
025a
0708
f26f
f8f7
0175
05e2
fad0
0f33
001d
0c25
f566
f825
f08d
f644
fe76
0f71
f706
0817
f92c
fbae
0434
f7af
0061
f05e
03da
f7e5
093e
f82f
f0aa
f398
0acf
f99c
f16d
f05a
02cd
0462
fe88
028a
f520
0733
f32a
f5fc
f07a
f005
0811
0915
0180
f01c
f52d
ff45
f775
096f
f814
f9de
0c8c
05bb
fd5f
f285
fada
0610
f046
08b9
fef9
0de7
0853
fb3a
fbc5
07b3
fd7a
056b
fc76
06dd
0176
f326
feaf
031e
09c6
076b
038b
f701
0833
f551
0633
03f7
089e
f7ce
01d6
0fcf
f75c
f4c1
0d29
f117
0e14
f448
04cc
0613
f9ba
f4ab
085b
0e6a
073b
027e
0b6d
0655
02fa
f883
0194
04d7
f613
f55d
f2c2
f4b4
0603
f9ed
085c
f2a3
fe60
fb38
f9f7
0fe3
041b
0700
0151
056f
fbb5
0ad4
f153
f0dd
fb24
0df2
084a
f223
0d0b
f1df
fcf4
f276
0649
08f3
06fc
0d2e
0980
0e4d
0673
fa26
0707
0885
fc52
0f25
0ca6
0266
f645
0063
f6cc
fe17
f101
fd7a
f0f2
0656
f9c8
0487
f185
f1fa
0579
0d15
ff57
ffe4
fddb
f423
01e7
0f27
f5ff
080d
ff28
03b2
fb61
fc1a
fd97
0425
0c1d
01c3
fe97
f28e
f6c2
0329
fa70
f903
0b3c
fa99
fa78
08c3
facd
f827
0421
0b1e
f02f
04b1
fc2f
f1b7
f274
0fd6
fe61
fe8a
fe62
0557
0cd1
05a2
06b4
fe0d
078d
f0cf
f197
fdaa
fb45
090a
f4e1
f429
f8c7
0543
01ae
009e
fdfd
f0a2
0947
f645
f9d4
fc05
fd9f
0401
fc79
f91b
f32f
f22a
f8ad
f789
04e5
f2e8
f671
f70e
f920
009e
027f
0b77
fda2
048d
fbf1
0478
044d
f797
0e9c
0746
fe3f
f70b
0db5
0046
00a4
00e5
0c29
09b0
0812
0918
065b
0cb7
06cf
0037
f049
fb9b
084a
0cba
08e4
f4c5
fe0c
0da4
f6f5
0439
0db5
f182
f2db
f513
f40a
0c68
0a5a
0849
0a26
0365
0ae6
f918
0000
fc07
0215
0967
f88f
f567
fa91
05ee
f9a0
f951
f4a4
f2d1
0d03
fb2f
0534
f1b4
05b1
0d8f
efcf
0ec5
fc7d
f040
0531
fda3
00de
0d6b
0095
09a2
09ce
fc5a
06a3
fd8b
f2a8
04d5
f683
f927
f9d3
ff64
00d4
02ac
fe80
0f79
f639
093d
f577
f8b5
0070
0866
05ad
fc02
f371
fee5
0650
0195
0386
ffc6
0622
f13c
f2d9
f425
f433
0417
01a9
f322
fb41
0c66
0650
08cc
0a06
fa3e
f436
f516
f63a
fee5
0d35
0fe7
fb20
0ea7
00a7
065e
fe4c
013b
0d6f
f151
0b5b
f7d6
fd2d
0e05
0be3
04e0
09f5
092d
0911
0ecf
f0e5
05c1
0851
0608
0bde
f880
f5dc
0f38
fd8d
0d2f
0d49
030a
0400
f697
0b6b
03ea
f87b
f1fa
f808
0b22
fc3b
0511
089a
f5b8
fe08
f39b
f8ad
fa1a
fa11
0616
ff91
0105
04c2
f465
0a82
0e0e
f610
042a
017e
f507
f061
0b3c
0320
030a
fe15
f133
0747
0bdf
0dc6
f782
0a3b
f727
fbc7
f0f5
f44d
05d8
fe71
f3b0
fb23
fe4d
01f4
f4d6
0714
0154
fbee
ff8f
fc31
0b21
f721
fc23
f57c
03b2
fb05
0c78
f785
fcee
fd47
f2ee
f88a
070b
0352
062b
082d
0f8a
f252
0eb8
06ed
0b2d
ff8d
f99e
0144
0db0
fe79
0ac4
0bde
f2be
f389
f48b
f888
fd25
f464
0f51
0afe
073c
efd1
01fc
00e2
04fe
068a
05c6
f400
f103
019d
01c9
0271
0016
02e5
01f9
fda4
f328
0a19
0306
045d
06b7
fdcf
04ab
f531
f93a
f65a
f1d7
fc1b
0180
0e09
06d5
fbc5
05e2
f012
fe7f
07c2
f426
0288
0790
f955
0148
0c5a
f393
fe65
0370
0003
08c5
f5cb
0718
f4fa
f3fd
f0c0
0dd5
00ba
f73c
01bd
fe0a
0de3
058a
ff78
028e
0a61
f92d
0089
0cb2
0473
fca9
0371
05ad
f07a
09ea
032b
f717
f90c
fa3b
0ce7
f357
06ee
083c
ff8d
f683
0064
09cb
f044
0bf8
f255
fd7c
ff5e
0a00
f3ec
f699
f693
0e3e
0b2b
fc95
087b
0194
0329
0912
f821
f544
026a
f89e
01b9
0cd8
fd83
0841
0941
09e2
0885
0054
02bd
f268
f49e
f81b
f2c0
fcb0
07b8
ff65
f449
06df
048f
09b1
feb3
068a
fd66
eff1
f673
096a
fe36
f289
0e65
f1e7
f8f6
0580
00c2
00ba
f49c
ef88
0527
f74c
ff0d
0e52
f500
f203
0657
fd1a
0e91
08a0
0eb7
ffbc
032e
f549
fdb6
0404
0695
fd69
f93f
f2d3
fb51
0d39
f52e
0534
f2a8
fa3a
f891
f880
02eb
0e03
f099
09e8
0c2a
f323
01e7
fe5b
fdf4
057d
f822
07fa
0517
fa2d
0332
0baa
f7a6
0bc3
fe91
0ce5
f0b1
f011
f4e4
0b81
08bd
f41b
f5ba
0444
058e
0d3d
0dc5
0c0a
0ad6
f6f8
0c8a
0e53
0871
f8f5
f052
0116
fd9c
01cf
0b4d
027e
0f05
f918
f212
fdef
f88d
0a78
fcf1
0deb
f020
0667
0ab0
fa2b
f8fa
0a88
fe70
0a0e
f3c8
0e11
0c5e
0433
f57e
f260
f000
ff54
ffbc
f481
04bc
f033
075c
f586
0e8a
fd05
09b3
fdb3
fc45
0875
0a5d
f2ee
f9c1
efe3
f9d9
faba
0945
fd92
fd6b
0685
0290
fccf
0ec2
fc2c
040a
fa93
f484
f574
07bb
0d15
05c4
f08a
fc1b
041e
ff5a
0c56
04b5
0172
037a
f753
f143
0d21
09bf
0d95
058b
fa58
fb83
fddb
f5be
f198
f7e1
f5e5
f7d9
0cdc
0a1e
00a0
f92b
fd7d
f715
f62f
061a
f276
f799
f1da
0332
f04d
f378
0a6f
0ad8
ef9d
fd6c
f108
f40a
0da1
fc55
f61b
ffd9
0724
04b2
fa2f
07d4
f628
012c
f6a6
ffb2
fb75
091c
0d01
0dcf
0adc
f5ce
0ac5
02fb
f923
f01b
0a80
0ee2
f843
f939
0b57
f229
fb06
ffea
0b9c
fc3f
fa22
0211
05ad
01e5
f3df
fc8e
041e
f1a7
f646
01b2
03dd
0693
0e99
0f04
0d17
fe9a
0e5b
f3bf
f7fd
f495
0463
0ccc
f78c
0452
f4a8
f028
fb33
08cf
f26c
0dea
f92f
0352
fff2
0b28
fbb3
0b1d
fcc5
0e05
fb4b
f43a
080f
0e56
fb39
fe23
fa48
066d
fb74
09f4
01aa
fffc
0dce
fb0c
f902
041a
06f8
f4c0
0373
f8a5
f9e9
0eac
f208
052a
075a
f65c
0ad1
feae
f9ed
fc61
fe12
0943
00bb
f955
06e4
07dd
f324
f428
fb8b
f6ea
01d9
f160
fa3e
f62c
f315
08e2
f5b8
01b0
fb40
f020
01a3
053b
0ea0
0da5
f48c
efe0
fb3e
003c
fb8d
0c63
f390
f6f9
f562
09f3
041c
0209
0114
f40b
0990
fdc5
0441
0b9e
0145
001f
f1bc
f971
0675
f817
0e1c
f5b5
fd01
f208
027d
f7f8
f57f
f22d
f6ce
f902
f977
01be
fdc2
0a3a
f730
f12a
0460
f9a1
f065
0bcb
ffbf
f9af
053f
0011
0342
0e1d
f110
feef
0867
efb6
ff5b
f457
053f
0e15
0041
f3ad
04b1
09cd
0b4f
f65c
f32d
03f7
fb1b
f189
fe84
0a66
07b9
07cb
ff3b
ffbc
0982
0ab3
f3a8
0a20
f716
f8c7
025c
0473
f342
08a9
0759
f949
0e6a
fb1a
08d6
f77e
f7fe
0c7a
04bd
fdc1
0f47
f5d7
eff5
f305
f487
f83a
f2c1
026c
ff52
f4a4
fff5
ffa8
f0cd
f5a2
fe30
f2e4
094d
fb92
0169
f040
f829
f872
07bd
f4f1
0cb0
04d1
f924
03a3
0008
f153
f0e5
047d
0918
f6c0
f1ea
0147
0211
fdb5
072e
f739
f1b1
f0fd
f476
fd43
f03c
079e
0046
fbf5
f6da
0056
ffaf
f792
f581
f292
0de3
f91d
093f
fa4f
09a8
f53c
0ef0
f47e
fa94
0b9b
0056
06fd
07be
fee4
0759
f560
f4e2
fae4
fd56
00d9
0283
0421
f51f
fb47
f05e
f2d3
f74e
f037
0eb2
0a24
f51c
f358
f35e
f10a
0c46
f6e6
00ee
f36c
0062
fcf4
0401
01b6
fdb1
ef90
030e
0418
01e6
0389
0c75
fd1d
03b0
01f3
0bd2
f7ac
f4e2
06f3
fd96
fbec
0035
fa0d
0963
08ac
f741
f424
f6ba
087d
0dec
0533
0961
0ae9
051d
021e
0363
08c8
0666
fd37
03b2
ffa1
f486
fdbd
0d57
ef9a
f4b5
0f3d
06be
fb42
f47f
07b8
0a63
0cd5
fdd1
03d1
f98a
f645
04a0
f673
0b8d
f17e
feb8
fea6
f4f0
f766
02c7
f83c
fe70
fd3c
005e
f870
0b50
0a27
f4c5
fef5
0c19
0bf0
f7c7
0f93
fe0e
fe3c
f4ab
06e6
0a15
f9b8
0af8
0257
0893
0c7a
f62c
fe3b
fd52
fb42
0c37
020d
0de6
f692
f019
0a6e
07b0
f26e
f913
0404
f6b8
f683
f036
f47a
f083
fb21
0260
f945
07bb
0b62
0118
fb55
0d0c
0d5a
ef70
efc0
f033
f948
f73e
00d4
0198
0379
0588
fd58
f108
057e
0317
f44e
f822
f44b
09a4
f6ff
f53a
ffca
f729
f14b
06bb
0f08
0fd8
0bc6
066f
0942
0e81
07e1
fd50
f40c
fc65
060d
0fa0
f4b0
f92b
f661
f7e3
f72b
0c5c
05e3
f51a
fcdd
08ca
07a9
f0dc
06ad
00dd
f595
0262
0dba
fc9f
f6ba
07c8
f129
fdec
fc1d
055d
0020
0a19
f76f
f8d5
ffe4
0d50
f7fe
f2e6
0b7e
01e8
0d58
0187
fe7c
0cca
0299
03b1
f3ca
0b4b
f4dc
fcb1
038d
f5d3
f053
05ca
f175
0b80
0828
f462
0782
fb4e
f9d4
06dd
0ba9
0152
0aad
fed1
0ce5
0229
f2cc
fc6d
056c
0bf2
0863
061e
f986
07d9
005d
ff0b
04ca
ef77
0849
0e15
0389
0d42
0d2b
094e
0bc2
0bd3
0481
f8a3
0dd2
0013
f00f
f58d
ffbe
f101
ffd8
fa00
f8e0
0463
0483
078d
035a
0dc4
f7d1
0bad
0468
0a50
0477
05a2
0de0
f976
0f14
0693
f0ca
f624
0afd
f76f
0b44
ffad
06ff
fcbb
0722
00a0
fb87
009f
f282
f13b
fa69
f116
f694
feb4
fb18
f6af
07f6
efea
feba
05bb
0899
f18c
f7f8
09bd
07cc
fbfe
f6a7
0bd2
fc29
ffdb
fa02
06f1
0e73
fc80
f13d
f0f3
faa0
fec6
fe8a
fb4d
f622
f970
02b8
fff9
0a77
fd83
fcd4
f8fb
08e5
069f
0315
f739
fa0b
0d0a
0df0
0ad3
0186
f15c
0691
f591
fec3
f734
0766
09a6
f29a
f10f
0131
fcc8
0885
f8ec
fd8e
0504
f40a
fc9a
04c1
f60f
03eb
0586
034c
0bc3
0370
ff47
0747
f9e7
0362
017e
fc54
fdb7
0502
f430
f673
0c69
f0bf
00f7
053a
fb16
fd0e
0c6a
05aa
fb39
0d76
f78e
fec5
0cdc
09b8
f6b6
f526
0d45
f94b
fa08
0425
0114
f161
0548
0c39
f25a
07dc
0e6f
0fd9
0cbf
f0e6
05b5
060a
06bd
0b82
f042
f037
f32b
f79b
00ed
049c
fbf7
f951
09cc
01dd
ff36
0be9
0f62
0053
ff87
0e90
f195
f7ad
fe85
fc99
f179
05a4
f255
fcc4
0d88
f398
07d4
f93d
0b66
ff99
f576
036d
fc00
fc39
feab
fa92
f910
0424
fe95
0c09
0a97
0d21
f255
fea0
08fc
08cf
ff5d
05db
0722
f9f4
f88e
f8df
f07f
fcca
f81b
f243
faa4
05e4
f7f3
0d2c
0930
0c3a
f32e
02c1
f2f9
f463
0df2
f84d
076d
f8ff
07a0
0ad0
fdc5
0d2e
f0c2
07cd
0290
0db8
0489
f730
03bb
fc33
f6b8
f266
f975
03f8
f3b1
f676
09b8
0998
f224
093b
f172
006e
fc0d
0280
0922
0dcc
fa19
f5b6
f48e
0b45
f3f0
fa1e
042f
f2c6
0f0c
fe9e
0a8d
f45c
07fc
fa44
fe61
0c1e
041c
00b2
f50a
02ed
f34f
0e18
09c4
0c6c
0832
f311
ffd1
fa51
f799
f98c
03f4
fab9
fcb3
02b7
0111
07ff
f7d4
02d7
f675
f803
02ac
0c6b
0e8e
0f9d
fa13
0a1e
f701
f60c
02c4
fdf1
019f
0c43
f446
038d
f758
f920
0461
f5c1
ff1c
fbe0
098f
0be3
06e6
04b4
057b
f653
fd16
fb9e
fee6
f117
0e1b
f475
05b2
f794
ff2b
f732
fb78
f2cd
0c5c
08ad
f2e2
f2ed
0c72
fb1e
0c38
0ea0
091e
f720
f731
0348
0d8e
08c2
0c0e
0103
fcb4
f576
0443
f2b0
f046
f213
0492
0dc1
001b
fea2
0856
f57c
f973
fa1f
015c
fe24
ff9e
f34f
03e1
0785
01bb
f4d5
0689
ffc0
0992
0baa
f42d
001d
fe81
f8c1
f560
0538
0cf0
f068
07ed
00cd
fb54
f840
f988
08e3
f5fe
f643
f4f0
0c87
0f1a
f22e
007a
03da
0978
fd49
08fc
fad8
f38c
fbcc
00e0
fbd4
08f9
fa1d
0379
f246
f189
0137
093d
f8c6
0f30
07ea
06c3
0363
f1a5
005b
f1b5
f612
0f62
f454
0960
0aef
0ed4
0c5a
fb7f
0f99
f8c0
f8b7
05d3
fe55
0f95
fff2
0551
0efc
f08f
f401
f045
f379
f68d
f8cf
00dd
032d
04e2
054b
0c56
f4cb
f6a3
f317
f00d
f703
fdc0
0bb0
0dad
018c
0131
0083
086b
f886
f3c1
08eb
fcc3
028b
0e82
f070
f017
f597
f314
f434
0fca
07c0
0ee0
ff11
00ca
f5e6
058a
0ec7
0adf
0f22
0766
fedf
0b7d
0b35
05dd
0338
fa65
fa27
f91e
0d04
f567
094d
f60b
006e
fadc
f522
f1e3
f07c
f8e0
0ab0
08bb
f77c
f2c5
0d63
faa5
f1e5
0afa
0d7d
05e2
f19c
0df1
f89a
ff72
f277
0c99
0fb2
0273
fee8
03ff
0424
f0c9
0b08
0e44
0183
f06a
f64a
0a29
0441
0851
016d
fe18
fee5
fc08
f879
f1cc
f639
f2cf
032b
f8e4
0ca3
0d5b
fc1e
f0cc
fdf0
0366
f64a
00c6
0305
ff0b
0077
f08a
019c
ff5d
f0eb
0db4
fd63
fbc2
fbff
f43a
0d51
f2b8
ff64
0580
03f6
f5db
091d
f8e2
0ccd
fe3a
065f
01c1
f7dc
0cfb
fce0
0b7c
f969
fc54
f94d
0460
0e7e
fd3b
ef1e
f2fc
0bc8
00f9
fae2
fe3f
0dcd
f329
056b
fc17
f948
0390
0c6d
0bef
058c
ffea
0374
f66b
fef3
f294
fd8a
04ab
0425
fa77
0caa
02ea
0513
088e
0c27
f0a6
f41f
f1f6
f202
07d3
fe5a
091c
f031
02d4
f2d8
fb24
0540
fdad
0dda
0f04
faa9
0cca
fd15
f77a
fa34
0519
f74e
0575
f22e
f2e3
0e07
fe75
043e
051f
fd51
f888
fc0f
fb95
fa55
0867
0477
fb7d
f0ed
f511
031a
0ecd
f8f3
fec1
08d8
0488
0e8b
0e48
06e1
f517
03d3
0663
f655
00c0
fefd
f546
021f
0b55
02a0
ff10
f6ba
f9d7
0575
f422
0deb
03e4
efff
f81b
0793
fcca
f93f
052a
fdfb
fa6e
ff99
f820
02a1
04ac
f92d
0fc0
0fdd
fbe0
0f38
0455
f7ec
f513
fe88
06cc
04d2
fa42
f189
fe96
fe7d
0aa3
f44c
f846
0267
0092
0566
f5db
f0b4
f8a2
0100
0c8d
fa9e
0ee7
f2d5
f73e
0652
03c7
f8af
f482
05c6
fb8d
f584
0111
0e00
fc3d
0f27
fa88
f22c
f8f6
f76a
0458
0652
faa5
f553
f1ca
0898
faaa
0467
fa77
fb57
06ac
ffde
067e
f2f5
0b3d
fb29
04aa
f012
f432
f2bd
fdc9
04b2
02b8
f2a7
08d5
f96c
0984
f31a
f763
f626
f03a
04a7
ff76
fe12
0583
f3be
0402
0ad5
f3f2
0c82
fd8d
0a7a
0eba
0b63
fca5
076b
ff32
f7f6
f744
0750
fe72
f7b1
f344
f06c
f9f9
0bd3
0bba
01a0
00d8
0a75
f884
ffd4
0321
0730
09df
f794
fcc2
0874
f255
0266
fca8
0b65
f0f3
0527
fba5
0a53
0c6f
fc6e
ffde
0a6b
069c
f974
f52b
00e7
fd3d
f55d
004e
fa51
09fc
f9ae
fc39
fab2
f22b
f0cd
0293
0178
0345
0909
f9c5
097e
f965
f815
ef7a
fc3d
fb69
f554
ff55
0678
0bab
f470
043f
07d8
f555
0b3d
f028
fac6
0eac
f912
011d
0bd5
ee9f
0872
f4ca
ff41
fba1
00df
02a4
f96e
f1e2
f70a
fc15
ef00
00eb
fa42
0f91
0919
f008
f999
f150
0be9
f6c1
fbf3
fc59
03cc
fee5
fd65
0bdd
f8f6
f453
fa8d
05c0
0094
f273
03dc
f193
0642
f78f
f922
0c50
f7bc
f0c9
0e3b
f96d
f733
076d
0557
f87f
f3ce
f171
f9ea
0ffb
00a7
040a
0952
f008
0ce9
f394
fe41
fca8
f246
086d
0a00
fcc4
02e3
f3b9
f805
0d39
f595
f1be
002d
0987
f5f1
fd0c
f201
0331
fd6b
0aad
07e0
0e43
fee0
08d6
000f
f239
f7bc
f911
f6f5
02f7
f36d
0f3e
f8c5
0dad
f760
f046
07d4
f517
f2aa
f0a6
0be8
0164
08c5
f2d4
f995
0fb6
fad8
f5d6
f7e4
02b7
f6a8
08a9
fa18
f7d7
001b
fbb4
0465
04a4
0836
fb34
00dc
ff8b
0703
005c
f846
f368
f79b
0450
064e
030d
f381
0646
f5c7
fb41
0a6b
fc3f
0a12
f9ab
0974
0bc5
0354
f46c
06be
f3cb
fe07
ff1b
f118
f4ff
f61f
09de
fcee
0188
f849
f9bd
0024
f63d
f1ee
f9c8
f7ab
035d
0eef
0d6d
0210
fb81
f3e6
f25b
0362
f8a3
f050
f9aa
09a2
f807
01c7
f830
f85a
0c96
02a7
02dd
f41a
f82a
f81d
05bd
faef
0f14
0177
0107
0cdd
0b63
0232
f257
ff20
07e5
f6d5
fa5c
05a1
0723
fc20
fcd9
fe0f
fb60
f38b
f160
043c
0f36
f8a8
008f
fbfd
f98c
0997
f274
015d
fd10
0e17
f7e7
05ff
f1ed
0e68
086b
037f
f585
f46b
f3b1
0d2c
f633
ff36
fa74
07b0
07f2
f5f2
0877
f2a7
0bee
05d6
0867
0632
f264
f510
f403
fe1d
f0c8
fec2
0357
028a
f4a6
0fa0
0137
07b5
00c7
05d8
09e1
fe6c
fa02
03c4
07a2
fe77
f662
011d
05e5
f771
f7a3
0708
fcba
f8d9
0ba3
0cc1
055c
f1b1
f479
fe62
fae2
0aaf
f90d
0f5a
fd48
f108
0f8b
0b7e
f32c
faf2
ff54
fd45
fd92
f6ad
fd3b
0518
f6ba
f071
0021
f1b8
00e1
0db5
f58d
fd1b
fbc2
f17e
fe3a
f8b5
0cb8
0241
0049
01ac
ff33
0e1f
0c54
f6fc
f21c
0abe
0388
f4c8
fe2e
f297
f254
f8f7
0ecc
efe9
0f5e
f079
0449
f324
08c6
0233
fa44
072b
f7cf
fae4
0baa
f623
0800
0653
f474
0f6d
f982
f41e
0f73
fb9e
f070
f372
fc22
0dc8
fd0c
f04f
f7f3
0872
f4a1
f3cc
f4f5
0e7c
fe51
f53c
f496
fb97
0828
0dfe
f751
f93f
072a
efd6
0a27
0e65
f9c6
06c5
0e80
0753
f34f
0271
01ba
0208
f4ac
08e3
093b
f577
0aee
f75d
fea0
0b79
f9ac
00eb
f307
0901
0e31
febe
039d
f296
0950
037c
fe2d
f802
034b
07a3
073c
fca4
f7b1
f13f
f1fb
0cf4
0297
0cec
fd13
0514
0ad7
0a25
0228
fbf9
0995
0165
f76b
0ba9
fdb4
0989
f0ec
09b8
03c9
f5e2
0293
fec8
f031
f124
09f2
ff84
f411
0b60
f0c0
fcfa
f80c
0c12
0464
f87c
0f8f
0d34
081f
0404
093c
f986
050f
03d8
f264
082d
0216
fcc7
f283
0d75
08e2
0bfa
0852
04b0
ff18
0ada
03ab
feaa
0fb3
f322
0d05
0690
0872
ffed
007c
08cd
0335
fc1a
fd49
f1f7
f92c
0e5d
0ddc
0f3e
0b94
f026
0559
f223
f95b
0327
049d
037d
fc74
f5dc
f4a0
f717
f7c1
facd
fe1a
0733
f424
f915
f8c4
04be
0bf0
0b9f
f874
002d
0d9d
f64b
fd39
f30d
0b26
008d
011e
0517
0c9c
f2b5
fe28
f300
0835
0733
045c
0ab1
f6f4
014c
f5f6
fc1c
f96d
0e76
f2e1
0da1
04bf
0c34
f8a3
07ed
0d0a
01ca
00b6
f00f
0379
094d
f1c7
0f45
0604
0fd2
f50b
f801
fca3
f19d
f012
0364
0e10
07cc
f4ba
02a5
045d
f3ef
00e9
0d07
0a73
fc87
0906
0e93
0a32
079d
077e
fa8e
f917
02d9
0808
fc29
f54b
0cf0
fb28
03b3
0f62
f7f8
04e3
0747
f633
0e61
f89c
fa2c
0861
06f0
f676
f9a2
0f83
f818
0b94
f8d5
0338
0958
0e37
03aa
03a8
0f8e
07b8
009a
0d12
fe6c
f8b0
f72d
fa17
0690
f6df
f69d
0bfc
ffc3
0e50
0200
fd52
087f
07ca
02d2
0d03
f9ab
f5fc
0b1e
075f
efdc
0e3e
fc16
fd4d
f63a
fe3e
0c4d
050b
0951
0f77
08c8
f7b7
fe7c
022a
fdbe
05a2
0c4a
05c3
0345
f042
059c
0379
0c31
0c7f
f21c
f775
f362
fb6b
f3ce
fab1
fcf4
0442
f942
f908
0612
0228
fed3
f151
0cd0
fb74
0ecb
f4c8
081c
f55c
f37e
0145
fb54
0bf0
fad4
f392
f3de
f0ff
fb6e
021b
f885
f751
faee
093e
f853
fb38
fee0
fb6c
fccd
f5b1
fc27
ff5c
f24a
f375
fdd6
0145
00be
f586
00d0
0105
f888
08d0
f60d
009e
0b3b
0cab
ef7f
f0fd
0a7b
fb6c
f5a6
0e6d
f590
f3e6
f700
fc52
04c3
01ca
0334
0329
00d6
06ab
0e41
fdf9
03b6
04db
0923
027c
fc34
fa6c
f3ea
fa6a
0476
f6ef
f4e6
f474
069c
fc9f
049c
075e
f554
f3bb
f4f4
0feb
f53a
0523
f30c
0e00
f2dd
f408
f0bd
faec
f496
fd6f
0640
0fe9
f792
0cfa
f216
0073
f356
081f
f22a
024c
f865
f7f1
0333
fa23
096f
f0d6
ffec
fdb4
fb6e
fba8
08a0
f70c
0616
0dd3
0e8c
081a
05f0
0a71
02fb
0b22
f61c
0c7b
0f4f
0073
0533
011e
f302
fa71
0234
fdba
f061
0c6c
f89d
fc62
fe2c
0b59
0624
0117
048a
0299
fa19
fb81
f012
0513
03e3
f77c
fd3a
046c
07c5
00f4
f977
f028
f878
093e
0d64
0dcc
f2b5
f6f0
f46b
f4dd
fe4a
021c
0566
f65e
0034
f068
0d5e
ffa1
00a0
f1b7
0a73
0400
09fb
f083
fc51
0541
f640
fb59
fc02
0047
f9e3
fa04
f58f
eff7
fe11
02b1
03a4
fa3c
0adb
089d
0f09
f557
0a1d
f839
f5d5
073e
f860
0f3c
0519
f7d2
f987
03e7
0742
08a0
073f
feee
f49d
0c64
0a20
03b3
fb7b
f55f
faf2
020f
099c
0eb6
f0fd
07d7
fff6
083b
089e
f996
00d7
f857
ff6f
030d
f8a4
0e69
06b1
0445
fa3d
09cd
f2aa
01f4
0e05
f3f8
0115
fd20
fa77
fa12
0234
fe23
0b10
0448
09e7
0649
0493
057c
01cc
fad6
0e58
08dd
0c51
fb5c
0abc
0ae6
faf5
0a70
fc80
f649
07b4
03d5
016b
078b
0c45
f7cc
093b
04fe
f01a
00c9
049f
ef64
fe81
0cc2
efa9
0ead
0daa
04f9
f95f
f1f6
07f1
0d93
0473
fdce
f3b9
f685
ff61
0f16
fcaf
fa67
f36c
0f95
0b9d
03f8
0991
f090
f637
027f
ff4a
f0f7
0c14
f3f9
05f8
0379
f762
08c2
f727
0880
f038
f3c7
fc2f
0465
ff50
f396
f758
ff8e
081c
00fa
fe00
0b46
0770
02ed
f861
fe95
f50d
f6c2
0329
f4b1
0672
fd59
f017
01a8
f4b8
0d08
ff1d
fbc7
fe0d
f044
0976
fd19
0aeb
09b9
ff40
febf
fb23
0550
08ab
f952
0aad
f7cb
f024
f20a
0edf
035f
f2eb
024c
0b46
f060
fa93
04ec
fff6
061f
f4f8
0bc0
f226
f3e4
0081
f053
feea
04b6
f351
f425
0149
f1f2
0e95
0174
0708
066f
0654
0d1a
0dfe
f513
09a7
f240
0dff
0697
0126
03b9
fde9
0eb0
f848
f732
014e
0b82
f116
f6f1
0229
f527
f192
07a7
0936
01b8
ff22
00b3
fc16
fbdf
0109
0fb8
f4a8
faae
0873
0cca
0418
070f
fa1b
0522
0172
037f
f3ff
09fe
f95e
fe75
f5f1
fc1b
092e
f9bf
0e7a
0b60
fb41
0cf6
f7d5
09e5
0d77
fc8e
f1c1
0d7d
0067
fd69
0b48
f4a9
fddc
038e
f6fe
0ebe
0b22
0342
0256
0452
f3a4
f81d
f206
0f34
f5d5
0833
00c8
fd09
f092
f6eb
f571
fe9c
f857
0f04
fe71
ffd1
0186
0fc7
025e
f27c
fa8a
043d
f709
0758
00a5
0d86
fcef
f3b5
fc99
06d4
fb60
08ca
f34c
06bc
0f93
004b
09f5
f77e
02f4
f291
fe1e
f92f
02d8
0a2d
04c7
0186
088f
f85f
08be
0d89
085b
0107
f516
09a5
fd50
f381
0552
fad4
0c2a
fe38
f909
f67e
efcc
f91e
f640
f0af
0886
0eb7
f971
034f
0ca9
f6a4
f42f
0931
f2d4
0214
fb57
f326
f681
f0b4
01b4
fa85
fc71
f6a7
f285
f4c9
f078
fe95
049d
fd9a
f465
f1da
f8fa
fe18
0a30
09c0
f7b3
f2c4
0920
0bd9
fe54
0c4f
fa7e
fadb
fcfd
066f
f43d
06ab
f147
f683
ffc8
098a
01f7
fd62
0b92
f690
050b
f187
f9c5
f872
fb3f
f98a
0064
0f23
f440
0533
0244
f7cb
f40a
07ce
0e90
0256
02bc
fce7
08a3
0804
ff41
0672
fd33
f299
0f8b
fc0a
0419
05c4
0707
f4e7
0c5d
f504
fce2
f9f2
0faa
0059
0b9b
07c2
0615
0c64
f1dc
0e26
0d2d
fde7
0d50
f1ff
f75b
0455
f60f
fc65
f1fe
0342
0dac
f9b5
f09b
0ba7
fe0d
0e88
fac2
f186
0d24
02f6
0b36
0488
0970
f50e
f240
04af
f112
f71c
f54d
f6ac
ffc6
0bde
f888
0b9b
097e
fec2
05e2
f7f3
06ae
0d7a
0500
04a6
f302
0a75
0081
f10a
0a51
0783
f6cc
f5aa
0bfe
fb72
065e
f1a6
f68a
f1a5
fcd9
fda6
0dfd
f8e5
0e07
0413
f28f
f447
05c3
0b94
0704
0ad0
0627
f4ab
0809
f39b
f3ba
06e2
f0d9
f859
f70a
f018
f26a
00de
f60d
ff59
f258
065e
f66e
0ad5
0a7f
f336
0194
fa3c
f37f
0d63
f84b
fc7c
f445
f2c7
fd42
fd74
0233
09cb
f666
fbe9
0106
fb02
ff06
fe35
00c6
0dd9
05a4
f3f7
f854
f553
0bcd
0a81
0a66
0b54
0da0
09ef
0252
f5cb
068b
febc
f7fe
0d64
f70e
ff72
f962
f18c
f1a7
f829
f789
f999
f1dc
0d3d
0cd7
0404
f65d
f490
fe34
f1ba
0cca
0a0a
03c3
f3f8
05d4
0bec
07dd
f49e
04e6
ff17
f1e8
f608
00b0
0b60
f54b
fcd7
f675
0fdd
f933
fd2a
07f7
fa1d
0c81
0199
f3ed
0deb
0ea3
f604
0fa8
fdc6
0abc
f85a
fdea
f631
f599
fa29
f307
07c2
f4dc
0d3a
f511
f97e
faa5
04b2
0af5
0051
f0ae
f342
00da
fbe7
074e
f183
07e4
050d
07b8
0ce3
f369
069c
fa01
0528
f169
0626
0f58
effe
0459
0a19
0212
f15c
fb28
0821
f996
f4b1
0062
faba
06dc
09ee
0141
fae9
018a
0372
f45d
f961
f384
f71b
fdb8
02c3
fb33
00ed
f593
f90b
0f2d
f7e4
f533
f04e
f1c1
0d75
f16a
f270
06a3
0598
f947
fa6d
f2aa
02a9
0b4e
f4f7
f4c8
0f50
04ec
f022
09d2
fb49
fdef
07d5
021f
0234
069a
051e
00f8
f7dd
f375
f748
09a6
07bd
01dc
ff59
0daa
08af
0d62
fa84
0f01
f672
f1da
f513
f8cc
024d
f818
f30b
f260
0a9f
f90f
ffef
005d
048b
f619
efd9
0677
051f
f706
fa90
0cba
f6bb
f58a
fb1a
f7f1
f37a
fc9f
f02b
03b5
fcff
fc58
0335
fe78
fa76
f0dc
ffee
feb7
f690
f613
0970
00b7
038c
0885
fd86
f70d
f413
f345
f033
f2ca
0404
f93f
f54e
0981
005c
0271
f29b
028e
035e
04aa
fba8
f6cb
f049
0c13
fa22
0a1e
f8af
0097
f224
0249
0d83
f01e
ed7a
ef54
0710
04ea
fed0
fe54
ee36
0887
0e4b
f622
fa53
f255
f11d
f5a7
08b3
0c7d
fe87
f271
0e2f
ff47
0f3b
0939
f656
068c
fdae
0d3c
011b
f445
02ce
f28c
f641
0d68
f8f5
029b
f061
f823
0952
07c5
0a26
0574
0747
0b9e
efde
fb3a
f51c
05f1
0f69
fa09
f6f8
f5f2
0eca
04fb
08c7
f019
f36e
f48a
f538
f3e7
0106
fe41
f1c6
0531
f225
0474
0f74
0ada
f0ff
f32a
024e
fa83
fb43
004c
0a82
0f9a
f2dc
09e0
0ced
0b54
f9e7
fc6d
f0f6
fc7a
0c63
067f
f02e
05af
09b5
0161
f145
fe03
f9d0
f17a
0852
f30f
fabd
079f
0531
0790
0641
f866
0423
f07e
0f96
ff86
f61e
f9ae
f69a
faf1
fbe2
053a
fc0f
0bbf
ffba
069e
fdbe
fdf5
0656
f00d
f9c9
0885
08f9
f843
0c59
0479
0594
013d
f83e
0b30
02ed
fe4c
0f31
0741
ff8d
f81c
fe4e
0c87
0cba
04c4
fd47
085a
f426
fd8f
f58d
0cc3
08b1
feaf
f1f4
0814
05f0
fa8f
f8b1
0d23
0f12
f34c
0e52
fe19
f664
08a8
fbca
07e4
05b3
fadd
f908
0a34
f893
0cea
08c6
03a6
eef4
fd17
09d5
f56d
f90d
07b6
fcdc
08d7
086a
001b
024f
f2f2
faa8
0184
f860
f66e
f0c8
fdc6
0622
f194
0e76
0993
f829
ef3d
0518
f59e
f487
f546
07ac
0d46
ee14
ef1e
0a5d
ede4
efac
02e8
f6e7
fc1c
f6ab
08f4
ff7f
f723
0378
f518
02c3
f88e
ef1f
fe9f
ee9c
0759
f0df
f2e2
0f1e
fdbe
0ac3
ef16
f374
f53c
0270
f043
0c5b
faac
f819
f06f
f6a9
eed8
036a
f55d
0d8d
f4c6
fdee
f064
f1eb
feb5
0a7b
0340
0244
083e
f95a
fd2d
0005
03bc
01b6
f3b9
fa54
faf9
f8d9
f4d6
0143
f98d
f3a5
f4de
efb2
fa79
0f99
f332
f6fc
eee8
faf6
0309
f9e9
07aa
0884
f455
f64e
04cc
f012
ee4b
f594
feba
f4d8
0b40
f628
02a8
f9a0
efe7
f05e
0227
fc99
021f
ee13
0d82
f32c
fe3a
02c3
fe18
fc56
ff0b
06e1
0e72
f487
f478
0d36
f8db
08ca
f012
fc02
f950
0c6f
f79b
fa5f
f61c
f86b
078c
02eb
f480
f387
fee8
0623
f2ea
fd16
0708
0c6a
022d
f950
f18f
fabb
ef7f
f48b
0bab
07e1
ff6a
03ac
01a8
0410
f0c0
fb26
f4ce
ffe1
069a
0baa
f2d3
f0a6
0c8c
f080
f70a
f3ef
fc08
030a
f4eb
ff2f
02d2
fb44
f0cb
fc30
f9fb
006c
0739
0827
f4cd
0bd5
050e
066d
0132
0ad1
fa5e
07ef
04d2
0d7e
ffba
fa48
0135
f6d2
0de6
f780
fb14
0924
0f7a
079f
f9bf
f9ec
f1dc
0e59
03e5
05ce
0f73
f082
0b5f
01d1
01ee
f201
0d1e
fcde
0098
f919
01d4
0813
f9d4
ff8d
0b86
0282
02c2
fcde
0cfb
f1e6
f4f6
f430
0ed7
f778
f84b
0a80
f38e
03f8
f9ed
02b0
f1bb
fa17
0f06
0710
08ed
0e53
f05a
f243
fbfd
fb78
0bb8
fec1
0a19
051f
0e99
f84f
fd53
fc97
f018
0198
f2dc
02bc
f984
f209
04e3
0b2a
ff4d
f6a8
f118
fd0a
efd8
0219
ffa5
fe77
f89f
f187
ff9b
f47d
0630
087b
f3f6
0272
051c
fe28
f0d8
045f
fc9d
0c77
f798
018e
f330
f661
f2f1
fb6f
0421
099e
0acf
f79b
05af
ff15
fa2d
0005
0a92
ee0a
f871
f432
fd77
fbc7
fdce
06cf
f2df
0338
06b4
fce8
0074
031e
f6d8
0606
fb0c
0444
fbd9
f2bd
f31c
fa65
060e
f030
efb9
fa2e
f699
06d6
04dc
f393
f82f
ff1c
0677
09a3
f9b3
feae
013f
09e7
ffda
fd6e
0bfe
0dae
0b2e
f763
0458
0057
f1a3
ff8d
0cce
0ac4
f6d4
f9de
0a18
fbf2
f6da
f7e5
f7d5
0746
f520
0d96
f154
f4a1
0105
f772
f3ba
f992
0f82
fa7a
ee8e
f49c
fcf9
ef78
f7eb
f437
f83a
fad2
f905
f86c
fc02
0bdb
f9a8
002a
0330
0602
fa40
0002
0af4
083d
fdc1
f8ea
0d62
033d
f264
043b
0b56
0994
01ba
fe5a
ff91
f333
f09c
f3d3
f81d
0a42
f317
f9be
0791
fd5a
0acc
f096
fc5a
f42b
0dad
fe40
04c1
0ded
0539
066f
f02c
ff6d
0cff
f592
ef54
0800
f0f0
f7ef
01fa
0bec
04b8
0f28
0313
f317
f351
f973
05d2
fa01
f38f
f1f0
0068
0342
0b36
093e
0261
fdb1
f51a
fd7d
08b6
f911
f2d2
00b2
023a
0c1f
0c36
0460
f2ca
fd14
09aa
fedd
f843
0ed1
0813
fc43
f7ae
0206
f0cb
f0f0
f5e6
078a
0218
f4a4
0b2c
0c2d
00b4
f4f9
0c39
03db
0d26
f9d7
0f0c
0d9c
0145
f6b2
f1b3
f7bb
045b
f48c
f670
ffed
f911
f635
f501
0c13
0457
f214
06fe
f4a1
0e2b
01e1
fef3
0429
02be
0d1f
f3a2
f67f
ff10
f8a5
fa18
fbf2
0698
fdaa
0106
fed2
0fd8
06f2
001a
fdf7
f23a
0516
f062
f12a
0d9a
fd56
fee5
f856
06ba
fbfa
000b
008b
febb
f84e
04b2
00c8
06e6
0a20
fd37
05de
0570
055f
014d
fb4d
01c8
f3e0
fe55
0405
ef93
f68d
06a6
fd7c
07cc
f04f
f1fe
ff7c
f3ff
f624
f1df
f343
f91d
04e8
0242
f5b4
f56d
0583
f664
080f
0a5a
0970
f218
fb5e
f8c6
0928
0478
01d1
0d2a
f9aa
f88b
f2e8
fa59
010a
06b2
faa2
09e6
0af6
0dc7
0f56
09bc
0e2e
fc13
f912
fca8
0a10
02a0
0e5f
fccd
f72a
f33c
f8e9
fabb
f539
0905
0d75
0148
f895
0e11
0671
f9a8
fac8
046e
0843
f2e5
f7e5
f979
ef0e
eeb8
f05f
07c0
0a80
09c1
f8e1
f77f
0d97
f2e5
f611
f198
f975
0413
0098
f1d1
f256
0c8f
0ca2
0e9f
06a6
fdfa
0d31
043d
ff74
fb3a
0073
f393
0c96
f428
fd2d
fad8
f6f3
f64d
0882
0bdc
fe33
0af5
05f0
0c77
01f3
f954
ef3a
0055
0322
f73e
0650
f2f0
f172
08a3
fbd3
f739
fdf2
ef64
084f
f132
0cd1
fef8
f0a9
0335
eedb
fbea
f9b8
f826
fbc3
f204
0aab
ed9b
fe53
fca0
ffe8
09af
0b13
0e95
08f4
fa7a
f1fe
06ae
0ae1
f49b
03b6
0c16
f494
03ab
01a5
0d5b
0d8b
fd5a
0bcc
01d1
f67c
ffd5
07e7
ff00
fc7a
fc0f
060a
0340
084f
fb53
f74b
07fd
f8ad
01e1
fc2f
0615
f438
f69b
ffd4
ff60
fac0
09e6
096b
0556
f08f
fd4c
f609
02e4
f057
04b8
0af3
fa25
03e5
0f59
06a1
ffbb
0ad1
0b70
f96f
0e77
0ff1
09b3
f34a
fba7
0dd6
f551
f475
05f1
0efa
fecc
02df
fcc5
0e5b
0c6b
f861
fed5
f19d
f849
f92e
0103
0245
0405
f084
0537
04f9
fe77
0eb0
035f
f144
f410
f683
f0eb
fdf8
fd16
0a12
069b
f03a
fdd3
ff6b
0765
fa1c
0815
faee
f5a9
0a0c
feb6
f433
067a
0636
f7e1
0d69
f0d1
0426
f763
0c4f
032b
0b97
f207
0b72
fb22
0e4a
f87b
f3e9
f383
0f35
0109
0322
f850
f3dd
f92b
0d90
ff18
0ebf
f4c2
fd2b
f078
fa3b
fc49
0952
fd57
f653
f073
f960
f41f
0a0e
f898
0943
f8fb
0116
f8db
f3e0
0868
01b9
f601
f862
f12a
f0f4
f235
f746
07d0
0446
f964
0670
f1ee
03f0
f1f9
0724
0dfe
026a
ff1b
fb2d
f9f1
06d5
00ab
0c69
0124
0ae8
f981
0ea9
ff64
f8e6
f0a9
0517
0f8e
024d
013d
f07c
03f5
04ea
0964
0d4d
fd92
f70b
09e7
009d
0e29
04a9
f435
f92e
099d
0440
fc0a
f651
0c3d
021e
fd5c
0c7e
f479
06b5
f852
f2fb
099c
f096
004e
00a9
f40c
f553
f180
06c9
f67f
0edf
fc58
f491
fecc
0599
08d6
0c94
f085
046f
fd4c
0368
f3b1
fd4f
fd38
f210
0bcd
06f1
070d
03b6
fd76
0cf6
f9e7
f454
f5a0
0d0f
0738
fd8b
f153
028b
05fc
f516
07ec
031a
0193
fb82
0283
f801
f1df
078e
0f17
f2d4
efff
0e2e
0432
0d32
f3e5
effc
01ee
f6e7
0b64
f3f7
0704
07a3
f9b7
f379
0968
f2ba
f537
0440
0e2f
f927
fdd4
e1b1
f008
f42f
f2df
0ed8
ed5d
ee82
daf2
f13e
f3aa
fd10
ee17
f240
e691
08cd
f395
0eaa
fff3
ff8c
f6bd
ec1d
fa08
03b5
08b5
f7ea
eb14
eb9a
06a1
efbe
f28e
0716
f0d9
00cd
f898
f86b
0693
031c
ff24
0793
0bb3
f014
0025
026a
f506
efcf
01ff
f42c
ff08
0ae9
f8cf
f994
0873
0b79
0761
fe44
06bc
026b
fb9f
01bc
097c
f2b4
05b5
f72b
0b18
0f42
f8f1
03e2
f57b
0a4d
07fe
0dba
0285
fc4c
f44a
042e
00ce
03a1
feb9
08a2
ff5d
025b
fd45
0de4
f3c4
024c
0cb2
f235
0a80
05ab
f919
0067
0329
fdbf
fd85
0b57
00d2
0f05
0542
f764
f900
f102
f148
038a
0878
0af4
0576
f2f0
04c8
f0cc
0173
f754
06c3
01bc
f21e
f487
f8fb
fc27
0bf6
084e
0b5f
ff17
f7cb
0e9f
f87c
f755
f664
fc77
0174
fe13
0196
0d66
06f6
f89e
0685
f17b
0431
f0ba
0ef4
07b7
0525
0739
08c0
0b7d
f399
f400
f80e
ff7f
070c
f21c
0bd8
0957
f0d8
ff81
fa59
f712
f02c
fb40
ee81
043f
f6ea
08da
01ff
0d90
0003
0c76
0583
ffca
f2d4
ed2b
f21d
01d9
04b8
086e
f38b
ff19
fe47
f90d
f410
f078
0a9b
fb10
015d
0798
0ac0
f368
f14d
f162
feaa
0b64
fa1d
ef8f
fcbf
f940
0401
0a73
0a99
fe33
0746
0bf0
0185
eed0
fc86
08b8
eed4
03f3
018e
f301
f60d
f075
0172
0185
f21c
eff9
f02f
f886
0593
0699
07cd
0129
ffd9
fe0b
0a29
03b5
e754
edf6
0193
082c
f208
fbbc
f2c6
05a0
0546
fadc
fa23
ee05
f243
ee23
f68b
f371
04ce
f050
0388
fd88
ffd4
f6b2
f545
ea7b
f659
fe12
f851
edf8
0979
0322
eff1
0866
f408
0775
0a3a
ec8f
f734
f37e
fc4e
01e6
0229
f6ec
0150
f2a7
eb28
f73c
f62e
07c6
edcb
0127
ff71
f45b
f9c9
f077
04fc
0468
fac8
f89d
049e
ed2d
fd93
fd26
0496
04a1
f8c1
0c83
f8cf
09ac
fffe
00fc
f8d6
0021
f966
fd5c
f86d
f2cc
f427
ee20
049e
08aa
f132
f06e
fac4
fc1b
03a5
edca
fafc
f6fb
09e8
0d17
0107
f699
03bb
028d
f698
f1b5
efd0
fadb
f186
fbf6
f457
f063
f2bc
fdd7
fbdc
fc7e
057e
0424
f63b
0d5d
f9da
ff44
fb3f
ef65
04ba
0843
0c40
04c4
02b4
f78a
ffd7
0333
fe00
ee1c
01fc
0e33
ff6a
07ea
f9af
fe6a
0bcd
0625
f5c9
06a8
f2b3
05a0
ffe4
fc26
f926
05f5
0a55
ff56
0bae
fd1d
0b41
f7d1
0c37
0b31
fbdf
06ba
050f
06f6
01cd
f13f
076a
0369
09c9
0b9b
0b02
fa2b
026e
ef4a
0b47
f39c
ff2e
efec
0b0e
0673
0b36
0474
f626
0ccd
f930
0136
f701
ee89
0071
f270
0074
f8b3
f40d
f5df
ef1f
f352
fa77
0610
00e5
f778
08d5
f95c
0757
f591
fda0
fb92
fb38
05dc
0c43
f3e7
07a0
0eb6
0224
040d
f3c0
070d
fd6c
0210
f7e8
0f58
0859
f369
f90d
049e
f8d0
fba7
0d4c
0093
0a70
f275
f703
ff55
0231
08c0
0e3b
0721
fbfe
fd5f
f23c
f8d4
faa4
f27e
0bb2
0076
f386
0402
f181
0d73
051c
0bba
f567
fe07
f5d3
0205
0845
f4a2
07ee
024a
faff
f6ad
f2d2
efef
07bd
fc82
fbee
0c2c
0304
f191
f8ae
0123
f408
f042
eee6
051a
076b
f180
f93d
fb7b
ffdb
f707
fbf9
08a5
f7cc
054b
0633
0039
06f6
0791
f8a5
0cd6
ef73
fbf3
fc6f
fe9a
fa39
f1c5
f933
02d0
f315
0439
0708
fb0d
0ad0
0735
f8cf
f5f1
f7f6
0c65
f585
f06d
0cd4
05d3
fee6
f14d
0536
005a
f84a
f2b6
fd3c
0718
f29f
f572
fc99
fb6b
ec7d
f7f8
0310
fdb4
ee04
eec3
f8bc
f5d0
feb3
f9c5
0262
f559
e4d5
f9a5
f855
0742
fe7b
0145
01e4
0b25
0880
efcf
fe84
fddb
e0c0
fbfb
f99e
f080
fcd6
efed
06d8
f624
0878
fd10
fa1e
0704
f461
f986
0e41
fbac
0983
02ef
f5e3
fec5
01d5
facb
0533
f588
f335
0129
f33e
f569
fe7e
0316
f2b8
f718
0b0e
0b12
08a0
0026
fcae
082b
fa4e
05fa
fa81
f0f3
eb7b
fd38
f2cb
f78e
02ea
f08c
0d61
ef51
0139
f4b5
fff9
04c6
0c1c
ef73
fde0
0a92
f365
033d
0521
0d3b
f1d3
039d
f451
ffb4
030d
fce8
0753
0332
f07c
fc08
f3fc
0052
fdc2
067d
f70f
fdb9
f79f
f460
f6ad
f4c5
f87c
f4b3
fa34
fa5a
0298
fcca
f150
0f6a
ff74
052f
f027
0142
f2a8
fe69
0328
0e41
f618
0bf3
fcf1
05f5
fe25
02d2
ef3f
0621
f5fe
f54e
02a0
0200
001d
0db6
0882
0c5e
f27c
f61a
f89d
0ed7
03cb
ffa9
f914
0d1a
09cb
0712
fb53
f85e
fbbb
f920
efb1
0c76
f11a
f43e
070a
081c
fe0b
fe9a
f640
f666
0e11
faa9
0a56
fe14
f099
0385
f272
f024
0643
07f8
05e3
f43e
f464
0a71
02d0
034a
00ba
fd21
e7f3
eb83
db9b
ebae
f8d6
02bc
03c2
0e66
07f7
ec43
f5f2
0e44
f72b
07f2
0bff
f6f7
fa7a
f474
e156
0fa0
0b11
ec27
e985
e3d7
fa58
f2e6
e97d
f52d
ecd4
eaf7
fef2
fd62
f1e0
023e
074e
fd82
f304
f808
f663
f356
09d8
fc9d
f844
fe6e
f0b4
f098
0889
f5a8
ff31
0811
01d9
f199
025e
f179
f9d6
f12b
ff9d
0e0a
04e5
f677
0699
008d
075b
0489
f231
061d
09d5
f097
f5f8
fba0
f108
f956
0554
0b20
fd49
0b14
fc8a
0079
f4c5
f3fa
02ba
efe7
f7b0
05fe
fc5f
0c4a
ef40
0b2c
0078
f317
08b0
f227
f906
ed0c
f2e7
ee79
0b2e
014d
fccd
f62e
f0fd
fe79
0709
0710
fb8c
03a6
0cf0
f582
f170
ee68
ff19
fc30
fa39
030d
0a3a
021f
004d
01a2
efcf
fd7c
ff29
098e
05fd
faf6
fa06
073b
f352
0af8
f81a
ef9a
fe84
ef79
0b8f
fd91
0763
076b
f959
ff7d
f244
f405
f52e
098a
0ea1
f11d
f6df
eaaa
003b
f91b
effc
0cef
fd04
f1c4
f308
0b0d
0158
f5e8
fcbb
021f
050d
eefe
01ea
fa4a
f152
f7f6
0a20
0bdd
fdd2
f675
f204
02f9
0342
f4c8
05f2
0aca
09dc
fe4b
f32f
fb69
07ef
f3fa
0cf6
f396
eff9
ef9a
02b2
f253
0327
fab0
0071
0944
048e
05af
ef46
0be1
05d6
f884
ef4a
02a7
0742
f403
f305
f4c7
0083
f5e6
f43c
f134
f53e
fab3
f780
0813
0da3
f3bf
ef3d
0712
03a9
f4e2
02f3
0d82
03be
f44d
efff
fe50
fa90
ff40
0195
06da
f438
f107
0763
0e4d
054c
f6c0
08d6
f963
006e
f90b
0cf4
f9ec
010a
07b0
0cc1
fbf8
fd7a
058a
005c
08af
f5a0
0201
0c7f
f5df
08fa
f84d
0417
08a2
0b21
0b59
01b3
f0a5
ffc3
f686
f6e6
f3bc
0742
fc0a
03bc
0236
f9db
fa27
fa21
f3d6
fa39
f50f
fd56
fa19
05ea
0eaa
f300
0696
facc
0884
f8ff
fca1
0001
0030
fb7a
fb81
f3b0
05f6
efbd
f937
f87f
0179
0c3f
ff45
fb7c
0003
00ab
fde8
efbb
0450
f93e
fece
0203
094b
ee42
eae5
f3d7
f775
f52a
fdf3
0065
eaac
f79b
f129
e6fe
fc23
f395
03cd
f7a4
f6d2
f76c
0750
0289
f3eb
ff1b
08d7
f305
0127
0bb7
f995
f3a3
f305
f77c
0606
089e
00eb
eed1
f406
f1ed
f127
f8ae
0ac5
05ab
f1be
080e
f931
0036
f75f
f2a6
efc3
fbf2
ffc5
fb2a
046d
0743
0ecc
0a65
f71f
f6db
ff00
0772
f6d8
01b4
f218
efc2
ec14
f6f8
057b
f9d2
f5b9
0e3b
031d
f157
09f1
0cee
f19c
fba4
f038
04ac
fd69
0caa
0e13
0944
08fc
f824
f9ae
f316
017c
fcfe
f129
0691
0b05
0506
fa35
f076
01fa
ee3b
0cc1
03e9
0274
f94f
fbbe
ff5e
045a
060e
f97e
0095
0c67
ef9b
f5f7
01cd
04e6
f795
0637
ff3a
febd
efe2
0065
f016
fe05
f26d
0dfc
fc65
ffe5
0cf3
f41b
04bd
0fb9
f75e
f6d0
01fb
042e
fc02
05bc
ff92
05a8
f7f6
e923
ef65
ec1a
f85b
fc52
fa59
0393
f7ec
0008
ff27
fc93
fc2b
eef9
d6c0
e17f
efa2
02b0
ea89
eee3
f80b
fe7d
0acb
ff70
f591
01b4
ecf4
f88e
0be1
0c61
0902
01c5
ff7d
0e99
02d2
0bb6
0e40
060e
fb55
08e9
094c
f8f9
f136
03ef
ef6f
0de9
0b23
f7be
04ff
f5e3
0c0b
ff1c
fa5b
0fde
0a27
f944
f99d
0490
f372
0a1a
00f2
05c8
0d43
f708
0e04
0d58
049a
071a
08e6
f4d0
04d2
f40e
04da
f006
0a68
0d11
f901
09a7
fa47
fef5
f02f
ff7b
0176
005a
fb49
071f
03d6
06c2
0da9
06b3
ef40
0369
0bbb
f23c
fac4
f7e8
073f
fa23
f434
0fb4
0a40
00b1
ff14
fdd8
0876
0e28
000c
0ef7
f840
fb52
fd6e
02ee
0613
f974
f116
f1de
f122
f855
0483
03ae
f3c4
f8da
f357
f56e
0703
fbc7
0746
0b96
f043
0ec0
fb49
0d15
fb0a
f9d3
fd83
fb4a
0641
0ba0
0d74
f9c5
0b7a
f723
f995
0d9e
f1ce
f070
fd4d
f4a3
03f1
f333
0e76
048b
f0e2
ff58
fcd2
f0d2
06b3
098b
0267
0861
07b4
f539
ef5d
f63a
0e69
089d
f2a9
0943
0ae2
00a8
f52d
06c5
0c8d
f042
045a
0a2d
f936
f928
0a51
f473
fc4a
fcbc
f4c2
f47d
0cc6
f2b3
ef88
f967
fa08
0b32
08dc
0037
f2f0
0562
06d4
0404
f243
f3f1
04a7
ff24
fa29
f5ae
f309
fb17
02b1
002b
f730
fd30
f66e
09c0
01cb
f4bd
e3ad
eb6a
fc7a
0d8a
0475
f5a4
fc4b
e000
ebee
f97f
f80f
f311
e714
e48c
fdfc
fafd
0a70
ffcb
00b4
ecd3
fdf3
0572
05a4
fa4f
f4ee
0623
ed75
f254
f38c
f53c
fc84
04dc
f093
0113
f23e
ffdc
0276
02b5
f010
03ed
f8bd
fecb
fca6
ebbe
03fc
f962
fbbb
ecb5
0945
0153
f134
0952
0579
f55a
0053
001e
f280
06c1
0eec
ef1d
f8e4
0a5c
f200
f6fd
0752
fe72
0659
fb1d
f795
efe8
0b90
f781
f9de
f38a
f77f
f35a
0709
020d
f3ff
f68e
f46a
0229
0a96
f8e2
07a9
f937
0b12
fcb7
f22f
019c
f828
f4eb
f89f
084b
f038
094e
0334
f734
f4d5
00dd
0c2a
0dce
0d4d
0592
0ab3
0914
02e5
0b48
f2fa
f2aa
0b78
0002
050a
0731
f94d
f1b3
0847
fc12
0825
f565
fa52
f5e6
f829
fb5f
fdf9
f35d
07d4
f584
ff74
ffc7
f923
0339
f6f4
033f
093e
0996
0350
f7e7
f876
065a
f243
f0a4
0254
f708
fe0c
019b
f0a7
f069
06e0
0245
f574
0c19
f147
015a
0922
fe2f
f356
0df5
f19a
08ea
0b76
07e4
f37f
0042
f944
0bc6
ef0a
0447
f28c
ff64
05ae
fd7e
012b
fe8e
fc9e
02fd
058b
f936
f663
faa8
008a
fa85
0af0
0b18
f316
09d2
0477
04cf
0143
f7d5
fab4
0b39
f013
f570
007d
0b20
f2ea
f7e2
f996
0b6a
088e
0a3c
046e
0088
0f26
076a
f478
f050
04c1
0838
f655
0799
f75b
0004
0ada
fd13
f7ba
0bd8
0f18
0d66
f842
f2e4
fde9
fc5e
f9d6
f4dc
fe8f
f8c0
fe7e
0cbd
ffeb
f6b0
07ed
05da
f392
0ad9
0d0b
0a81
f678
f668
fd5b
0bb3
f3ad
ffbf
0220
fa33
0db3
f73a
fddb
fbec
fe4d
078d
fd94
020d
ff13
00a7
f8e7
ff49
0570
0028
031b
04ee
f3c7
01b9
efbc
0795
ef4e
fa84
f3f7
eedd
f599
fdbf
f59a
0a62
f826
feff
fa2e
0c15
f4e6
f8b2
08a4
ffad
f012
03d5
fd77
032d
0c64
0896
0e26
0717
06c4
0edf
05f4
07d5
faaa
f3f7
010c
f67b
08b9
0a1d
ff09
0b86
f9f6
ff84
fff0
fbea
fbb4
ff1d
00a8
eeea
fc30
f5c1
0cf2
f97d
f474
f061
04f7
f89d
0107
fe47
0304
03a1
ed45
f5a1
e61e
ea7c
eb39
f5f7
f43e
eb7c
f2d6
e7ab
e60a
07e2
f518
ec09
0011
fc7f
fcdc
ffa6
05cd
f061
f32a
086a
fbf8
ff7d
fa9a
f0bf
f7e7
f405
02ee
0060
0e26
017c
01fc
f89d
f86f
ff9f
fe2f
06d6
0aed
f96c
ff8e
0bc0
f3ec
05b0
f772
fcec
0be4
f4cb
ee6f
fd1f
0cea
ff1d
0c27
0acf
f9ea
071b
0993
f6ef
0642
f1ab
0559
fd66
0606
f38c
0d1b
f50b
f1a2
0dc0
fd98
05ed
f49c
0296
0493
f9ef
0b07
0b98
fc8c
edb7
0a24
0c1f
fb72
f0df
fbb4
0ae6
0736
f6dc
f996
f212
f1c2
0c73
f588
fd39
fed8
ef66
0766
f3c9
0a99
0a10
0bd6
f37b
f61b
059f
ee42
fb04
09e9
f694
fe12
f469
0dd1
f6f5
040f
0ee1
fa76
0552
0c22
f406
062a
04af
06e9
f99a
07a7
fd97
efdd
f4a7
01b6
07b2
09e7
0ecb
f890
f165
fe88
f0db
f472
f8fb
f203
f25c
08dc
045a
0739
f968
05fd
0774
f3c3
efde
fab1
f391
efa8
fa6f
f53c
07c5
fe0b
f56c
0ac3
f963
f7b4
070d
f0c2
faac
09e2
fe32
f3a8
f321
f6b7
0b86
0834
f0f7
011c
0159
fd59
0435
fc89
0a58
fc10
f63e
04d4
feab
f0b7
f479
f005
0f95
04f0
e489
e780
ef3f
ebd0
fdf1
fbf3
f322
025c
0031
fcbe
f18f
eec8
0f2a
fb27
0446
070a
eff7
fbe1
0c05
0eb1
177b
f677
fa97
e3ff
f248
e9ae
f8ef
fb6f
ef8e
fc8d
fe0a
f7c8
f682
03fb
0558
f124
0f5b
f678
f4f5
f4a9
05a9
f1ec
09c3
fd97
0c84
faf6
020f
0e49
0c85
fc91
eff7
01f4
f6d1
04dd
0d83
fb45
01b7
fa63
0a06
0875
f369
0ded
ff69
02a9
f339
f873
f40f
fbc1
f8ad
f4b1
fb66
0564
072e
ee45
015c
0667
088a
fbc4
fd1e
fd1d
f5fe
f94a
0ae4
ff2e
ef1b
ffb8
fe2f
f099
0b3d
fbeb
efc6
fd3a
f116
f77c
04fc
fca8
faf4
ef9c
f67c
ef55
070f
f41a
fbe4
03b1
ffc3
f6c1
0242
f44e
f31d
099d
f9d2
fb80
04c2
f886
fb36
fbb8
f17e
f6ea
ef56
0f01
0963
fd95
fc80
fc11
f987
0f45
f8a4
f4ce
f1af
f0f1
01ab
0117
0dca
fb52
ef92
f676
f26f
02f7
f341
05e9
04f7
04aa
0d33
f016
0aed
0536
0458
ffda
033c
f218
f445
f824
fcf9
f9df
0abf
f09f
060f
f7e1
ef53
efa4
f745
fcb2
ff7e
f4c5
f29c
f1df
ee54
0a08
08aa
f722
0b70
f193
f45a
fbb2
0d55
fa59
0b91
fbc1
fdfa
0730
f1e0
f14a
0deb
06f6
feb3
ff95
fd45
fadc
0a5d
0d0c
0f12
091a
034e
ef30
0d3c
fe28
f72b
fb66
072c
fef5
fcd7
0ad9
f3f7
0aa3
026a
06dc
f037
f54b
0454
0ad6
f8b3
0993
06f4
fa24
0bca
0647
0f90
f77f
09a6
0026
f03e
084f
fd3b
f695
0c43
f927
f3d4
f10f
fcd2
0749
0e7b
f0f1
05d3
0961
0686
fa77
0eca
fd42
0364
ff05
0ab3
0221
077f
05de
0dd2
0492
0327
0b84
faf2
01a1
fc13
fa9f
06bd
0289
ff98
f728
0b3d
0a7e
fa4a
f027
f044
0533
0463
0eed
f1f1
044f
0e7a
f6eb
f519
0111
f988
fc26
090a
fa06
f6bb
f498
0f8a
f598
0739
0550
fb33
005d
078a
0fa7
f4e4
0849
f82d
fa4a
0483
ecc6
e906
0180
f9f9
ebf6
e60d
e68b
f9f5
03af
f611
05e8
ec44
feff
f429
fd7a
07af
ee28
f073
0502
f0db
eeaa
fe9f
039e
eea4
ee65
fa59
f62e
0321
fa39
f96c
e44d
fa2d
fdcb
0dbf
f803
f9b0
08cc
095b
f3f8
0523
f9c8
eeee
f0a3
fe5f
05ad
f265
f193
f1ad
efaf
f2f5
03a8
0c8a
023c
fa66
ef8e
065d
fb5a
0161
01e1
fde9
0da6
f3f2
0bfc
0aa0
fc36
ef8c
0ad6
0999
00f7
f8ba
fde7
01e1
fa7e
0003
038d
ff0c
edc5
e9a3
fe37
ee00
f416
fc4e
0120
f408
feb4
ed3c
fd6a
f561
0237
f778
f909
08b7
f2d5
f7e3
0a69
fd4d
f320
f9de
ffea
0b8a
0bda
fa5c
f878
f3ff
0ad1
0026
fa61
fab3
f1da
0523
0713
f92f
ff9e
f798
fc71
0c5b
088a
fd84
ff9b
021b
efd3
0bac
0b0a
f1db
0769
f501
fb47
0307
f53f
f8b7
f909
fe83
febe
036d
ff7b
f13e
f957
0de5
ff1d
f402
0d17
f127
f21d
024d
0ec5
fa0d
fb1f
fe9e
0e25
ffba
f589
0a78
0971
fc9b
02e9
f685
f570
0891
0b30
fca4
060b
0df0
0cfb
0e2e
f4e3
ffc4
048c
0c02
f1ce
f270
fd1b
fdef
fce4
0faa
f97a
f07f
090b
0b5b
0b19
0f80
fde3
0ee1
f8eb
fbd9
f95f
f9b0
fd7a
0265
0d06
02a1
f9fa
0d5d
0aa9
0352
fd47
05c5
0920
0595
0c80
f1e0
019b
f61c
05c8
f78b
fc1d
04d7
ffa8
f2b0
0826
0db6
f2ab
f77e
f316
f8f0
f856
0c7a
0381
0b5c
facb
07f3
0a95
ffec
f144
fea3
f2c9
f9cc
023e
f3a4
f3b3
0096
0b2f
f91d
f7e0
ff57
06a7
f172
f7fd
03cf
fa8b
f717
f626
fe68
f0b6
0f5f
0346
0f3e
0e9f
069e
f931
f984
0b1e
0d53
f754
05cb
f39f
037c
f7be
fb8f
08ee
fb71
0d6f
f15d
f8c6
f6b0
093d
fea5
fe57
f4dd
f9c8
faa7
f378
08f3
01f3
f595
037d
f5a5
fd84
0da9
0fdd
09c6
04f1
02a6
0e9e
fb6c
fcea
f7d6
f1a3
099f
0198
0313
0bec
0e62
fde8
f483
fbb3
0d1d
0f34
fab5
0db9
f33c
0b5c
05c5
0f90
0c74
0734
f9fc
fd2d
fb46
02ff
0a98
f020
fcad
f68d
0efb
0543
0a0b
06d0
088c
061d
fc2b
0813
095e
0ce5
fe99
f01e
06c1
f90a
f234
fb92
018e
fcdd
f725
0299
0006
f52e
09f1
f7b3
0590
f0ca
f7c6
0a79
f9fe
fe30
f889
0e4d
00a6
0388
f5cb
0aa2
068e
ff96
f83c
fcc2
f11b
fe44
03db
fd44
0bcf
0e48
f5a5
0d22
f215
0754
0305
f148
f2e5
f7f0
0a4c
f842
f6c2
0b51
f68a
0d30
f8e1
ef78
0c90
f836
f138
0c13
fa35
f35d
f47c
0b78
fc21
ff2a
f6be
f669
eeca
f44f
f117
f77a
01f1
f26b
014f
091b
f318
075e
01aa
f7be
087a
f8ff
f6fd
021e
021e
01e8
f589
0d59
f2a8
ff52
0d87
09cc
0ed7
00d7
f741
080e
056b
f708
f523
012c
f1af
0a70
047c
f095
f656
0a8c
fef5
0535
fb89
085e
0ac0
0f75
01dd
ef62
0b29
0a3f
0c3f
f745
0623
004c
fb10
0529
0a33
0c9b
0345
0797
053b
f5d8
099a
02af
fdab
f4f4
f1fd
f4a5
0286
0d42
f1bc
0922
f7c7
08f3
07a8
0d77
fd87
0314
fe82
0834
f928
fbf7
08f5
f99d
f8e2
04ac
0c59
0510
fc41
f3f0
fd25
f475
0ee5
0da4
fbb8
ef88
fadd
0bf6
07d9
f873
0381
088e
f0ee
f23e
0aa3
0118
f1af
f95b
f601
01b2
fa29
084b
f5ce
f595
0b9a
068d
fc66
fa03
ef98
0489
0210
085b
f369
fc43
0483
fe10
f729
042d
ff23
0d1b
016d
fa13
fec7
0d9d
f815
f558
0244
0b46
0529
04bb
04e5
f728
0503
f9a3
065e
06a1
0a6a
0092
f69a
0812
03c0
fa26
f677
fa4b
f7de
ff14
fac5
03b4
0860
0158
f49a
068f
0ab8
f26a
faf1
063c
f20b
0a5f
ef78
f01f
0edf
fbc1
0991
fa6f
050b
0bb5
fa37
f190
f150
f04c
05ab
f156
039e
f571
0a94
00d8
f112
086e
fc79
fe24
0b67
fb9f
0d1a
016e
fcfa
fb49
0458
efcd
fbe2
f6c7
052a
047d
f454
fd4b
0ba2
ff15
fb10
f333
0e59
f6db
ff06
fd55
f37a
0ee6
0be1
08df
06c0
f974
014e
0f96
f480
f58f
01e4
0d2c
0635
0731
f3d8
f162
f692
0060
016d
0259
ef8c
fbe3
f88f
ff1c
f821
0b00
04a6
f92d
fe1c
0a35
fd84
07df
f474
f16d
09c9
01ad
fa1a
f136
f822
0aec
f890
f331
fb96
02d2
fcb7
0692
fceb
0473
038b
0488
f77c
02ea
f1f2
0624
fa62
fe1e
f3e8
0450
0d2e
ff72
fe96
0cab
fc1a
000f
0923
f53d
f015
fbd1
014c
fffa
0cfa
098c
f69c
009c
fea5
fa41
f0dd
072f
0005
f3af
f7a3
0601
ffea
0dba
0d43
0c19
07c9
efa2
f128
fc79
fb36
fe13
f873
056f
ffa8
f624
09a8
f6fe
050e
0aa7
0aec
007a
0f15
0115
ff05
f336
f640
0c98
fc8c
f892
fa71
f7b3
f998
06e5
fbae
05ff
08e6
022b
0770
f44e
f2e7
f619
029a
0dc8
face
fe7d
0367
f6a6
0e3e
f1bb
f143
0a3f
f7d6
0909
0414
0d0c
f278
0336
0431
f339
ff0d
f512
05df
f08d
0880
09a5
f674
0973
05f0
0176
020b
f3ca
0333
fe9c
06e7
f8f2
0817
fffe
0b51
fdf3
f774
0e2d
f17d
0b6e
0170
0179
efd9
fdae
fb65
fee2
fa06
f1f8
fbae
0c7b
0e2a
0bbf
01f6
f7d9
04e7
0c4d
0db1
0819
f253
f49c
f9ce
f3f6
0379
fc18
ee95
0393
0087
fabf
f31d
f979
f93b
f56f
0ac1
fcc0
0333
faa2
0f38
f847
0313
f0e4
f745
0a00
0ea0
feee
f3f3
0dfd
0007
f39a
009c
f696
fbae
008c
fe18
05fa
fa62
08b2
0cd4
032c
f8ba
0680
0bfd
f8fc
0a44
07b0
feb4
f3eb
f5f1
f3eb
f312
0395
fd85
0dad
f7b6
f0e0
f765
07a7
faa8
0ddf
f41e
0a4b
f71a
073d
f9fc
fbbf
f206
0b1b
f2a0
0750
f2aa
012e
f505
f733
0be1
0d3b
fd7c
014f
f559
f507
01a1
09e6
0c12
ef5a
f1b4
ff7f
f7e7
05f5
eff7
f814
f851
f27a
0a26
ec83
f3ce
f27f
0864
f1be
0b82
08ee
0ac4
fbef
edd0
0a44
07ff
f306
f48e
f3b1
02f8
f1a3
0165
fc89
0c25
fdbc
f4ea
f4a2
fe3e
0598
069f
0087
0f99
0de1
f8a0
fd0e
f557
09d1
f441
0cea
0938
0ed3
fa2d
f4d6
0dd7
f312
09de
f678
04fe
0e56
0b16
fc97
0522
0e87
ff1e
f9a9
f0a8
f4e2
f167
fd74
00a9
034a
0ce0
0b1a
fe80
f80f
fc35
05f8
0d13
f64a
00f9
fdc8
f237
01d1
0a42
f846
f00c
07a8
f434
f732
0e20
f373
0d47
018d
fad5
07fb
0645
f840
0b4e
f369
00a6
f694
fa75
fec1
087d
fa33
0b60
0a3b
f7be
0ef8
0402
f155
0d42
efc0
048f
0156
f4be
0610
f81e
00e3
07e4
0176
f698
0280
0a87
0513
f638
0d8c
fe8d
0e34
fa72
0821
0a5c
fb53
fa82
f041
0212
f357
f475
041b
089b
ffdf
0d86
f2ba
f613
0c61
0a00
fbbc
0e85
07e2
053a
f8d5
efcb
030f
f17f
ffc1
efd6
f0f4
0180
032b
0e30
fe48
046e
fd68
fa9b
012e
f768
01b7
fad3
0138
f26a
014f
f606
0148
080a
fe84
0903
0d90
f497
fdc8
fb9a
f26b
f744
f19b
06e4
fb40
efb2
0b72
04e3
fa3d
08b4
f208
0c36
0c33
097e
f393
fa16
fdb0
0b0b
073b
0bd7
0dfc
fafb
ff6a
f0c1
0a4c
f946
ffeb
fb5c
fdb1
f3a3
022b
0317
f272
0016
f58e
f8b2
f66b
00ee
fc77
fcbf
07b4
0148
00a4
0746
05da
f6b4
0f72
f97b
08fa
f5c0
0166
04ce
fa06
f31b
fc54
0ea7
0a3c
f1c2
f2c3
0295
fc83
03af
fcd1
0e78
f501
f26f
f230
f208
0c14
0e1a
08d7
f5f2
0add
0732
02ca
fe51
f5fb
0c11
f0fc
043c
0d82
060c
f5dd
00cf
0555
f978
0ad0
f549
0831
07ae
f5f5
f60d
0d78
09bc
05f6
0bb0
0f7f
075b
0125
fcbf
0946
0a27
fbc8
0eec
050d
fae9
0519
fae2
f81f
f520
ff1d
06ae
f2f5
f6b7
08ce
07e2
f9a5
0717
03a9
0835
fc11
055b
f2eb
f1f7
fdfc
0d81
0ab6
076c
fcdc
f7ad
f8aa
0825
010a
f3b6
01a4
05c0
0ed8
0767
08ae
08b0
0c87
045e
036c
04e8
faf7
f863
eee6
0571
089f
090d
f20f
0b1c
fc6c
f567
fa76
ffeb
090a
f8aa
f143
068e
01ad
f795
07d0
ff9a
0dbf
0411
f59e
f933
0b3c
0529
0996
f654
fa75
f2b6
f39a
007c
fc50
faab
089b
f3f8
fa24
0b9c
096a
08ae
0f21
f66e
fa57
f847
fa42
0cbe
02b6
ff37
01d2
fd28
f415
ff5c
06c0
01fb
ffe0
0c3b
006a
0b47
04c8
f8a4
0840
0c79
f0a4
f1a2
0d9d
0d2d
0a4d
f38f
f02c
063e
0e61
f7da
f08f
0d52
f76f
f7b7
f44a
01a3
027a
00df
0a50
f85c
f835
f3f6
0787
f2b3
0789
00d8
f2d3
f4bf
f482
02dc
f8eb
0e15
f145
f3b6
0679
f2c9
fba8
f751
046e
0330
f0f1
fc3d
0c52
0202
0739
f8bd
0dd1
fb7f
0dec
fe33
f870
0622
fc6a
f657
0f29
fff2
0a16
026c
fdb2
f6cb
0180
0010
0c2e
0726
f51d
f667
ef8a
0ec7
fe1a
f83f
fe21
f9e7
0dbf
0094
fa11
f767
f600
0867
fe8d
f5a1
f789
f848
02fd
0657
0a9b
061c
fe61
fc5c
ff74
0093
0d57
f44e
0fd7
099f
05d6
f44d
0581
f54c
fa46
f6d8
feee
f75f
fc8d
f1f8
f613
f4bd
fdf8
0971
0b19
0b8b
fa8e
fe64
02c8
0577
09db
f740
001c
f489
f8eb
fd6d
f951
f1c9
f586
086b
091c
02d9
f19b
0459
ffc3
0b91
0068
fb3f
0a62
00f2
fac8
f611
02aa
0708
0d0d
f607
effe
02c7
fd41
043f
f16b
fbd7
fbfd
033d
f7d8
0f5d
070d
f3ee
0295
0377
fd26
f689
fc63
0511
fcdb
fcf8
0424
01df
fe97
0ca3
0216
f894
fc9d
014b
0ef2
0b52
04c2
00af
06b4
f39b
f462
fe8c
fd4f
0da4
f884
0b0a
0f22
08ca
0069
0d91
f0e6
031d
fbad
0ffd
f56a
0136
0829
f424
f631
fde0
0cdd
f98f
0d20
f58f
fbfc
f21b
f900
06c6
f1c8
f8de
fa68
f94f
0bb2
f23b
fd5d
01e5
0ca6
070b
fc4d
f809
f137
0d1a
f027
f41f
fe1e
f401
fbdc
f526
fbf1
01bb
f00f
03ea
0e83
09c3
01e4
f10c
faab
fa1a
fc1b
0565
f048
0652
f0a9
0792
0c9f
fd10
067e
00f7
0456
f15c
fde3
02f7
f229
ff4e
f443
fd96
0433
0cae
0a0f
f589
fc8c
011f
fdaf
fc2d
f6d8
09d9
f0f8
058f
f4f9
f1d1
f935
f005
ffd8
f71e
efcc
01e7
f093
0da4
fef0
f54b
0a8e
0aac
06a4
0adb
f7e0
0bd0
ee6e
0978
fce0
0c3b
fa51
f597
0735
efd6
0342
f272
fa0e
0d27
fa64
07c2
ed77
0acf
05ee
f4e8
fc5a
f0fc
f3ff
0347
fcb4
f2f8
0e9d
0787
f424
0401
0246
fa42
0335
f63f
f3d7
ff95
0090
00de
f4e8
0854
f00f
f475
f1d4
fd08
fe39
fe27
0057
f1b5
0513
0c8c
f86a
0353
f483
0608
06a1
fd7f
06a4
0204
09d4
f1f9
0ef1
ff20
f881
f0ce
f4c1
0271
030b
0213
efc1
f90b
f9e0
0f67
0c4d
fea3
00d5
0971
fcd5
fc9f
f8b6
0d5a
0b98
0b46
0823
fa95
0e80
fe78
054c
0b13
fc7d
fe09
0e3b
f79a
09aa
f7ca
098c
f806
0592
045a
074c
f443
f394
f2a2
0568
f30e
fe80
0ee3
ef3e
0e5f
028b
01f7
0324
f71c
fba9
f53d
0e0e
009f
f28a
0c8a
fdbf
f8a6
07ae
f001
0a1d
0d93
f585
0c12
0064
f201
fec6
0883
03d0
ef6d
f909
fa83
08e2
05d6
05d0
0e2e
0c8e
0d17
f40f
f4c4
0321
0a6c
0386
0574
fffa
0ae7
0b0f
03bc
0617
0ae3
fd01
fb81
fc4c
f57f
f075
fa7a
f754
0b97
f30b
095b
0d3f
0f0c
fc4d
efb3
0e87
0f2d
0ad1
f741
fe1b
08d0
072f
f411
fd81
f4eb
069e
0afc
faf9
0b6c
fad3
0cab
fa9e
0aa6
0a1f
00ac
f1d7
fc8a
0376
0563
f087
0180
05d4
f2af
0b0b
ef81
05b3
0ee3
f5a0
04df
fa33
f016
f972
01e7
f30a
04a3
f4b8
f932
fdf8
07ca
f887
f69a
fe2b
0f4f
0c01
f5a9
0862
f6a1
0394
f33f
ff91
f632
feec
0bd3
f2bb
f04b
f364
fed3
0480
07ea
f8f1
fda7
fcce
f082
fb76
fe21
0617
f8d4
0e0d
f4e7
ffb7
fcee
f3c7
fd34
fbc5
f585
edb1
fe26
f60e
f46c
00b7
00a4
07e1
0bad
f492
0afe
fdcb
070f
fe57
f86e
f523
f152
f469
0bbf
ed12
f9a8
0a5a
f6fc
f358
f278
ef7f
057e
f667
fbb5
0c54
ecec
00ce
0633
fe29
f447
0227
0277
0dbb
f7fa
0df9
f6fb
002f
098c
fddf
013b
f14d
f754
f913
f9c9
0dd5
0df7
f344
f054
0639
0409
062f
0c99
0cb2
f971
fd54
006b
f066
f80d
fb47
fd5e
09b3
0be5
f623
ff41
fcdc
0207
0dc7
f50a
f0ea
017d
f7c9
00ad
03f1
01bc
fb3d
fcdd
075a
0b69
0c5a
0f05
f75e
fa1b
0597
f1bd
f5f2
088e
ffb8
f96a
032c
ff62
0fa6
013f
0f03
01ed
06c6
f6ea
072d
05a7
fb70
f32a
045b
0769
fdf5
05f5
fda9
f920
0b6e
0765
fa8e
fe90
f7a2
f5c0
fb95
f2bb
06ea
f412
f980
0b82
f980
ffe7
f3e2
0969
088f
0f64
0db1
f9b0
fbea
0b64
f2f0
f9f9
f391
f517
0d3f
0e82
ff9d
03ff
feb5
fd9c
0d30
f0ad
00ea
f20e
efa0
f487
0605
f5e6
05cb
0a24
0404
efc5
0534
063c
032f
feb1
f690
0604
f6ad
fd94
0577
ef3a
0234
004a
093d
f0eb
f536
05d5
06f3
03d3
efb1
00b3
0936
05b2
0653
f9ae
0266
0f8f
f67f
0922
f198
fd8e
0147
fd63
f5bb
0661
fa6b
088e
0283
0ddc
fa58
0ebf
fc1a
ffa5
f6a2
0e58
f085
06cc
026c
04c6
0051
0d64
f801
0a95
fc90
febe
09fe
02f7
f4f2
f3cf
0b25
0d9c
01af
fe1f
f395
048d
f95e
f750
f21e
0ae9
fe0d
fe7d
0364
f255
00cd
ff38
f233
f362
0fcd
f2b9
f468
f046
f9ad
f901
fc82
0e0c
03c5
04b1
065c
fa42
0ce6
0e70
023e
0bd8
091a
f882
ef3b
0232
012c
023a
f764
085a
eb3d
fc78
ef9f
05a8
f13e
0144
fae0
eb40
fa7f
f0fc
f9ac
f56f
08d8
04c8
fd8f
fb17
051a
f3ae
05c2
06c9
fb82
034e
fd2a
f72a
fded
071e
f34a
fefe
fbd1
f24a
f863
f326
0ac9
ff01
0e86
0627
0275
f463
f24f
ff4c
0d59
0030
0ca2
fa69
087d
f718
faa3
0998
0ead
ff28
09e6
02bc
00ce
f3bf
fa60
fec2
0e38
f8c5
fd2e
f5de
f8cc
f4f9
0a3f
062f
fc51
0d6c
0dd3
0396
0a72
ffde
f272
fa8b
0126
efe9
060b
faca
f677
fdde
06c0
f37c
060d
f8b3
f5ce
078f
fcde
ee53
fc63
f676
06ab
ef1e
0ac7
fa88
fa5d
0162
f20e
f008
f21d
fab0
fcac
0415
0859
0954
0489
fec2
0c4f
0b2e
fbbd
f0f3
048a
f8e6
f75b
00c4
f3b3
05f6
f286
fb78
0780
f412
0ae1
ef95
f1a3
078e
064d
fad2
f729
ef90
f583
0339
f8b6
f559
f9a6
045b
f463
0b77
0164
f87d
0ceb
fa49
f90f
f5c2
f3d9
07c5
0e38
fa46
019e
f789
ffb1
0c2d
06ee
f3ea
f83a
0413
0298
0944
04c6
047e
fb2d
0e9c
fffb
0aaf
08db
fe4c
0740
f396
f976
0183
f9f5
fae2
075f
0d9e
0453
f84b
f98b
02a8
0a0a
fd1f
084b
fa40
0842
fc50
0969
0ef8
fd64
f831
0069
0da6
01ee
0055
f285
f523
0f00
f0cd
0948
f996
098a
f486
0cc6
fd59
efbf
0485
f5f9
04c9
ffcc
0dd6
f2c9
faca
fb09
faaa
fe24
f086
00cf
fb1e
fda7
0c6d
006a
0012
0cb3
0ba9
0bf4
0a24
ff2b
095a
0a84
fa7e
ff37
f8d9
0280
f2b1
fb6e
0694
0a97
f7b1
fe84
f566
fbc3
0ab8
0f9d
f3b1
0845
019a
f496
0789
ffa7
00e4
ff23
07a2
07f7
f963
0ee2
0cda
fefc
f19d
01bb
0946
01b5
04b2
01c4
0cc9
0818
f933
08ed
0c39
fc27
0469
0933
fe20
067c
0a0c
0830
f78d
0b94
fe2a
0c1f
00aa
f84b
f66c
0962
fa3a
fe93
03d9
0f94
f11e
fff4
0d10
0345
f938
09bc
07cc
00d7
fbff
0184
0e71
096a
0cda
f5b9
f446
fc8e
fb52
00ba
f971
08ff
0418
faf7
f64b
f657
f325
ff6f
ff55
0359
fd01
0700
0c4e
f5d5
035a
0b48
fc06
f269
fbc6
ef36
f56b
fa4e
fac8
f314
0b70
0420
f3e9
fe50
fcbc
f793
fd92
f102
f1af
fd66
fe7c
0524
0530
fa0c
fec7
0d48
080a
0c9c
fe01
f85b
0c80
fad7
f7b7
f31c
fa45
0b17
f3ff
f538
fc92
f650
0979
f1b3
f2da
0557
024b
0f05
f831
04f8
04e9
f72f
efa6
0adf
f1e8
07c4
0d3e
fdac
0f25
f880
eea6
017c
fd51
f7d1
06ef
0ce0
ffd2
02ef
0e0e
0113
0e4e
fad1
f0b5
02c2
f51d
0e98
0e3d
fe6a
f994
fe39
0bcb
f09a
0c7c
0773
fd66
ff95
013c
fa30
f8cd
f806
0013
0b97
f0b8
0539
f2f6
fd95
f591
0e51
0f4c
06fa
0e7e
02f2
0af6
fdea
f0f6
0cf5
f192
fadc
0e2a
f314
f61d
f104
fa73
f575
09b3
f1ae
0093
0fbe
f1df
f053
fbe8
07e7
f6fc
0a02
01a5
fcab
f593
f039
fde3
f3f7
f79b
f50a
053d
095f
0eaa
0b21
0365
f882
f708
f90d
f33d
fd8c
fe2b
f8b5
0955
05a5
f6d3
0126
0c4d
035e
0c31
f53f
0afd
f02e
f2a4
01bd
f5b0
f73e
02ef
08d6
f570
0e58
0c50
fefc
fdf9
01ad
fff3
0ec4
0f2d
f89a
fb2e
02cc
f9d4
f11c
f5ef
011c
0b2f
faf1
f7dc
0d06
0c4d
0313
0a69
0985
0a44
fbc9
f697
0acd
f648
fd71
f9cf
f9d2
0d03
f76c
0d50
fa10
0bb5
f69b
0a8c
070b
f8c2
fb36
f6e3
f961
fa30
f7e3
f1e5
0a92
042c
f2fb
f286
f011
fcc4
fb40
010b
f242
04dc
f262
0483
0e6b
0320
f792
0bd1
f83d
f4cc
06ff
f636
f1a3
0d3e
fb6c
08fb
fa86
0318
040c
0552
0127
fb75
f484
05d3
f6b9
f0f6
f883
fec2
f9a0
fa8f
0eb2
0a4d
0915
02ad
0eea
099f
03e0
094d
fbb5
0f6e
f9d3
f455
f614
f8c5
01d0
0268
098b
0e45
f65e
08d4
0f72
0e6e
fd76
0d56
f530
0ad3
01fb
f686
0788
f686
f1a3
0a2d
0d93
01b3
04e6
ffbe
f716
f7fb
0fab
09c3
0014
fdb6
09ed
f3bd
01bc
f536
0330
f095
ffb5
02c9
0023
f8dd
fbd9
f23c
08ca
03c2
fe99
0298
0c91
f53b
030f
f475
f03e
f827
09b8
029d
0887
f725
06f2
f077
fe12
05e3
f4ac
060d
feb8
f003
f50d
ffba
fdd6
f98a
09e6
0052
0a1f
f7fa
0e18
f6c5
0eed
014f
0d63
f13a
0fc5
ffb1
03ff
fdf6
09b3
00fc
0943
f5b2
07da
f3a1
0a81
f931
f195
fe8d
f333
0286
f621
f06a
0ced
ffb5
f4b8
04c0
085b
f04c
fcd3
0965
0eaa
f1d9
fe07
f003
f193
fe1e
034d
0723
08ca
0f81
fb06
0757
f1f9
0cd2
0d66
f8e1
0b03
0352
f63b
fe78
010a
f016
01c6
f11f
0969
0690
f3ab
f08d
0589
0631
0841
fd2c
f746
04c0
f50f
ff96
0359
f086
0d7d
05e5
ff30
08f1
f8ab
012e
05a3
08fa
0b60
0f30
f4fc
fd9c
060a
faef
0c25
0923
0bc4
0d35
0019
0820
ff7c
fc55
f3ab
0cb8
081c
0839
f78c
f6a2
0147
06ea
f34a
f14a
f1fa
f241
0205
0aba
ff4e
f1e7
fc5e
f99b
0d04
fbf7
08ef
f5ba
f537
06a2
fefc
fc26
09d9
f9ce
f9b2
ffcb
fff6
f062
f05a
ff3b
f28f
f8f2
0d3d
06a0
07ef
f9ac
f298
f256
f1d4
ff3f
fdc9
f7d6
ff22
f468
036f
f70f
0445
0ccd
001c
042d
06b2
fcb1
03c5
f82d
f3d9
0025
0e3a
f89c
fdc4
f657
0f8e
00b5
0e4e
ffad
01f4
f1af
086e
f0dc
