fab4
0e67
0490
0705
1261
f050
edd8
12e7
0dd1
fd4a
f155
f150
f001
1409
064f
ed00
0174
f22e
129f
04f4
1b93
0cd0
f0db
00cb
0bf0
0070
fdb3
f37d
0503
08a5
f039
eec3
0596
090a
044f
11ab
f9ee
fdc1
f440
0818
f369
f830
f77e
f1c0
f0dc
fa1c
0179
0597
fa48
f879
0a56
eeb5
f1b9
ff40
f9a1
0819
f6d4
0624
efa4
095e
f277
023d
0deb
087e
