035c
f13d
f617
f51c
fe9c
05ec
0b70
089d
0243
0552
05af
f793
f154
f67f
040a
0ac7
fcf5
f005
0a49
fa29
0050
0251
095f
fbbb
f577
0867
f69e
0195
084a
09dd
f90e
f089
fdbf
0183
08fc
fa4d
040f
069f
f0a7
02c9
fd6d
f7b1
f6a2
0dc4
ef0b
f735
f30a
f566
fb72
06a5
f5b5
030d
04e5
f050
ffd1
f06c
1071
0259
f4eb
fd9b
f12c
f5a8
097e
09da
0a5a
0d2d
09b6
044f
f5a9
fcd8
feea
04d7
0209
05c0
0dc9
f4e6
0931
0dca
fa53
05cd
f2f4
f598
0ac6
f873
073b
0be5
0e74
f00c
f58f
f042
0032
01b8
f105
f7aa
fada
0afd
0d1e
ff69
00f8
0ef5
0e14
0922
0b46
f45f
f4d3
088e
eea8
f760
f47e
0511
f06f
faa8
f732
0db6
0312
faa6
fd5f
fea2
0768
f013
0bb2
0332
028a
fecb
f50b
0ecf
0312
002c
0078
f275
06a8
f75a
0bea
07e9
092f
012b
01fd
f7bf
f2c7
fe8a
0725
05e2
f0cf
007b
