fee2
ee7e
f3df
05fc
efca
fcde
f6f9
05ec
fbdb
feec
00bd
f05c
f462
f6e6
f021
04f1
028c
01bd
ef44
f697
fa2a
f612
fd54
f5e8
fd21
0391
fc21
053d
ef5e
0568
0bf0
ede2
f82c
fb7d
0c5e
fbb7
073b
054d
f365
f370
f9b8
003f
0ce5
f286
fcfc
f27c
ff5b
f91b
0e2e
0a58
fc79
f012
0c20
0ed3
fba1
f652
f8e4
0015
0776
0576
0b63
0aaf
f868
f702
ffb9
00f9
f8a7
f2a2
05a2
f21e
f4bb
08c2
0a13
fbbb
019f
fbfd
eee0
06e2
022e
00b7
0c08
fee8
04b3
07bc
0bda
f156
0285
f728
fdec
f3e2
f03c
f174
0610
f86a
f260
f32b
eed0
f78c
f76f
f833
0d6c
00d0
0901
0637
0bcb
f0ff
0bdf
f87d
0aaa
fe01
0577
0517
f9cd
03f2
0d2c
08a0
0cd1
f66d
fe4a
0ad4
f573
0db8
fe22
0650
f839
008a
f1a7
08e7
0bdd
0c6d
035a
0d21
0237
fcd7
f6c0
f10a
0136
f3e6
f0f3
fdd7
0b6d
0038
0734
efc2
f6de
f110
06f1
0748
079d
fb9a
00a1
f3b1
04fe
f7f6
fded
f2c7
f29f
ffa4
fac9
083a
01e2
efbc
080b
0ac1
f53e
0a35
f646
fa81
f935
f83e
0c80
f966
f26b
f0f2
fa30
030a
f272
04bc
00e1
ff7e
fad2
f79e
09e8
000d
0091
02ec
02b3
fc3b
fdd1
034e
f307
0396
f8c6
0b48
f436
0396
0820
f059
ef48
ffd4
0515
00fd
05d0
07a8
00d5
f005
f96b
0256
ee5a
f41f
f6ce
0268
fe95
0b31
0ae2
08b1
f84a
f7f8
0bf6
f2be
f92a
00c4
04fa
07e4
090d
fc6d
fe47
02c9
0876
042e
ff92
f75b
f38e
fe3b
fb07
0155
041f
fc6d
0938
0b79
04eb
0df5
f119
f292
f6cb
fc0d
0df0
f70b
eefc
fbe4
fb30
053c
f7e5
00d8
f230
04be
0e4a
0ab5
0836
fb23
f15d
0b74
fbd3
fee3
006a
fe6a
f2c8
0322
f8ba
ff19
080a
f471
066d
00da
f0ac
f618
faa1
fa6b
06ca
ffdf
f785
f04f
0aa5
03ad
0751
f852
062b
f720
fbbb
069a
f91c
05f0
fddf
feef
0d5c
f2e8
07bb
eea2
00d9
fc31
f820
0002
08f5
0024
f0d5
f8cf
f0e4
042a
0bd0
0b53
f841
ffab
fc95
ffab
f03d
0709
0333
04fc
034a
040e
f858
f67c
fa95
ffea
f391
08c7
0723
fbd6
f60f
f10e
fc53
fc1e
fd8a
032e
0b8e
fac4
ee79
0692
0691
007d
f442
f9ea
feff
0c6f
f645
0af7
052c
0853
f350
0d0c
f0cb
067f
0556
00ae
0e2a
ef92
f1be
012d
efe3
fd9e
0ae0
f61c
f9fd
f5e4
0a17
fb81
fcc1
0898
0c03
017b
fc2d
0a1c
0b56
ffa3
0bae
0991
02ac
0c13
05b5
fd9c
0609
04c3
0d51
f961
f670
050c
f1dd
ff6d
02c3
0584
ffd7
f41a
fe39
fc62
f60c
f991
06e9
0d38
021b
f397
037e
078c
0511
f1d2
f60e
0c89
03de
f70d
f821
0a15
f737
f0fc
f64b
f8ea
00b1
fac3
0733
fbab
fead
f28c
f0af
f687
0d37
0660
0c06
f982
091b
0794
02ba
0a85
fd38
04da
fb22
095a
f14b
0daa
ef55
0dfd
0728
ff6d
017d
f55a
0378
0bfd
0b0f
0848
0c5c
f68e
0a20
fa6b
f181
f4c7
0b1f
0b77
f6bb
0a8b
0129
03ef
0294
05b5
00cf
0d1e
ff52
0009
09b9
fbe0
f61d
fc84
f4e4
f720
04e9
0054
0ef7
fdb2
0c22
0e19
f523
0b56
0c96
f6d5
fd09
f0b0
f71d
f1b2
086c
fbd6
07d6
0654
0692
077c
04f4
f54c
f57c
f825
0dbc
f44c
fd6e
034e
0258
f430
fbed
fcb9
f04b
03ee
fb07
04e5
f19f
f0e4
fffb
fe9d
0017
f1ab
02b0
07aa
08a2
f0f3
f6e5
078e
0c77
070b
f9a4
0cbe
0537
fe30
0ad3
f0a2
f9f7
f987
f94d
f57b
0848
fb82
f177
f0b6
fbc1
fa09
0104
fa15
f355
fd20
f4a1
f9b7
f2ab
f5c3
0b61
f286
f8af
0529
f881
0d70
0746
f074
01a1
0b3e
f7dc
041a
fb1e
fd0d
04a3
ef7c
fb21
fbbb
0f42
069f
07ef
f0e2
f74d
00ea
03bc
0713
fea1
fc46
efba
fadc
ff54
fd6a
0499
fccc
07f6
0752
0738
fc60
0b87
0051
f7f0
0a02
0d77
f03b
f034
f541
0379
ef2d
fde4
f0f7
fd0e
0935
efa1
0927
ffda
0d5d
f2d6
0bf6
0456
f066
ef34
0448
079b
f09f
05c9
f9d3
ff71
f5a7
f1e6
f3e2
f94c
fc8b
f734
08d6
f5be
f6a0
029e
0c6d
0aa0
f8af
feb3
f73d
0015
f32a
0c55
fb91
071d
0c40
06e7
0a00
0f6c
054f
03d6
0855
fcdf
f611
f9f7
fe50
011d
f658
ffb3
ef46
f162
0864
0b4b
01e8
f724
009e
04c1
f4cc
00bb
0a71
ffe8
f501
08ba
06b9
fe69
feb6
fa7e
f9c9
f1c7
f1fc
014d
fced
ef78
f168
0573
f8fd
efd0
ffa5
04a7
fc0a
0e20
0602
f00e
03e9
ef35
0de3
0313
0b7f
f647
0abd
fae1
0497
f6b2
f0de
0ac4
f2a3
f724
ff57
02de
03a0
0915
0b2d
0ae2
05cb
f6ed
03a8
f59e
05b7
0482
f0aa
0d5b
000e
00d9
fc7d
00c3
f9a0
0ca5
f442
08ae
fd35
02e9
f099
0007
0438
03c5
0bec
0e07
f8ce
07a4
0970
039e
05c0
01c9
fd61
f728
08c6
fe9f
f1d5
f9fb
0637
0497
f120
f0eb
f7c2
f2b3
0688
fda0
fd49
f3cd
08e6
0ecc
06dd
ef9e
0b0d
0532
0b82
04c1
f1b7
ef83
efb2
f228
03d0
038f
0815
f351
0acf
0784
ef95
0dd6
00ab
01e7
0486
0b58
fdf4
005f
0810
f9c3
f9f7
f23f
f8fe
059a
f298
fc76
f932
f233
f2e7
f8af
07ba
f394
0d2a
f43b
03a0
02fd
0c32
f57c
fdb9
01f5
0aa4
f584
03c9
f022
ef6c
fb9a
03a0
ef4b
040e
fb31
f2e3
07e0
f52b
0631
ff4e
fe82
01f8
f57d
f8c2
f8cb
fda7
f3e1
f469
0163
0dde
f0cc
f29a
02a5
0ca2
f111
f424
f301
042d
091b
ef62
f09c
07ed
0bda
f2f2
0513
f0c3
06a1
efe0
081a
026d
04b7
fe13
f6f3
043f
06b8
0bc8
f070
fbd1
0588
0123
fc61
07ad
fc74
09ab
0748
f830
fd74
0a2e
f50f
f8f3
fb6f
fcb8
07f5
001b
021e
005d
f2dc
064d
f3f5
eef7
0306
f96f
fb7e
f40b
f630
fcea
0de5
0b6f
0326
04d2
ee8a
fc7a
f016
07d0
f3cb
09d1
0d95
04bb
f923
fd0f
f611
039d
073e
0e17
f992
005d
071c
09f3
0e04
0a40
050f
03eb
f891
0ec6
f818
0ab1
0055
f367
f022
fb4d
01d8
0a28
f3f1
0cd6
051e
fa70
0362
046b
05f7
f9d2
0539
f4fd
0997
f31f
0856
f3fc
f087
0bca
0ab7
fa2b
fab4
0c86
03c4
04ce
f6a8
060c
fe63
f481
fec2
0cf6
f9bf
ff7e
fdde
fbb2
0257
033f
095b
fd26
08c5
fa26
f841
03b6
f719
0d4e
efd4
fa87
fa05
f35b
ef90
0e21
fff5
ef46
fda1
045b
ff22
074d
f386
0666
094c
f93c
f67a
f0e7
f635
0d13
092e
0adb
f490
01e3
ff33
fdf6
f24c
fe41
f527
eeef
0a7f
0402
0439
fcba
fc48
0004
0d1c
efba
07d2
0675
f71a
0d1a
f461
fcdf
fcda
0749
fb10
f105
fc58
fee9
06c4
0c57
01ed
f4b2
f270
f74b
0853
0c6a
efaf
00a6
0480
efe1
f8ec
f89b
f1b9
0e3d
0b02
06f4
06e4
0e8d
f5e4
fd60
0c75
f638
0e23
fc47
fe51
f7fa
06ae
f827
02fa
070a
f620
ff7f
f65a
0e3c
f04b
f835
f3aa
f516
0e7a
06a7
face
0cb9
0acd
0a9d
009a
f816
09ef
0921
f066
ef9b
0cf7
0697
0937
f36d
04eb
fc6f
ff02
f8a4
ef18
f353
fc4d
f94b
0d8d
fde6
f2e9
0de0
efc7
f42a
fd0a
f105
f886
fb9e
f377
faf2
f8ec
0ad2
f24e
0c0c
045b
06a2
0788
f141
fd33
03c8
0f36
083b
0183
0038
0737
0acc
ef01
f0d2
f3be
f0d3
f5ab
05ac
f6fe
fb84
00a1
f849
0e05
f2c0
fab7
09eb
fa16
0c9d
ffbf
f60a
02da
fa17
0d10
f07f
ef98
065c
f233
ef41
0ad6
fe3b
0f49
0535
f036
0743
026d
fd88
f4e8
f75f
ffd8
f80a
0883
f56b
0aaa
f7aa
f0d3
0c09
ef1a
0159
0179
0e46
f445
0a1a
ff61
05df
ff4a
0142
f02d
07e4
fcc9
f715
f5db
f6e9
0f19
0bd0
f053
0d8a
0df0
0f57
0d21
0c17
fcf4
0361
0339
01a9
0cc8
0b83
f7d0
f03d
f2cb
f8de
fb21
0d77
0b29
081a
0461
0513
fbab
f5ae
fba4
f430
f646
f280
0a0c
f46e
f452
0c9a
f9a7
ef51
f2f9
fdc2
f967
ff88
fc2c
f487
f5ad
f76a
f214
eef2
fdf3
039e
f5f4
fa3f
fe47
06f9
0af0
ff63
f981
0561
03d8
0c17
f1f8
0eb0
0546
f399
0783
f684
f690
0298
ff9b
0298
01a5
07cd
06a5
ed46
f265
fbe0
00b9
f2b3
0be9
f7e3
f0f2
fea0
0781
01d9
0847
f982
03bd
0641
0bf9
0b66
ff30
064a
06b7
0095
f35e
091f
f18e
011b
f0ba
f62c
f196
fa93
05df
0acb
0ab0
0793
0bc7
04ac
f903
f7e1
f946
f400
f73c
03a4
f5fe
f66c
fc41
0268
f561
f579
ff5a
069a
0e13
0417
0142
f0aa
08f2
fe60
0d3c
fd2c
f9b9
0bd3
0649
fd26
fd2b
076c
001b
0203
fad8
02ef
0378
0c28
0153
0ce0
065b
fb92
01ff
eec6
f967
f6aa
ef0f
fe85
f928
f62e
f524
ff2c
02f5
06cc
fa21
f532
f205
03ae
0aee
0a41
01fa
0c33
f0d1
fc53
02c7
f868
09c3
02cd
f1e2
f44b
f5b5
04da
f617
025b
0246
0d02
f46a
fd42
fb6e
0ac9
031e
099a
fd69
040d
0b7d
fd3b
fd18
f048
ff50
f2ed
fd79
0497
015b
066c
0cfc
0dc9
022c
06d7
fc8f
efbb
034a
f8e5
fbd1
feda
071b
f5a5
061f
02ec
f9d2
0936
fedd
0397
f794
04ea
f101
0573
feb4
041b
fca7
02e8
0af0
f264
03bc
f810
fbdb
023c
0428
fe45
f153
f779
fab7
fc87
089b
0148
f448
f910
f35d
fd7a
fae5
fc99
f43e
fce5
0f2c
0f39
0e51
fa98
0c20
f4a7
fed0
eefb
f1c4
f6c3
0279
f44c
f78e
09dd
f5ce
0532
f212
061d
057c
006e
f791
07f5
ff3c
f7d4
f16c
0b95
0ba0
f8b7
09f1
fc5d
f80b
040b
f8e8
0bff
fac9
0ce2
f741
fda7
f23d
f493
0107
ffa2
f249
0066
0c3e
ff8b
fd6d
0b1b
074c
0359
02bf
ef87
f38e
0962
06e3
fa40
0e5a
042d
03ad
0e00
09ab
fb2e
f2fb
f17a
f78c
0ba9
08ad
f514
f8d9
f15e
0d82
f5f9
0783
01d3
f994
058e
0ea3
f301
fea5
0c1c
02d2
f261
ef6c
07cf
fc69
f8cf
0c66
02cb
fc4c
01ef
06d7
fb04
04f6
fb1f
016e
fa13
0d57
f96f
fbf0
f520
05a3
0713
fc8d
0d81
0a44
08ed
f5ea
fffa
fc77
0334
f092
f7fe
0315
ff03
099e
0d4a
ffdd
f883
0684
f369
0757
f4ec
fc47
0108
fb24
ff02
06e0
0906
f4bc
0b99
00ea
fc41
f2bc
0a8e
f9dd
076e
fa47
05f6
f44a
fd20
f626
f033
f570
0d87
fd1a
0889
f0b8
08d4
f81a
f189
0bb6
ff60
fe95
00f5
011d
0eaa
f5c4
f333
f419
fc5b
f132
fb38
05b2
0907
016d
0a4d
fafe
ff3a
fa06
f7a8
046e
0082
0a30
0371
fa22
fd7d
fc3a
0eb5
efd9
ef59
f339
fe74
0a41
098f
057d
f452
0e26
0210
f3b1
fac6
f719
0dd8
0b0a
f6d5
0368
eee2
02ad
037e
fb96
0450
f27a
f5d0
07e6
fc60
f414
f3ce
f102
f537
fd7c
09e1
09d9
fa48
0e49
fc15
022f
0370
f055
0459
f616
fe65
ff46
f3ea
0001
fd26
0b3e
0203
0e47
fb5b
f500
0d76
f16c
04b6
02f2
f95c
0ce0
039f
0cfc
0d33
0562
0bdf
05ff
fea5
eeca
0c07
028d
f8d0
f19e
03ae
fe50
0d6b
f554
fa6d
068d
0c98
f3db
f120
f680
00d2
f3ae
fed1
ef3d
f644
0108
0ea7
f2ff
07d1
04ca
f9b2
0312
0531
0341
f1c6
fd03
0e04
0836
08ac
f7c2
0e8a
fc9e
051d
0ae5
f5bd
f490
f393
0217
0202
0ad9
fd3d
0938
0077
faab
f08e
f830
0092
f8bf
f7ca
0162
0955
f87c
f6e6
f0db
f1da
06a5
f05f
058d
08cc
f462
0729
fa7c
f6ef
0a31
0466
fb1f
030c
0cb5
f030
fb82
0a43
ee92
018a
ff87
01d6
0b8e
005d
0774
feb0
ef63
fe5e
f709
0aee
00df
f760
096f
fdda
01bb
0a86
fbb8
0227
0cfa
0767
01c8
fe42
0921
07b6
f6ff
f5fa
05bb
fa8e
fd9a
0af1
0932
f5e5
0ea8
f87b
f863
f263
fb58
01da
fa53
04d2
f6c0
00b3
0616
fb9e
0398
ffc2
fe67
f8e8
0181
0b39
fc81
07df
0488
0c9b
095a
f3ae
07b9
fe50
0aeb
f4cb
061e
fb0a
01c4
fc86
f11e
fb2b
00db
f819
0644
08be
fbdc
02ed
fb0e
f81e
0fac
084b
0fd5
f1e7
f666
0e36
0bd6
091c
037a
f57b
0d07
03dd
f0a4
f420
f43c
fd09
fde1
f917
f770
0a21
0c9a
f3e2
f196
ef10
ef8a
f48e
f652
efca
feab
efb0
f98c
facd
f119
07cb
00cc
f422
fddd
0fbb
07ca
0a21
f950
09ef
04ba
f450
f211
04c4
f29d
ef62
f395
f306
0c54
fd6e
fa44
f361
0d8d
081b
fffc
ef3e
fc53
03ac
fbc4
0083
0352
f91d
03a2
0659
0755
efbd
f35a
09ae
f053
07f1
0354
04ea
0cbe
fd6c
f582
f852
ef64
0e5c
f30e
07f9
f98f
fc09
fd28
f2c8
f0db
fa37
fff4
0bf2
f82b
fa10
0367
000a
0ae0
f08f
0b46
f27f
01f6
f1dd
0346
0051
f4aa
008b
09cb
03c1
0b2d
f910
00a1
fe07
ef86
0424
064d
f450
fcd0
043d
f63a
fe3f
0acd
00c8
08bf
0aeb
00a5
fe26
f1e6
0dd2
0648
f0b3
ffcf
0da1
0b7d
0287
feeb
0012
fde4
0b46
f752
0ad3
fcfd
0205
0d3e
f48a
fff6
f806
fc43
0b4c
fa7c
f9db
01da
f173
0133
0df6
0ac8
02b6
0ddb
fc84
081b
034f
f8ad
0d3f
f9ee
f536
03db
0c74
f92b
ffd9
0c76
0842
f474
f9ef
019b
f43d
efde
f9b5
fedb
0578
0836
f672
f373
f9de
02ba
fd21
0ae2
f62f
0273
f597
ffe5
fffb
f251
f826
0e5a
067a
fe86
fed0
0b17
07e7
0217
f508
fa88
ffd6
ff9f
fc2a
0848
05c0
fc09
0e34
f254
f3dd
f91b
fe3c
ff95
0326
06a2
0074
0f2c
007c
0145
f7e2
f06d
ff19
f87d
0941
f8f3
f4f7
0394
0617
ef9c
040e
fcdc
fc03
f921
fa2f
09c7
083a
02f8
f955
efe1
0be2
f551
f24f
f4c1
eec0
02d3
064e
f975
f11f
05a8
f79b
0edd
faf8
02bc
f520
0098
fd75
fc2f
f8c1
fa48
f012
0513
0913
f219
0293
0863
f2f0
f9fb
f293
04b9
fd2e
fc6e
ef75
f0d6
f7c2
f81a
028a
0ca5
04ee
0b28
f847
09da
f871
f60e
0040
030c
0de9
075e
f57c
0335
f903
0746
0d75
f505
002d
f1c6
f40e
0121
fe61
ff1e
feb2
faad
0b20
0981
0438
f5b0
f005
072d
0122
ff68
f430
0597
f729
0e72
0d9d
f940
0e73
f4dd
0b22
f569
f0ea
f451
042f
fbcd
06ce
0a80
03db
f477
fe3b
f3db
07fa
f7ea
fd6c
f617
092e
f262
07e0
0ca9
0381
f74f
07d4
fea3
0eac
0969
0d31
f206
f3d4
0cce
0c68
fbeb
0d0f
fd69
0bdb
028f
f1d6
fa0a
0d0a
0791
fd21
f042
02e0
fa77
faec
0684
efa6
f1d8
082d
0a42
f229
fee0
0e29
fe2e
0067
00cf
09d5
03a4
0b13
f4cc
f2b1
f35e
ef41
051b
0158
04bf
ff8c
0851
f057
f3cd
f05d
0a51
f982
fe7a
08ff
f493
06af
fe57
f360
0b78
f49f
0937
ffc7
fe82
fd52
0e1f
f01b
f200
0425
f6e1
f731
049e
ffed
f1ad
f6ed
06ce
f97f
00fe
0ba5
021b
ff85
f540
fa12
fcf4
0670
f451
05ba
0ac0
08ab
08bf
085f
026b
0998
fbc6
0d05
ff07
0398
f3e6
0bee
0b64
fbe2
078b
0989
03cf
fab4
f812
fd2f
0e56
070d
fbf5
f98b
f064
fe66
f6b6
06f0
0a8f
fb97
f063
0636
ff10
08dd
0a06
f7e7
0d18
0c6c
fe01
04cc
fc13
0445
06a0
f66b
f9c3
f13d
faa2
0790
f70b
0595
f8a5
f5d1
ffa8
018b
f6a7
ff94
f961
05fa
fc06
0103
f5ee
f327
0920
f5f9
f160
074b
f099
0591
f2a0
0ba7
064d
f91d
07c9
0513
0849
0f22
052f
0cf5
000a
eee0
ffcd
f9bc
0c72
f2b6
f1e4
f616
feb7
fc5f
026e
f6a5
0a65
fae9
f24b
038c
0329
05b5
ffe0
f8a9
0682
06db
0add
fb3b
ef65
06a5
07ea
f8dd
fc6b
fa17
006e
f54e
00cb
f0e2
fa8e
fedd
02db
0ef4
07ed
f391
0050
fa32
f71d
f544
0dfc
0669
ef9b
0b1b
f597
0ec6
066c
f13a
f6ce
ef7f
059f
f8f2
0c70
0a4e
02b7
0e30
0341
0d78
0811
0e08
09e2
0c17
fcdc
f1c2
03c9
006b
04c6
ff68
06c8
044c
f062
fbdc
f36e
f2ad
f30b
f286
fe82
f11c
efde
ef67
f361
ffe2
00c7
07dd
fba7
099a
f5d8
f010
f0f5
0aff
070a
f7c0
f330
0657
f644
f16a
f736
01d0
0a95
fc14
efc7
0bf4
f6cc
fe33
06c8
0317
0f72
0998
f946
f132
efd8
0405
0211
f8ed
f102
06e4
0cc0
f69b
0b5b
fb05
08b2
0545
0130
fae7
f812
f6c1
f47f
f6af
ff9b
fcee
f748
f52b
f4e8
0573
f344
f546
05a6
001b
039d
04cb
feb7
fc02
050b
fe5e
f297
0180
0865
fd24
009a
f8fb
0be5
01db
f165
0d7a
01d2
f862
0e7c
0d90
ff97
01af
07f4
fbbc
fe34
fdd3
f4d8
040a
01fd
07fc
0cde
011e
f97a
0e10
074f
ffef
f33d
0477
fadc
f28f
0321
fa8e
fb3d
0df3
04c3
ff5a
0af3
f7b0
ff2a
00a3
f563
ef59
09dd
ff9d
0799
ff1f
f3e0
0823
f335
0705
087b
fa60
f839
fd2f
f9a5
ee6b
09eb
0834
0463
0210
0876
04df
0761
f5da
fe9e
f33f
0f48
0dbd
0b09
05e3
0e32
0c01
01cd
00e5
0f49
0d57
fc4d
03cb
035a
faaf
1025
f566
0801
f4f5
0796
fa85
0d9f
02f8
0ef2
0b63
fd5c
f904
fe65
0179
0082
f602
09e5
03d6
0d5e
0e8d
f024
f5cf
f5cb
0607
09be
09db
f19d
04e1
f972
f78a
fb7a
fc86
ef86
0a2f
ff89
0015
fe84
0b82
0dcf
fbbb
07b6
0e74
f8a6
fcab
0ef9
0b38
f37f
050c
f41e
0ab9
f5d5
07c6
fae5
fc57
fc47
0f81
f3e9
017d
fc59
fb1d
f98a
0de4
f619
f9dc
0248
f535
0670
f890
f1c9
efeb
0535
fdc8
f1e8
f877
0248
f442
f15f
f951
0dd3
00d5
0bc3
04b4
ef70
0867
fa4f
fe11
097d
ef8a
fb4d
fa02
f942
0c0b
0339
0dfa
08c0
fe59
0ca4
ffb9
f396
f065
062c
fda5
fb85
03ac
0045
0acf
f35d
0d4d
02ef
0db7
0802
01ca
0efa
01a0
0d22
f7d1
efdc
f910
fe37
f666
05b3
0195
06d4
fd31
f2e2
fabb
f8b6
0066
f3b7
ef3f
fce8
f0e4
feed
fcb4
ef6a
efd1
f54f
001f
03ed
f8cb
054f
f31e
0164
f4a4
f57a
fc96
f6b3
ff3b
03b2
0c7c
0ad6
fd5c
f292
f20f
0b16
08e1
ff8a
001f
fd48
f30c
f82a
0df0
f1d6
00e2
072a
fdf1
0698
0cae
f365
0234
f3d0
f4a0
f34c
f6db
f67d
fd82
0a07
0dba
f1f0
f324
0368
0eb0
073e
087a
f0b8
efb0
02c2
0d4b
0a85
f7a9
08ae
fd8f
0c88
fe65
0995
044d
fcd2
0f08
f64e
f808
0377
067c
f583
efdc
f3ef
0f20
fcd0
f031
056f
fcd5
01ea
087c
fe59
0bee
f642
0cfe
0682
02c5
fdea
fce5
f81a
0600
0715
f857
03c1
fdf7
0835
07c0
f98e
053a
096d
fbbb
0234
0450
fa55
0aef
f7b5
f666
05ff
095c
0705
ff24
fe79
fb61
ef25
eefb
05bf
f294
fef9
f9b6
fca2
f6ff
fac8
003a
052d
0423
f38f
096b
f6b4
f037
fb41
0447
0374
0836
efc1
f80b
fcda
ff42
f2f2
0e3c
f72e
0db2
feca
0051
fffc
035d
f53f
04fa
082a
0cd5
079e
0dca
edb0
079a
f7fb
0a40
efe1
0916
f6e4
fc2f
f3f8
02d7
fea7
ff9c
fe49
00db
08d7
fb29
0a13
0bda
fa9f
0639
f91a
fe73
f704
0111
02f3
0909
0b60
00eb
0747
faf8
0449
fcad
042b
f315
f35b
f8c7
f9bb
0185
fac4
f8c2
f95c
efff
0d39
f462
f8e2
0282
0c5f
0f57
fde5
0286
ff90
f7e9
fa52
0c7d
fa28
0380
fcea
fe48
080b
087e
ffd6
f6e7
ffe2
ee51
00be
0b88
fd06
024b
055f
ff85
0a50
018d
00b6
feaa
09d0
fedb
f66a
faa0
075f
0d7d
f0d1
0b13
fb72
f11d
0b24
04dc
0875
f10e
fb6a
0c9e
fffb
fe20
f7f9
fad5
0903
0577
09bb
fca9
f802
0145
0258
f3ab
04d3
fcfb
fc80
f079
0bc7
fcce
0de6
f23b
02d2
08d0
ef3c
0116
f087
0e29
03a3
0a4b
f227
f145
0200
f27a
fce3
0f2e
0572
ff4c
fba9
f7d9
f6dc
039a
0830
0147
f429
f4d2
efa5
0ae2
f470
fb95
0a1a
0176
06a2
00ce
016f
1007
08ac
f4ab
f4b9
006a
f225
fa40
08fc
02f1
041f
f8a9
0600
f8da
0548
0458
f9b2
f21e
047d
f09b
ef63
fe87
08e9
f18e
f2d1
094b
fd7f
062b
03b1
0b18
fb63
feea
0368
facb
f950
f9e8
f11f
fa63
fe70
ffd3
f1ce
f0db
0053
0144
f0f5
fe15
fe2c
f802
f637
f281
0d2d
fa9b
f791
f83c
0745
0d40
fdf0
fbc1
0b05
0bf1
0604
0cd0
f735
fc84
085d
f300
0433
0b2b
07dd
03d8
fdef
feb6
f7df
05dc
041e
fa0b
04b3
eff4
0799
fa75
00f9
0608
05b5
f578
056a
0cf3
ff90
fab2
f44e
fe5b
0bee
fc34
f004
f449
ffbd
0a14
f4c3
ff7a
f58c
0654
08ad
02bd
04b4
ef70
0618
037c
02a2
0a37
0919
09af
0782
026c
ff28
0c40
ef74
0ceb
f3ba
0696
0bf2
0c5f
016c
fd54
f66d
f557
f288
f1e8
f14b
ff09
f011
0d80
fce4
f142
fcba
0a2b
fc22
0ebf
f822
fbbe
0eb0
ff43
f664
f85b
fa60
fefb
eebd
fd3a
0c55
f816
f089
0953
fec2
f9b6
00d8
f6ba
0ce0
0abd
0a7f
fa90
f249
0a06
01e9
0593
f4bb
f496
f737
f4df
f8b4
fd08
0e03
f594
0a10
0943
05e8
049a
fb59
f390
0272
fbec
f0ea
efb9
01e5
f806
fdf6
04cb
f403
efb6
f2be
fc16
fcb0
fdb2
f60f
f71d
0e12
07be
ef98
fa4d
05c2
0d81
0298
08c1
0811
02b0
02ed
f0cc
079f
02a8
0836
fe9a
0b09
0d43
fb3e
f618
ff01
fa45
035f
f243
fd4e
0335
0668
ffa5
fb5f
fdfd
05a2
f1f6
0c9d
f38f
fddc
0a28
f857
0bfc
f625
f0bc
f796
f0ad
f26d
fe0e
fc2a
0c2f
f42f
f026
0961
fd6b
f028
f86e
f328
0c90
f2d5
f60d
fa50
facb
0ccd
07cc
0bdd
fe9b
f7f9
fa9c
04bc
0120
f7b1
f787
0059
fbe8
0e97
07a5
0566
ef90
0b99
fb80
0e35
fc5a
0929
fa6c
fd01
ff2e
09d4
ff0d
f992
0e0e
094d
f1f6
f9b8
eff4
0a1e
056a
0c52
055e
f5ed
f1e3
0abe
ff56
03c9
0f36
fa21
f0b2
029f
0ab8
fab3
f0c0
0ef8
054b
0c48
0932
0131
fd73
f9ef
0584
0cc2
f1dc
f908
fcaa
f13e
0808
091b
021d
04d9
fafb
ffc9
09f6
0944
0e53
0dd2
f34b
0c5d
fee3
f5ac
fed1
f4fc
f78e
0238
0a19
027b
0219
f5c2
fc91
0294
ff57
07de
0c7b
061b
05f2
06be
f73d
fdd7
03a7
0d9e
0efe
fd7c
08ad
0249
f88e
01d2
092b
fdcd
08a0
1077
f708
ef9e
fab5
0c5c
03b0
fd06
0ef7
0c61
041e
ff14
0eff
02b0
fab4
0775
0c1c
0c21
f291
0c6b
f4d3
f7e3
f9ab
02b5
089f
fb67
0175
fd0a
0385
fc8d
efca
0597
0d2d
07b3
f9f1
f0c6
fb35
0942
f7a1
f3e9
031f
f84e
f1a4
fe09
0d50
0949
0bff
f765
08f5
0dfa
feb7
0beb
0c66
05da
034d
07ab
f483
f24b
f0f1
fb41
f24e
0b72
049d
02d8
f373
0cca
f9aa
f960
f745
0dd5
0b0a
f9e4
0316
f33d
0a37
efb5
f8fc
0019
f01c
035b
f137
0b26
02f4
06f8
f1ee
fb18
0a9f
f80e
0ca6
07f3
feb9
f9d0
ff0a
07ee
ffc3
ffd5
07ca
0b14
efde
057c
fafc
0d3a
feb7
fde7
fb2e
fb67
00f7
eedc
fff9
01d5
0745
f0ee
fb29
0b02
f6c9
013a
f45d
05cb
f518
0086
0ee1
f1d9
fc6a
0584
0140
f2f1
fadb
f98b
09fa
f40b
f5bf
ef36
ffbc
fd65
0e3c
f434
eeeb
ffc5
f717
0a3e
00c1
ffbd
07f0
0a82
ff73
0411
f30a
f511
020f
06c0
f518
0753
0381
f11c
fea1
fd9b
0a13
069b
fea2
027e
f0c3
0bc9
0faa
eff0
ffa1
fabe
0dfa
f321
0ecd
ef99
f719
001c
0bd4
0f41
ffd2
fa33
08e2
0d0b
f425
fa7b
f5b8
05a5
01ee
01bd
089f
f386
0905
0a8f
fbba
f60e
fe9c
046d
0954
054e
0591
02ee
f700
0a34
0322
0537
011a
fe2a
09dd
f46e
ff73
f650
0bba
f862
07f0
f1ff
0084
0978
0a44
f1b3
f756
fc09
f34d
0d11
f161
f88f
0232
0e8a
04ab
f873
0ed2
0367
f1d8
06d8
0d1c
f6e4
03a6
0644
068c
f873
0d55
078f
fa1e
04a6
f5d1
04ee
0ae2
f87e
07a3
005b
02a0
f3d7
00ff
01c6
0946
fbfd
03f4
0e7f
09ba
ffdb
fa58
0374
fa1d
0cd7
f5fa
0583
00d7
ff58
0bc7
06ac
0e03
efdb
0bd6
0833
f00c
0ce1
f28f
0097
f8ee
031e
f774
f104
f604
ff81
0020
080e
0e05
0472
09e6
fc2b
064c
015a
fba5
fc80
f542
fc4a
f13b
f0e7
f118
f7f5
fdc1
025a
0467
ff3b
fdbc
0145
f285
f545
076a
faf8
f28e
0e37
015f
f864
02d8
06e6
039c
f3f0
00f0
0952
fb67
0a24
081d
0d9a
f01c
0aa4
ef55
f674
069e
fd46
f80a
0100
f145
0df4
050e
0036
0281
01f3
09c5
0566
02d8
f9b9
f944
09a2
0c83
0388
08cc
f589
f4cc
0ace
0d35
f788
01b1
0398
010f
fda0
ff5a
0c26
002f
0e03
04df
fe21
f83f
054c
fb9a
0c04
0a91
f1a5
0a76
0cbe
fc52
003a
02a8
f810
0a51
f37a
0bee
ffeb
ff54
fde4
0130
fd40
01ad
f998
fad9
fede
f0fa
f592
f156
f5f5
0235
0418
f1c8
f99c
071c
f6c7
0a85
0b52
fc1a
fd40
f16e
0f80
efbd
fb2b
0980
f561
f470
fe74
0619
0a77
ef8e
f0ea
0a5a
f07c
0ec3
0bb8
efa2
01d2
0893
08e1
f204
0d22
fc70
f61c
f658
ee89
0a67
f858
f009
0a22
f043
ff88
f4fa
064d
f7f8
074b
0bf7
fe7c
ff23
02d2
0a72
fa41
0d55
055e
f86f
07c4
057c
ef3a
002b
0b41
f260
0c4d
049f
f188
0d4b
f2bc
f108
f2aa
fb2f
fbb4
fedc
07bc
f589
0bc9
0123
ff1c
0b94
f88b
00ee
0676
f678
f582
0c4f
061d
0004
0569
f27f
feba
f073
0b57
f554
0819
00e7
f6d6
fce4
0f44
f71a
0b38
f2b9
024b
0000
0edb
f895
0e98
fcbe
f9ac
fd79
0e7f
0f41
f421
f380
0644
0901
f162
fa52
fb19
0d88
ff8b
f658
f6a4
056f
0a45
f1b2
f54e
f303
01ba
f9af
0509
f19e
f754
0cf0
fdef
fb48
053d
095d
0092
f0ec
f67a
0004
0838
04ac
f205
f710
f9b2
072d
07e4
09df
0a30
f6ae
f09e
0c95
0a16
f921
0a7b
fd4d
fde8
f5b3
f7b2
01fb
f9a2
0553
0a32
0891
f581
f6e8
eff2
f46d
07c7
f5f5
00db
f9f0
f33c
f323
0004
fb55
0e2f
fa42
0726
0031
f397
f5c5
0450
0738
ff2c
0876
f4bf
f993
0648
f1e4
f2f3
f5e7
0e4b
f5a1
f76c
0631
f206
f713
fef0
f2e4
ff9f
f009
f0e9
0d63
fd4c
052d
f751
fe34
07b2
0d83
0293
fad5
f334
f54a
f46d
f4c1
0ac2
f1b7
0231
f6f7
0478
08c0
f330
f35a
0d74
f9eb
f5bb
fc09
f941
f86c
0c57
0c8b
0449
02ff
097f
03fa
f9aa
ffe2
0c45
f068
fa15
f908
fb1e
056d
f163
fe5f
05d5
f784
f41b
0b29
efd5
02d1
f54b
f9ce
f993
ef2a
fc2b
ef85
0750
f6e3
06c6
fedd
f467
fac0
f708
fd85
f3a5
0ca3
0474
ff71
01a4
fa4f
fb32
0bb5
fa8a
043d
f54c
03c9
f8c9
fd42
ffc3
face
ff96
f4b8
f3ac
0d93
f032
fedc
0c0f
0c8f
02c9
fcb0
fdfc
f074
01d1
0571
fca9
fb86
021c
0a88
0816
081c
0d20
fbf6
0569
07e9
09f6
f9fe
f768
fb9c
f753
0817
01e5
f5df
05fa
efd5
0594
f83d
f361
f2bf
ef36
024b
ef96
fa66
f07d
fe82
f932
05fa
f385
fa7f
0bb3
0d1e
0abb
0e38
f530
f0a9
fdd1
f08e
093b
ffc6
efd8
fb7a
022d
0932
fca3
07a7
0945
045a
f02f
f94b
f333
ef3d
f4c9
f89e
04b5
fe3a
0d38
0893
0065
0509
00fc
f894
05d8
fe71
0a31
04a9
ef7d
00f1
0913
031b
01e7
f4b0
f28f
03aa
02a3
feb4
f6ec
062f
0284
f692
fab3
fb9b
0958
0ee1
0087
0b92
f74d
099b
0458
efa2
03fd
016e
05ce
022f
fe39
f720
0ced
f3e9
f6a7
011d
fc1b
0f02
f1f0
0b57
fe1e
040b
f7cb
096d
0ba2
0176
0062
f026
fbd2
efd8
f295
f2bd
03cd
fac4
01ff
019f
09cb
fb80
f3c6
078f
0976
faae
020b
ef8a
0cad
0761
f28d
f601
0839
ff16
f3bc
0666
fbe4
fa80
f804
f7b0
0811
f714
faa2
03d2
ff14
045c
04d2
fd23
0177
0e6f
0b58
f1bb
052e
05b9
0e23
0240
09f8
f206
065f
0bee
09d9
f87b
f2d9
059c
f607
052a
015d
f7cb
0f5c
0c9c
ff01
06ff
f37b
fc27
ee8e
091c
f78e
f0f7
ff83
f914
ff35
faf7
f50a
f252
f605
0039
0983
0331
0328
080f
0c70
f74e
fd61
0aa4
0ad3
0081
024a
fe3c
09e9
02a3
ef68
0d61
fc25
f444
f44a
05ed
0d1e
0392
0e91
fde3
0231
0e85
0c36
ff16
fefc
ffc9
f5df
f0d9
f13e
f98c
0358
fe0d
fc2e
fef9
efa1
0acf
f901
fb26
f9db
0158
f09f
ffc8
0b29
faa6
efcd
fb1e
08b9
07a6
f45d
fd13
07a9
0b0d
fb45
0d86
001f
0889
00d1
0286
f5aa
0733
0421
f9db
0422
f5e8
099d
fc19
0c0a
0a18
0f21
011c
f6db
0a4c
ffa9
f2c0
f038
fe15
f748
fb94
f02a
0603
fd9a
ef84
03d0
f70f
f1c3
fb43
f17d
fa61
ff98
f1d2
f1aa
fabe
f8b0
fe1e
0dff
f708
0b74
f6b3
0870
ffb7
f207
f1b9
0a56
03bb
03f4
fba4
0eb5
fcf3
f78c
f4a1
0213
f50b
09ee
fbad
f48c
005f
0c42
f8d4
f294
ff46
f46c
fc4c
023e
073a
f6aa
f0ad
fe5a
fc39
0ce7
0977
fbea
ef76
f2fc
fc7b
f8be
f63b
020b
03f0
09fb
fe7a
0d82
f590
0acb
0538
0cd9
027c
0752
fd6d
f5ee
fcca
f497
efeb
04af
0a41
f014
0d6a
0884
f87f
0255
fa6b
08f8
f3ff
0d61
0db3
0917
f932
0ae3
f3fc
ffc7
0a0c
f9ac
0c71
f832
faa2
fe00
fbe4
069f
f06e
071b
0154
f44f
f516
fc7e
053a
f27d
fc2b
0671
0936
04ee
08c7
0480
0b03
f48c
faff
02c0
fb15
ff19
0de0
016a
ef66
0b1e
f733
01bf
072f
f454
0718
f540
0049
f59a
09ac
0e04
f383
0c68
f306
fb20
f231
f6e7
f9cb
042e
0172
f522
f706
f9e6
0d7b
ff63
f31d
f671
fc47
048c
040b
f274
0c2d
0b78
06d6
0028
04f1
efb4
fa67
f02f
fabe
f967
068c
0930
0301
0d24
f7e2
08fb
0edd
f686
0972
0c5d
0e35
f370
0993
f918
fd48
f3e3
f0e4
f813
fe7b
0739
f514
0804
f7ba
0573
010b
f4e3
01ad
06da
0cbd
099d
04d9
109c
0dc0
f540
0711
fb6e
03fe
0219
0198
fa50
f6e1
0b0c
f82e
fb99
0759
058b
f351
f40a
f58a
f843
f69b
0c17
fb45
0285
feef
ff8d
0e13
0d15
f3c4
f56d
ef95
f0b1
f982
fbe1
094d
01ae
0675
0751
ff62
f3e5
f4f3
fef3
0b3e
ff63
06c6
0676
0437
0755
0aa6
fbab
ef5a
f6ac
eef2
0adc
ffd9
02b9
00ec
f7ba
fa65
0bac
fa43
086b
0259
fd45
fe0d
f9a3
021f
012f
fab8
04bb
022e
f7ad
052d
0212
0d77
053d
fef0
0d14
0d8c
eee3
fcb6
0c77
eef6
f597
f1c7
f6b9
f513
f669
f06d
f9e0
fe96
eecd
0016
0985
074f
f2c5
efb0
fcfe
fa40
f8e6
0de0
07ae
07dc
f6b9
f392
04b0
0842
f44e
0294
0aea
fe47
0cd6
eece
0908
03d1
f6f7
0a9b
f950
08d8
0dc4
0a97
fcb8
0625
04af
020c
075d
0720
f009
f7e0
f0da
fdb6
f50e
f644
05ca
0a27
09ff
084f
f889
f47a
f314
f9fc
f211
f905
0816
0803
ffe2
fd76
f233
0333
f1b6
0269
0b1c
f3ab
f501
01a7
0613
f770
fc9e
03f8
feb8
fe45
f80b
f0b4
