f54e
0e11
03af
04c9
f7a1
f2c5
f5ef
0c04
0c86
01b8
fea0
f9c7
f4e7
0c42
0356
fbd0
f312
0e02
086e
fbaa
fd7a
f439
f9d2
05f8
f854
0678
fa0f
0a71
f94f
0892
f139
f39d
0368
00cd
ff2a
032e
00ac
ff31
0dc3
f358
0296
0378
f260
112b
0db2
f550
fe26
01dd
0b82
0caa
f743
03e2
f4d0
0546
fef0
0a93
ff0f
0b8d
f731
fbca
f89b
f454
f7a8
f02b
