fb0d
0f2a
0861
fe80
0c4b
f1a1
f24d
06a2
0e04
ffa5
f2ee
f234
f647
0e63
03ae
f07b
07f2
f216
087d
fdf7
0e34
0207
fae3
029c
0f31
f266
ff5a
f4e8
07d2
0dda
f221
f002
0c26
fc34
080e
029f
fa5a
0181
f624
0ef9
f5dc
f815
fa22
f2e2
f413
fd0a
02f7
068a
fd03
fc77
07b1
f3e1
f5c9
01d4
f39a
0d4e
f9b0
0b95
f238
0c8d
f3a3
02f6
066c
0fa7
