f56b
09e1
fdb6
0a8a
02ec
f393
f442
f6ce
f0a4
f68d
f0b8
fcbc
f383
f3cb
eead
fbb2
0121
ff32
fbb9
ef8b
fcc1
f057
edea
02a6
047a
ec07
fa4f
fa5a
f50a
fc74
fb4e
07f5
0821
0e44
ea31
fad1
f3f2
f3c5
0c7f
f8c1
f756
f967
fe9e
0d3a
0211
fc97
ffb4
fc14
f11b
0b95
33f3
020b
0049
f159
ef07
ee72
ef97
038e
082c
f08c
fc59
02a8
fb56
029f
00ef
0e12
f6df
fb6f
14fb
f637
f52b
28b1
0c1c
f409
0838
032f
0d9a
f2e5
eeb0
0be0
ef14
f27d
104e
e8d7
0136
1e7b
f8e9
0274
fcd8
0296
dc74
f162
f626
e9f4
f8c0
0bfa
ff6e
fff1
f4d5
0a6e
e61b
ff01
f446
f227
f483
fff2
ea84
ef1c
fec2
fc9f
f78f
f5c0
045d
ffbf
fa18
0915
f557
f03a
ec7c
ff13
fca9
f042
f64f
fc55
086e
f1bc
15d8
feb8
f985
fc28
22b8
f0ed
0589
e9ed
0236
e61a
f119
05d1
f9bc
fe21
f148
f997
fab0
f4f9
fcbf
0f1f
f29d
f7e8
e960
f485
de95
fe35
f71b
f69e
ea61
0026
e9fc
f16c
0c18
feb1
0bb6
e413
f1bf
189d
fb98
edf1
fdb6
f9d6
0df1
f926
0278
08a3
0852
fedf
fda5
0180
eb61
e910
ec98
f7cd
f240
0d63
ef8c
ff2f
f36d
fa8a
f153
00a2
f963
fcf0
ed5f
febb
f2c1
f565
f90d
fd8c
f484
035e
fd2b
ee50
f6e5
04a2
0623
0137
0892
e4bd
f578
0c3a
f611
fc2a
fd2e
169f
0c86
f362
ea9f
eeac
f0e6
2c22
080e
08ef
efea
f4ea
0904
f502
0461
12d8
fa40
faae
e55f
033c
0796
0637
f584
fba4
f940
f7e3
fc57
00ae
ff52
0e03
fd80
f4a3
f160
ff51
00f9
0588
efa8
efc0
f7ee
0a2e
f71f
fe80
fc37
080d
e94b
0509
fc0a
0b50
fa23
09cd
067f
f262
f217
ef77
fc9c
f878
072f
fd1e
edb0
f8a9
1776
fc4b
f317
f8b5
2261
f84e
f640
f4e4
f346
080e
fe8d
fa99
1073
efa2
fe8b
0736
ff3c
fabb
f2d1
f6d8
ffad
f29d
f6d2
f23f
f6f2
f959
0dce
e160
ffbf
f7f1
fd43
fb4e
0272
f606
f2eb
f038
f5c6
ef21
01de
049e
ed3f
f20f
f7a8
f7fe
0448
0a67
f700
099f
00dc
ee59
0450
0253
e474
0a56
f19e
ef38
031b
e80e
02ae
05df
f44f
f349
00a3
ec60
f49e
046f
0678
075e
f47c
f5f9
0f5d
0419
f392
fd11
05d4
e7d5
f43f
f596
ef1f
ebe0
f935
f858
fe30
e906
f0f1
f1fd
f4f8
f39f
f34e
01f5
0ab4
ea3c
fff8
fde0
fde5
f62f
fa67
f869
f27d
f5d7
e346
0a83
099b
0732
ed70
f149
0122
f542
0036
f1bc
f369
0915
e5f6
f137
fc9d
fb89
ffe0
0748
f595
073e
f31f
ec39
fe2d
f0ef
061c
f501
fe5b
f72b
ee8c
09c8
ff7a
0c8e
0ff1
0225
14df
effb
ef79
fd4b
fb22
ebe8
ea36
0961
0869
f005
f7e4
0750
00f7
f056
039e
ff75
f493
0278
056f
04f8
00e1
fc57
025f
0237
0003
fba4
f247
efcc
007d
f072
fa5f
0b03
efcc
f5af
2c35
071a
f062
05e9
fea3
fdfc
0375
fca0
f00a
f5af
fa75
f989
ec67
f2e9
fdb6
e2d0
0bc7
f29a
f446
fc37
fbc3
0470
f243
2bb9
e890
f438
06c0
f972
fbae
fd49
05d5
e595
f598
f786
05a2
f127
007b
0b56
f389
0185
f831
02c8
f766
f744
fd0b
1cbd
08a7
f3f2
09d9
09ea
0cdb
e799
0263
fe2b
00bb
efcf
fa43
0e2d
04f0
fbdd
f5f2
01b3
f25a
050e
ffbf
fad6
01c5
f507
f11b
0391
fd6b
0172
e708
02eb
f82e
fb3f
0a0a
f15b
1abf
028a
060c
debe
0625
f778
f10e
087a
fa5e
f3a9
eca0
f352
02e6
0a5c
eb80
e886
07ff
f147
177f
f18b
fe89
e3fa
0573
f3be
ea05
ee60
0e42
f816
03b1
f879
f8f2
e650
f453
0b71
f988
fe6e
007e
f49b
0310
f997
f4d3
faa6
f088
f4ef
ef84
fda5
f168
fef9
0ce5
efc4
ea39
f937
0d43
f693
f67f
01f2
fbcd
0590
ee6d
0832
f917
fdcb
ff56
14ef
0628
eec8
f0c5
ee8e
f88a
fa9b
f31b
00b7
04a3
0660
1d59
fbb2
fd6a
0ded
e707
e566
fcac
eb4f
f637
fbe2
0969
f39c
f22e
f626
ff76
f138
0404
014c
f51c
0d7c
ffb9
ff81
efd7
06b0
ec57
fd6d
0e8b
0793
eb24
f0dc
0b34
028b
0751
0210
ffbd
fea6
f75e
01cb
0675
0d19
f159
f61a
f8cd
041a
0061
f3d4
fffb
0534
eef6
fc29
