f5df
09da
03c4
0da2
0a37
f90a
f6f4
02d9
f0db
f81e
f2e9
fd28
f5b1
fca1
f2ef
fcf5
040b
ff22
f464
fafa
fd98
fbd0
fa78
033a
0746
f2af
03b1
fb96
ffcc
0364
fcb0
08a0
0a8a
0cd3
f270
fa9c
fe72
fb08
0dd5
fb67
f841
050e
0371
0f46
032e
0154
00cc
fcaf
f3f1
0ccd
0ed0
0631
0307
f22a
fbb6
f1cc
f11c
0825
0a45
f56b
ff03
04b5
07c1
04a9
014a
0e8c
fa32
f6ac
0fdc
fdb9
f6d5
10c3
0c48
f60a
09b3
03cf
0f71
ffb3
085d
0dea
f718
f278
0c0a
f7ab
074a
0abd
0b3b
03e7
002b
0dbc
f2b9
f188
fcb3
f056
f99c
0cbf
0198
1032
f72e
0451
f69a
01b9
f758
f37c
f4b7
0683
f520
f0ee
02cb
fde7
f987
f617
03e9
0038
06f3
0ebc
f6ae
f11b
f040
0177
fe77
f2a6
f828
011a
09f1
f230
0c70
0218
f9d7
fc81
0539
f315
0e5d
f978
060e
f0ba
f126
088e
fb62
feec
f364
08e6
fbbb
f609
05c1
0f22
01c6
0e31
0072
02cd
f7ae
ffd8
fa08
f83b
f1cc
010c
f66e
fb6d
0d8c
ffb0
0ea9
f21a
fb79
0f9e
0d84
f5c5
032c
fbda
0fd1
fca2
072a
09ef
0952
ffa4
ffc3
0245
f914
f125
f6f1
fc2f
f493
0f60
0137
02c9
f586
0206
f223
04b2
fd08
fce0
f65d
01e8
f30f
f591
feeb
05f6
fd82
05cf
ff92
f503
f700
06c8
0814
01ed
0c1c
f665
0094
0dea
f771
fc2e
06b8
0f7c
1078
fb9c
0008
f02e
f277
0fa6
0922
0943
f20a
fe05
0a90
f57d
08a6
0fa6
fa64
0038
f458
0673
0bf1
0546
f5ef
0d7e
03af
fb1a
01f7
03ed
02bf
0ef9
0577
fadb
0277
0443
0452
075e
f26e
f394
f975
0c6f
f8de
0319
ff3c
0880
f177
08fe
fc80
0bd8
059a
0d1a
1174
0117
f3b0
f7ae
fcde
fb63
0874
fdfe
f01a
ff5b
0e73
fc9b
f9f7
f8b4
01a6
fbed
f9de
02d0
090f
084e
01b3
0062
0c16
f0b7
f9df
0de5
0049
fafd
f634
fadc
058b
f5aa
00f7
f6aa
f793
fb13
0ec7
f9f1
0567
fa07
0091
ffca
0487
f70a
0191
f8d9
0087
f273
053c
05ea
0ae7
f4b2
f8cf
004c
0649
0eeb
faeb
0ab9
0c7b
f397
0499
02ce
fd53
048c
fb19
f853
075e
f928
0305
07a3
f82c
f3df
04e4
05d0
03a0
05ce
0e05
0768
fa5f
0b14
064a
0ccd
0a68
fd7d
08a9
fa1e
ffed
f690
fc92
f927
fa40
f955
0422
f505
f308
f829
02cc
f93d
f48c
0422
0c4e
fa4a
0602
007d
ffbb
fae2
fe53
f9a2
fbe4
fa95
0798
0eb7
0e63
091d
069f
f823
02ab
fcf7
019b
faa7
f577
0b51
fe29
f5b6
fce2
fba1
08e8
0e6e
f473
0a5b
f4b0
fd49
fe61
f2d4
09c3
f586
ffa2
f82c
009b
0bed
00b3
0c83
0d37
0f2f
0ac0
fda3
f573
fd83
fe95
02d0
f2d6
0ad9
0827
f61f
f88a
07bd
04bc
f34e
0614
0b3b
faae
05b0
0643
065a
0150
0542
098e
0360
00a7
014f
f33a
f02a
03b3
f11a
fda0
0f4d
f118
f67b
0e0b
0a6d
f23f
0961
ff54
03f4
0550
ff16
01cd
f8bf
fabd
fa67
ff37
ff39
f95c
f4f5
0d29
f8c1
f485
fe3e
fcff
04e0
f2fb
0b70
ff96
f555
0cca
f97a
fc4e
0a11
0e15
f2cd
08a6
f7fc
07d5
074a
0b87
0bfb
f5bf
07c6
f91f
0364
f8de
f6be
031b
0bff
080e
f681
0aeb
0d49
0d37
fc48
0ac3
0010
0517
f1c7
fcdc
0edd
098e
fd09
f995
08f7
f59e
0641
0e02
fcab
035d
f86f
f27b
0797
ff10
03fa
f15d
0707
f89a
fb60
0e5d
f8ef
0f27
098b
08ff
f22e
0631
f969
f537
0948
fb73
0d77
01a3
f508
0798
0a61
f3ba
f36f
fbee
03a1
0d0b
f236
01b1
f601
03cd
f4aa
f350
f38d
0f5e
f912
05c8
0301
fc7a
f94e
01a9
0f4a
fb8e
012c
0138
f7d8
0c55
fd03
f942
00e6
f321
f5a7
00c9
087d
f13d
0347
0ed6
f0cf
f326
fc58
0f51
f8e1
f89c
071b
fe1c
087f
fd1e
0b8f
f977
fe27
f4fb
0caa
0164
f53d
f412
f6a9
f88a
fd52
f51c
0137
0930
0a95
0d04
fdf9
0052
0deb
ff93
f76f
08b4
f3fc
07d6
fd2b
0d3a
fc3f
018e
f6c7
0a05
f948
04fa
01ae
fadc
0e3f
0023
fe85
04dd
09fe
f178
fdb4
0f18
0bb6
f2b5
f117
0e4c
047e
08e6
02c0
018f
0093
0496
07d5
0a43
0e92
f5f9
f9ab
fa75
0a87
01bd
fc3f
0166
058a
fc6d
015b
