0911
0beb
f7c6
0ba1
0293
ffe8
f2df
f1b1
0d36
0ca9
0cd4
f396
f2d8
fd8e
fc40
0cf8
07a3
0bee
08e1
f09e
0570
0e08
0a87
07e0
0407
0d06
0739
fc99
0697
f14b
04fe
f104
f2e6
f570
f8ba
0a1f
05be
f094
08a4
f994
fdf9
0a01
0e00
fc71
f6c7
fe8c
0589
045f
fd63
075d
03e8
0449
f8c5
f4e5
f39e
faaf
07de
ffd9
02a6
f814
0ec8
f738
002f
06d7
0204
f94b
0d0f
f51a
0c27
0ed7
f501
f8cc
09b4
fb48
03df
f73c
f61a
ff15
0d1e
f7c4
fb22
0a5e
0cf8
07d6
0211
f83f
fb66
006b
06c9
00f9
f242
08cb
021f
f182
0dba
fef8
00c2
f3ec
f056
fac4
f9b9
0307
f51b
00cc
f83a
0959
f543
04c2
0702
f312
f4be
08a3
f75e
0a02
fefa
0d42
00ee
0f4e
f1fa
06d4
f1a8
0d21
07b5
fd6b
eea3
0937
f27b
0961
f5a4
fc98
fd97
f83e
f835
0cfe
f48e
f50f
026e
04b1
0c82
f587
fc14
0300
0c23
016a
