fcae
f3dd
fd51
f252
f5ce
f183
f789
f77a
0cc9
0e15
fab2
f383
ff94
0cad
08de
ff7b
fb92
fc49
f79a
f41f
025b
fccd
0e04
f1d2
f2e7
0e56
f74d
fb13
f14c
075f
0a25
f54e
04a2
f060
048b
fe5f
0163
f5e5
fbaa
f959
05db
03ea
07a3
f5c2
08c0
f26e
ff70
f99e
0dab
fdd6
0037
08b0
fe36
0049
0a0e
fbfc
fb10
0952
09c2
0ddc
0477
00e2
0bcb
0172
f682
f727
03c2
f972
0ada
02a0
feeb
f60e
f718
fdca
fd93
f557
f9ba
f5b0
f72c
0d6a
0cbc
0f32
f822
f84d
fdf3
fcf5
0339
f371
02e6
06aa
f6e6
f9fe
f280
f3ac
fd59
f82e
f956
0008
0970
f0bf
ff88
fe90
0d98
025f
0e98
0738
f75b
0143
0088
03d1
fbb0
f744
059c
0f84
ff7d
fc6b
f0f8
0c2f
f309
05b3
0d18
f84f
f455
0948
fa89
06fb
f342
08b2
0c50
04b6
06a5
fa77
ffa4
0cb0
0621
f63a
ffe1
0375
f0dc
ff3a
03b0
07ad
0cc9
0b48
0994
f772
ff7f
0231
0c26
f536
f5a0
f0c4
0f1f
0687
f1aa
f220
ffbf
059b
0078
fed0
f12f
f2e3
09b6
f46b
0ef6
09c3
04d1
0469
06c7
004a
0929
fe4c
f292
fc5b
fd9c
f40a
0a64
0a2d
f553
097d
f1b6
fd27
f935
fc8b
04f0
fdad
00a1
03ec
f053
0f43
fbb5
facd
f51c
f627
0e66
f332
ff7d
0d4b
f173
fd4e
fd2e
076e
0188
0f5a
f889
0e25
f99b
063a
0615
f3e3
0502
0522
0fce
00ee
f58a
f549
f0ef
0538
fe88
01be
f5ee
0f55
0bfc
fbc8
f4fa
0b1f
f5df
f3ae
0450
fd7b
02b3
fbc7
ff39
f6fe
fc1f
f91e
0a42
028a
03b2
0f71
f809
f874
075e
fac5
0cd0
f825
028a
0c1e
02e7
f35c
0a2b
f0b7
fd61
f57f
02f8
f9d9
fd57
fed9
f4f3
f2d5
0616
0630
f202
04db
043e
fa0d
fce5
f0f1
00da
0a10
06c6
fa37
08be
0ee4
f33b
fd64
00e8
037f
f2d9
f84b
fddf
0bd5
f4b4
00b0
0062
f8c7
fe73
0e02
03fe
0552
0610
0e44
f8ff
f21f
f761
0540
f80d
f6a2
fab0
f025
04ec
08b1
0329
0aa6
0545
fc2a
0c7d
fd2e
fa3b
ef7d
fe77
0909
fe4f
0835
fee4
f0e8
feef
036b
f564
f4bc
f619
06df
fabf
079f
f789
0842
f2c7
0d24
f5cd
0245
f86d
f8fa
05a4
012f
047b
0e1a
fd5b
0585
f6a7
0465
0440
06a7
f78c
fe55
0891
f3c6
fe73
faff
035f
04f2
04f3
fcea
f7d7
010f
0a9e
0359
0b99
0a6b
025d
f83b
f9f6
046c
0140
f394
ff1b
047c
0dd8
0439
012b
0679
f6ad
f1e0
004a
f31e
fce5
0f74
f340
fe38
fb78
0879
f5e9
0834
0d9d
f435
03db
0ee9
060c
f300
0b85
056e
00b3
ff49
077c
00e5
fc5f
0068
fae6
f821
f788
f48f
f129
fdee
0280
07e0
05c3
fb3a
05a1
f092
075a
0659
fa94
fc64
fdf6
fd8f
f879
fd96
0885
f612
0c2c
fc79
0a14
fc4a
09a5
07ed
0929
056f
fbd7
0e28
fdeb
f6b3
fa40
0a71
0869
0f64
027a
f536
004c
f4b3
0b6f
0c18
f646
fcd3
090a
f287
07cb
fa0c
f35a
0a3d
00e9
f41a
0579
ff7b
0ab4
ffa1
f482
01b9
f5db
f197
0d7a
0617
0c04
0bab
0274
0f89
036b
09e1
efca
0f73
00b9
f713
0231
ff24
ffc0
0add
096e
0cbd
078a
0287
f26a
0710
f7c1
03d0
0c3f
052e
04ff
0f5a
0878
0260
0b67
0268
f056
ff43
0d8d
f3c9
0af2
f68f
f0dd
f15a
0180
0386
ff77
03f5
fb74
f602
f3c9
f5e0
f8d1
f661
f142
010b
f478
0434
0622
ffc2
f3ac
0b97
00fc
ff7d
f85f
fe0f
0b20
f685
01dc
f65b
f325
044f
0e1f
f450
fd2d
f27f
f540
03b1
0db0
f1fd
022a
072c
0b58
f188
0779
0dbe
0f58
003f
f421
0b4d
f58c
f0e2
08f5
fc96
0dd2
f966
fea6
0aa5
f951
0498
01ad
fa8b
f099
0b37
fae6
f591
0c99
fe13
0519
f39a
f19c
fa80
0f7b
012c
f90f
0842
0673
fd14
0a02
0fd8
fec2
f2fd
f59d
009f
f680
fb6f
fabe
0cf5
f1d0
f59f
059b
fee7
07c8
f5bc
0d2e
078a
031c
f34f
01fa
f99b
f42d
f22a
fdf5
f6ca
f7b7
f066
0ca0
f1b8
0cc2
f631
fe85
fa9c
f2e0
f33f
f983
f9d5
0fda
f1fc
f984
0846
f26b
f17a
0422
08b1
002b
f2d7
0cf6
0103
fab2
f040
f378
f950
f16b
0a6b
07c5
055f
0342
067c
0619
00d3
08e5
01b7
0758
f921
fcb0
f1f7
0373
f416
08f6
07b7
0194
facc
f359
ff86
0c6b
f18c
0974
0990
f23c
0e08
077e
f2c1
05d8
f426
f3a5
04c3
071a
0464
07de
f386
fa85
02a9
07ad
0f0e
fbb7
f782
0bbd
fbcf
0784
f2c0
05db
0312
f67d
f68f
0940
f2c4
fc6c
fbc1
08b3
01a7
f753
f4db
f966
0489
0904
f798
ff7f
f338
00fc
f2cc
f377
031e
fcdf
0904
0ec6
f356
f954
fdd5
061a
04db
f5dd
0838
f36d
f876
fdd1
0dcc
0987
ff8c
f8a4
fda1
0899
f124
fe73
fca9
058b
0383
f1d7
0636
f2c0
fa09
f3e0
f004
08b4
f40a
fd5f
04ea
f36a
f413
070d
0428
f2f3
00f8
f409
f469
f556
f9e8
0c3f
f634
f6d2
0642
fa1f
f800
0199
f5bf
0d1b
f9d8
f6c0
0690
f52a
f276
01ab
03dc
0f90
fc78
fca5
f54c
f222
0f38
f819
05b9
fca4
03db
f527
fb15
f4d7
0806
05b4
fc06
0bbf
f93a
00f5
fab6
fd83
0a90
f959
fb50
02ed
fe41
01a1
078b
f3c7
f9f7
fd5c
f08e
04c1
fd84
f911
0e87
0de4
086b
07c8
fe93
0812
f32b
f78c
0777
05a2
fecd
0a57
0517
f6b4
f56b
0c64
f315
f527
0055
065e
013f
09cb
f4b2
0585
07b8
0e48
f0ef
f39c
00c4
fca8
f80f
fa62
fd28
f06c
0175
f58c
0d5a
04b3
0d40
fde3
0d9f
093f
f813
f505
0249
07e9
f74a
0542
fd2c
f1fa
06af
fc46
0888
046f
09e2
fa0d
0b36
0e49
09f2
0013
fe03
090b
0429
f1b4
0bb4
0fd5
0323
0417
f716
fc35
fb41
04cf
f45e
f0c5
0714
074c
fd5f
fbc5
0226
f5aa
0ade
f599
0e6c
f6fc
044b
f834
fbd2
f5a2
0d36
f291
f139
06e4
fc1e
0cd5
fad5
03fc
0985
04a1
f068
07aa
0a01
0244
f7be
fc41
00c6
fe42
03b8
f8a4
f717
09a5
010a
0f81
0f61
f2a4
f202
f0be
0978
0de1
f07c
00f7
03d0
05c7
0c3d
f440
0906
0cbc
f6e7
f5d2
03b7
fd1f
f147
0e09
0f5d
f344
fb20
0e10
0577
fa9b
f95b
0f61
051c
05b7
0844
f7af
00c4
fd18
0293
0056
0312
0185
f285
07cb
028c
06f3
0faa
fae4
fcff
fb1d
0c42
f6c9
0ecf
fe6e
f3e3
f9cc
05f8
0d47
071c
f016
0873
08fd
0ae7
f154
fc18
f72b
ff44
065c
f87b
03d4
0726
0551
f75e
f5a9
0dda
f317
0a72
f360
ff9f
084d
f5a2
f608
0c99
01a7
f58a
f31e
089c
fabf
f152
f9ec
f6ae
0053
f33f
fffd
0cff
fc70
fda1
041e
f1a3
0fca
09ea
f45f
0d4d
ff63
fc71
06b7
0c66
0d72
0395
fae3
076b
fcc3
0dbf
0489
07c5
f3fc
0a85
0a8d
fa4a
0186
fb63
01a5
fa57
07fa
0f3e
038a
fd2d
ffee
fa7f
0e42
063f
0a56
f09a
0ef8
073a
fb6a
04fa
0689
050f
f8c9
03f0
f185
f729
02e4
fb28
fe5c
0b39
f42e
f7ad
f8cf
0a8d
06ca
0734
f451
02d2
0025
fb40
fba3
ff76
fe25
09b4
0bd2
0e9f
f11e
051d
fb51
0eed
0288
039d
f5dd
0567
09e6
f099
04f4
f3eb
f2bc
f75f
f85f
0f4f
fcbe
f7fd
fa68
f3d8
0db8
f4dd
0c47
fc9e
fb22
f2f4
f155
fb21
01ae
f1ce
0795
05d1
f971
0965
0c44
f13e
f609
0bdc
0d4b
06d8
026a
0961
070b
f239
f919
0129
0a9c
01b5
0f50
fda7
f869
06bd
ff05
07f7
ffdc
f427
08fd
047f
ff00
08d5
f9c0
fb8e
0565
f43f
f982
f90d
f06d
0dce
0972
01bb
0f4e
0cb5
02e3
0156
f09c
0c32
0729
fe43
0e27
0267
04ae
0086
0a54
02bd
fbd7
0af2
0bb5
0dc9
fbb4
0dd2
0532
f208
0da2
f654
fcc4
09f8
0492
0526
ff9b
07c6
0f4b
fe9a
fce0
0b69
f80e
0ead
fc34
0921
0b73
02a0
feaa
0c83
f4ad
f73d
0159
0cba
0cfa
0837
058b
fcfe
0c36
053e
f899
f91c
f3d3
06b2
f8d9
fc44
0aa3
0c73
ffce
037d
0a45
0629
0255
fa33
0c02
0557
fe56
06e5
fe0a
06ac
f099
fe0f
f3b8
f7bc
0163
09fb
fac9
01ce
fa4e
fbe6
fc73
fc7b
0e02
0a55
0029
06af
f424
04b5
fc7d
f1e0
f285
f96c
f2d1
f503
f022
f473
fa26
0109
0404
0b1b
0f70
fa6d
0eaf
0167
fdef
01d2
0062
fffd
f213
fdba
0365
0c4e
0a57
0a05
f1f1
fc84
0c36
0dc6
0ca0
0368
f618
02ce
09fc
f844
fff0
00c9
f642
0eca
0700
fe63
03b8
faf5
fd8b
0602
004c
0183
0626
075d
f4c4
fda8
fb82
01c0
0aae
fe7e
fc22
fd8a
08dc
0895
05f8
0658
0749
0e13
f349
fc44
f16c
f080
02b6
f742
0ba3
fe94
0aa7
f25f
0564
023e
0321
ffe2
f3d9
f1bb
f6c2
054b
f1bb
f4c2
0a91
0ba1
f065
0394
f314
fdaa
0074
0d07
f359
01e0
0b5a
004c
f00f
0d75
f423
0853
0f84
0009
003e
f2a3
f887
02ab
04f0
f338
0865
007e
f54b
fdf5
fe73
0dcd
0df2
0acc
02ad
04d6
00de
01ac
f788
fcfe
0597
025d
f38e
fb86
0b96
fe24
f965
fcba
f474
fc9c
fc41
f81c
0a78
fb52
f290
fdb0
fd72
0689
f811
f3a3
f7c5
f94d
ffa5
0916
f25b
f707
f48d
fc72
efd2
f885
f014
f5ef
f593
f468
0e00
fc0e
02f9
f6fc
00c9
0c9a
ff4c
f874
f218
f0b4
0eae
fdd7
0e5d
0838
f571
fda8
f006
05a0
01a7
f747
065d
f6c3
fba5
04a3
08b1
0c5f
0b43
0363
02d9
fcb0
0cf3
fa71
f9f9
0ce6
0b1e
fe1c
0103
faca
0ce2
06ea
f5f6
f0f2
f5ba
fa29
fcc3
018f
f7c2
0153
f89f
f4c4
f170
f7a0
0e6d
0dc2
f58e
f005
09f7
fb52
fa0c
0713
f5d9
0645
0426
f941
0867
0169
ffff
025e
fde9
0829
07b4
04c5
fb13
f63c
f3df
f2c7
0541
0003
f484
fd7f
0687
0124
0d12
f81f
f8b0
fc4f
f01a
0de9
f055
056d
f1c6
05f3
0abe
fe57
06fa
0f14
029d
04c4
0740
f3b1
f912
fbec
f1c4
02fa
0283
0f3a
0ea3
f5f9
0dd9
f4d3
f62b
fc7c
fcaf
fad7
f8a3
fbe1
f42f
03a1
0932
fde9
f047
f760
f2ea
0255
fe46
0251
049b
0f0a
f1fb
f707
0b02
ffcc
0ab2
000d
f8ec
0e9d
f55e
07e1
03c1
f2c4
f770
0312
f809
0ba3
0741
09e4
0d30
f748
fcd5
063e
0235
0f5f
f2df
f1e8
00d2
fa44
0735
0a8c
005c
01cc
0b78
092e
07e1
f871
fa1f
f35e
009e
fe6f
f381
0f15
06cc
0b43
f829
f9f8
0d26
f2c9
f953
0470
0ac0
02b7
02a7
f615
0e40
f8ff
fe21
f1c1
0a3e
fc6b
0a6c
fa10
020a
05a6
f439
f541
f6a4
057c
f4aa
ff36
f0ff
fe5e
0ced
f18c
fc09
0194
09a2
0913
fb5f
0bbb
0f24
00c1
fa30
f238
0686
0473
029d
fcd1
07ca
08d8
f97a
0f55
f629
f814
f5a3
0fcc
08f0
ff1a
f236
fcbc
0906
02fe
069b
fb01
0d80
f5fd
f13b
01dc
fd99
0e42
f5da
07df
085e
ffb5
0070
0ea3
0dc9
0f99
0593
ff4a
0b1e
fcd9
f765
fc9c
0809
00e7
0658
0f94
0e9b
019e
0e82
f3a1
f18f
00cb
fdb1
f9ad
0cc3
0150
026a
014a
06ca
f072
ff1b
04f2
0988
f7e5
f528
f463
fb77
f8c6
f652
0c29
f5a7
f63d
fefe
0ecd
fa5e
fcb3
fcd2
0ab3
0bb3
09dc
0342
0887
0c98
fb97
fe5f
fdc7
faad
0673
0e83
02fd
fc10
015a
0ca3
076c
0145
f9c8
f2f0
0d41
f23b
fed2
048a
f5cf
f04a
eff8
f0c4
f3dc
fb3c
f687
f020
08e2
fe85
0733
fde0
fdaf
f2df
0afa
f143
02f4
0b82
f158
f7b1
0ed8
ff8a
011d
fec2
f6fe
0855
046c
f737
fb17
0d4b
f4f5
fd9b
f591
06ae
0c10
0436
0240
fc71
03f2
fa16
0ef8
f063
095b
f3bb
0308
0ffb
f770
f351
fcb3
fb7f
0e32
0c54
f6a6
f397
01aa
fe32
fec5
0aa9
0ea0
0540
f178
f907
0c8c
0684
f46d
0309
0cc5
faf1
0a17
f60a
fd2a
03c4
07e8
f4bf
0766
098f
ffba
0a66
f1f4
0800
f4da
0e4b
0793
fe73
0388
0c77
0b2f
0d9b
0276
f0ea
0aad
0285
0c21
fcd3
f4bd
f7eb
f0f3
f473
fa27
07a9
032c
fca7
fc99
f506
fa02
fc0f
f5e4
0874
035e
f30b
f754
077e
0a4c
0089
05f4
f92e
fa35
0a27
f9b9
0a76
096b
055c
fbf0
0186
f736
00d8
f884
feac
0f73
07f0
00b4
0317
0f26
f16b
0b36
f75c
0801
0f6a
0d88
011a
fa35
fce7
f66d
f2d9
efc7
f6c8
07b2
07a6
0a4a
0c2a
013a
0184
fb13
faa0
0e74
0142
fae4
0799
f0a4
03ca
f3b9
fd02
0983
0a1e
0727
08dd
0c68
f6f7
fb98
f7a5
faf9
079a
f3fb
f908
0d78
f502
ffd9
f198
0ac9
0fc4
02e2
f53a
fb24
f12b
fa6b
05a2
f684
f70f
0e87
fc7f
0dbc
fdca
0db0
0940
081f
efd6
f705
0a0a
0321
0d45
01e1
08b6
f974
f8e4
fa02
0220
fc3c
f682
09b0
0acb
0382
0a3f
fefd
0f8f
0566
fc8c
f649
f7ca
030e
0974
0abe
0213
f344
fb28
062f
0a31
fd87
0784
0805
0e67
f8b5
fc49
0224
03bd
fdad
0b10
0292
0eb6
0082
0c11
f2be
f2d7
fde2
0002
0ce3
08dc
f47a
fdf9
f96f
0396
0aba
ff29
f81f
f5fc
fa7a
0958
f761
0eec
0f5e
063c
0ee1
f508
fbc9
045e
0b2c
0f3f
06e7
fc7b
0189
ff2c
03e5
0d7a
0409
0c4a
0f9c
0cb8
f645
fcc2
0fc2
fca5
0511
04c2
f34c
01ea
04f7
f110
0e8f
0089
03a6
07b7
f843
0e82
05fa
0c27
010d
005d
fa46
f0ba
f19d
f716
f363
04ac
f8d1
f9a6
f1d9
0be0
f704
f891
fdfc
07fe
f36c
f164
032d
0f2d
fece
08f3
0b1d
fa5d
03ee
0312
f0e7
f72f
02f9
0035
0252
fe1c
fccf
f395
0193
0bb4
fecd
09b1
f17a
fe77
065d
f6d9
ff09
fe7b
0788
0f0c
fab3
000b
09b0
f1f0
f635
fe35
fbdb
0a54
f5fc
0e47
03dc
08b6
f0b4
0102
04cc
0c0c
f59b
0734
f060
0d6d
f2fb
f936
f1f5
029d
0bac
00b9
0466
f1cb
0603
04d9
0a1f
f697
015f
fe12
03f2
066b
f29c
094b
0ea0
f1d1
05f3
fb0e
0e7b
0898
0e2f
f22f
0d08
0070
f667
08d0
f9b6
0940
fa42
f513
f8d3
0a91
0b62
f77c
0a56
0245
0662
fe16
024f
097d
feb1
f92b
fe24
f8d6
05db
07de
f409
0d2a
f855
f3ce
0d5c
0619
f5f4
f4a9
0a48
ff92
02b6
0704
04b9
f257
0d8c
0c41
013b
f11a
fb75
f8e1
fa3b
f9aa
0f02
0ee8
f3a4
0d77
0cd2
02a6
f47a
0009
0649
fabd
03bd
f0ec
00ee
fac2
0259
f110
0aec
0dc3
0a60
f7aa
f14f
f1ba
0319
03a9
f09f
f386
f211
05bb
094c
f207
f45b
f787
0b49
093d
f7bc
0620
f2f8
f348
0743
04e0
052d
f0a9
00bd
f3ff
0f0b
fa97
f4f3
0f54
f441
f994
fe0f
ff43
0888
f8ff
052f
0216
086f
0d65
0ebd
0f3e
080e
f916
f971
fd78
01a9
f8a5
0dae
02ec
097b
f231
f674
ffdf
f993
0441
04a5
0978
f399
0d74
f777
0081
ffee
033a
0acf
f8db
04c4
0f21
f980
0d63
f659
fcb3
0061
f39f
fd7d
f9f7
fcdd
f35d
0632
f971
02e5
f2ef
f9b9
f8dc
f502
01ad
0d1b
f017
0c05
f46a
f91d
f179
0ad1
099b
0019
0263
0d58
fcea
0364
f461
f58d
f6da
00b2
065e
f99e
0ff3
fd89
0a09
ffed
f170
fb74
f26e
077f
0a08
003c
00a1
f5d5
fbbb
09b7
f3c4
0a44
0cab
0364
0456
006f
0828
f078
013b
0b26
fc74
fab6
0a96
f2c0
0af3
f5bc
077c
fbe8
f42a
0c2a
0787
0f47
f18b
fe1e
fcc6
0615
fc4b
fe31
f4f0
0c93
fd0c
fa4c
f7d4
069d
f9e7
f9de
f48b
0be0
f0fb
f6e0
f2a9
081a
05c1
fec3
0662
01d1
0b01
fd4e
f809
01b4
fb5b
0dbd
0cb2
ff9f
fef1
f7e1
fcdb
02b5
fd99
f5d4
fbfc
0645
0b60
f721
f6c2
07b5
05c9
008b
f257
f472
fdaa
0b1e
0b92
f65e
f531
0878
0369
f019
fd78
015b
08a4
f1be
0282
00e9
083e
f556
f7fd
0c53
0720
0d26
f21f
f5ad
08b4
0381
075a
fffc
0b63
0624
fd9a
0569
0095
fc0b
0af9
f95a
01fd
0c8e
064c
0c2e
0dda
09df
f29a
fd8d
efd0
f82c
faea
efe1
f090
014c
0d69
0b47
003c
f951
faab
0b59
fa9a
f435
fc46
0609
ff05
f8e0
03dc
0e60
fe50
fe37
f2b1
02cf
0bf4
07ba
fec2
fed7
feca
ffbf
fdd9
0b81
ff6a
f752
0c6c
06c5
f292
f744
0bbc
f1ff
0b64
0de2
f449
04a1
f070
fc7d
0c97
03e4
0f32
ff49
f75a
00c0
02ca
fd8a
072f
fddd
f02a
036c
f7cd
037a
0e81
0c43
09e6
f2d8
f7aa
f442
f0ef
f00d
0bef
f2d6
02b0
fdde
fb1a
0558
f471
02c7
04a1
07fd
f7b4
f2c2
0abf
049f
0f10
0acd
0afd
f0ac
f199
0143
09b4
09a2
0da2
02d5
f1a8
f9b2
08bb
f90e
04bd
07e2
f888
fecf
01a7
0cb3
0e04
f8d4
fe70
0a01
f0e2
00c5
f324
0cc5
f3d8
0b78
0ccc
f5ad
0669
0805
0443
0a62
0e66
fac4
f0e3
fac2
f6b7
0929
029f
f0ab
071c
fd6f
ffbd
f8ab
f2c2
f8ea
faa7
fc8f
054c
f8fa
0618
fdf6
f543
f64f
fda3
f57d
f87e
06ac
f5fc
01a1
0580
0379
0dca
0e72
089f
f1b7
087f
0361
f869
fefd
0e51
0f6c
058f
fd51
fc31
fa99
fbe5
f0bb
0f4f
f63d
feab
01d7
0b14
0a6f
0d7b
fd0e
0fb5
0787
fec8
00c4
020b
0ec7
0479
0d21
0a30
fbf1
f03e
0eb5
ff3c
f4cc
fee0
0501
fe0e
0108
0c3d
f8d4
f1ac
f343
0f4f
036a
016f
0ab5
f7ee
0a87
f69e
f3ef
0ace
0180
0be0
0cab
ff28
f3ca
f6e7
0ab2
0b5f
f273
ff02
fd09
f40b
f87d
ffd8
0b9e
0ba2
f3c7
0313
f1bf
fe35
fc74
088d
06ac
0069
f1bf
fa8c
0c55
f882
fb81
f727
0c25
0b36
02b9
0d59
fd42
ff26
09cb
05ae
f14a
098d
0733
fa11
ff36
0caa
efdc
fb37
f715
f1f4
fce1
00e3
f27c
f3bd
f908
f1ff
fe28
0c89
01f7
f118
fb2a
0bc1
f44f
f3bf
fae9
f24c
076c
0626
0bd8
fe4a
01fd
04dc
051e
03d8
0bb0
feeb
06a4
04aa
f483
f9b4
00c5
f217
053e
06a8
ffc7
0d97
f777
ff51
fc25
05b0
ffca
f39e
0ab1
0ecf
0274
ffaa
f6b1
fca8
04aa
0828
0016
0791
f908
fc0b
f315
f25d
0865
0c67
0a29
f570
0b8b
0ffd
014a
0bb8
0b6f
0fb1
f203
f0f2
001e
0f5d
0d7f
fa9d
fbc0
020b
06de
0d5f
fda4
f033
0155
fef2
0e20
0f6e
ffc9
0f31
fe5e
f9d6
0058
fd8d
f682
06e9
0010
f5d9
0088
0141
0a74
0a2b
f676
0297
05a6
fcc9
f46f
0348
0401
f175
f6cf
0192
f3db
fd2b
0512
f553
ff81
f053
eff8
f4fe
f3ab
0e66
ffe8
0ad7
0f28
0b85
09ea
f0dd
f790
03ed
eff3
05b9
f7c5
fbf3
fbf5
023a
0ca8
041e
0f73
0b20
fb80
f800
f8b3
0f30
099c
0552
f28b
f2c2
00cb
f44e
ff15
0965
fdcd
02af
079d
fb36
f49f
0cf7
01f5
05cb
0450
0d9b
feb6
f500
08db
f840
023e
0d32
0da8
f7d7
0c2a
f58a
fa03
093b
005e
0410
fc5b
0318
0d0a
077f
f28d
0508
09fb
0d6b
f18a
fbf9
0c49
00ae
09b6
069f
f389
f77d
fbf7
f7cf
f164
07dc
f7ee
05b8
0f30
0856
03a2
fc13
f843
fedf
f62b
0bfb
f2cf
00e9
0983
01d5
fb30
fa12
0948
f188
070d
f659
0972
0047
0579
057f
0e0f
001b
f24c
f2b7
037a
0b24
0ce3
fa07
f47e
fbac
004c
fc7e
03b0
0f6c
0613
0fb5
f710
f1ff
07d3
fc3d
0701
fd4d
fa14
fd0d
09d3
0f70
f2f8
074c
f3a4
f07e
0434
0f35
f18d
f233
ffb6
f46b
0c76
ffa9
f909
feb2
f1f7
f867
01bd
0c8c
02fa
ff24
0de8
f666
fba3
03a0
fdd5
04eb
f8d3
f0ab
0bf3
007b
fdfa
0366
f182
0151
f66a
0b70
01ee
05a9
fe6d
f111
fbc6
f150
0e49
f25f
076c
0779
0ddd
f827
fb35
003f
0813
07e5
f7a7
0fa2
f369
02f4
f833
045a
fd9c
f2dd
f40a
072f
fe3f
fe52
04c3
fcbe
f7a2
0a47
0c11
0829
f9b6
0633
f918
f8d0
fdc1
f786
f009
f989
0dbf
fbc7
f91f
0b50
fc9b
ff8c
f5b7
ff3e
f88a
0b5d
01f2
0f9a
f0d2
fa94
f551
f7de
07ca
0e4f
0249
0476
013a
0d11
0c9d
f9da
f415
ff4c
f18f
fb2e
fe16
07e9
fc74
0c38
f91e
0737
f08a
f7ea
f66c
0ae9
ff7d
f6bb
0f0d
0ebf
efd4
02c3
0c73
068d
f98d
f5de
0b9d
f3a0
032e
05e0
f12d
0062
0e11
030b
f022
0bd1
f37b
01c2
098a
fb28
0361
0950
f795
f966
08d0
fb1a
0f8c
0cfb
f18c
f4f7
ff2d
0682
f367
0b05
09c5
f180
0022
f5e0
0345
f0ab
f7bd
08bb
0f81
ff9a
0367
f477
fa5f
01fa
fb0a
f586
07ed
f47a
0ad1
ef88
00b2
fabf
0965
0b80
f8e7
ffe4
06e7
0488
0d9c
0ecc
f5a7
02d8
0c00
01fb
0a09
f699
f11b
ff28
fc5d
fe6f
0e70
fdce
f06e
f7f3
0a96
0a32
0d69
0e17
fe5f
079e
0042
fc21
0791
0950
fe30
0752
fd8e
0aea
0f02
f687
fc73
00b9
fa50
f377
fad5
0079
fbf6
0a21
08b3
fa8b
00fb
f3cb
03f2
0209
052c
fb05
0b83
0cc0
fab0
f669
f661
f987
ffd1
0224
ffb1
f8a1
fcfd
0c5a
00f8
f06e
05f1
f158
f60d
ffdf
fb01
09ad
fc35
f774
fc6c
f183
f524
fa75
fbc6
0cf4
f664
0897
f9fe
0870
f232
f91e
0034
0e5b
05ee
0706
f4fe
f459
0db9
0764
f775
0ab2
0818
00a8
050c
fd0e
f702
0a10
08fb
059b
0a5c
febf
0f3f
0654
f9d4
0868
02d1
0816
f22a
0150
ffc4
0ee0
fcaf
0b75
f2f2
f335
06f6
01e4
0e01
0397
09f0
0bca
090c
0271
0025
08e4
f9c9
f1bc
fead
0ea9
075b
0a10
f858
09f3
0d09
0072
0d6b
f9f8
fe13
f16f
0951
0988
05b2
f6b5
094b
04c4
fbe3
0e7a
0c21
f7ec
038f
048b
01f5
fb63
fec6
fbf5
fccf
ffe0
0418
fb91
0ce8
f65b
ff52
0bd5
fa94
f820
f1a8
021c
0248
fdd1
f26c
0846
fe5b
01ba
f71b
0b2a
00f8
0271
04c3
fb15
0e3e
fb52
fadf
f952
0790
f7e2
f4d4
066a
062c
0c93
f902
efec
f9e1
f367
fbbe
02d8
fbe5
09f8
f2a4
f9ee
0f2e
fab2
0f40
0b5b
f764
014b
0792
0c3c
0673
0a78
f29a
05f4
f4e7
0720
f355
fe07
0b46
00d7
000f
057a
0e8c
00c8
099b
f215
0118
05b6
fa43
f8ca
f686
0c1f
ff2d
0340
f41f
f2f3
f484
fe16
0e5f
f4a6
0506
f495
f28e
0a3b
08ee
062e
f955
0664
0e1e
08cd
fead
ffa7
f71a
f758
0386
f8ec
feb4
f3cc
0763
03a0
f3d3
fcff
0a45
f163
f9ed
0dab
01ff
ff79
fca1
07a7
f6cd
0dff
f71a
0a49
ff58
f304
08c4
00f7
f196
f61d
0c94
0fa0
ffc9
0594
f0b3
02a6
0475
fcff
f274
052d
06d0
f747
f136
ff13
04d9
00c2
02e7
fc1b
f318
f781
fd00
fbdc
03d6
f6e4
f858
00b8
0b72
0b8a
08d3
fc3d
f8f5
0e56
f502
0373
0d30
094d
f39f
0b12
0d86
f511
0299
0260
fb22
027e
f04a
09b3
f85b
f714
033f
f806
f159
ff1e
ff29
f538
f841
0a4a
0677
f648
09aa
0b30
0321
0931
08a4
f661
04a7
faa5
0fae
f6b3
f617
f2d1
f790
fffa
0e6e
0366
0b87
fc86
06b0
0d88
024d
fc5f
07f3
f91c
001c
fc2d
097f
0389
0750
f47a
067c
0c61
f18d
fd42
07c7
f430
fced
0f39
0b63
0e7e
f73f
f2db
0217
fcd3
fc0d
0eff
0fae
ffb5
ff7f
f818
0537
f98c
0c53
0e9e
00f8
fd0e
0523
efe8
f9a6
0e34
f27d
f239
fe88
027e
027f
f8ff
f4b2
f90a
fb7c
faf3
f691
06f4
0e87
0879
0b31
0e40
038f
0d52
07d1
f141
0314
fc26
ff10
0659
f7e1
0490
f8b4
f954
0b99
0065
048e
f6b2
f7b9
0c4e
fccb
0c1d
03aa
0535
f7e5
f500
0187
0ec3
0a32
f823
f122
043e
0835
f74a
0f68
0c48
fb61
f678
ff0c
f505
f3a8
f311
09ec
0bf9
0cf1
ff3c
0437
f0f4
f142
fc0c
f194
0f7d
0001
072b
05c8
083b
0648
fea5
f54e
f707
02a2
fcb4
fb60
fad9
0d49
fa2e
f2a3
0ce2
f98e
0065
0709
061a
0ab3
fc27
0c1f
0d95
f417
f641
f299
f80c
f3d5
ff70
0c1f
0138
f9fc
0ad2
04be
fc01
0590
f6e1
092a
fd25
03ba
059b
fba9
ffb6
0339
f57a
fb3e
faee
094d
08b5
f78f
0afe
0b63
0b08
fbcc
feb5
0a14
fc25
0215
062e
0446
0b99
0ec2
0236
f564
0181
0d9a
f5b2
f7bb
0f82
0b86
07e3
06b4
0d1f
f634
f594
0ecd
021e
004e
ffb8
01d2
0153
0102
f571
f510
f635
03c7
00e2
fb7a
f0bc
fa4d
f433
fa14
0318
0d1e
043a
0798
f4a1
04d6
0aa6
fbf0
057e
0040
0a06
f534
0972
f1c8
fa69
f6bc
fd56
0ecd
0fbd
fcca
fc68
0319
fb05
f355
0f0d
f81f
fd67
f6bb
f934
f5fa
f7b5
0d07
f0a6
0bc1
0f28
fe2d
00e6
02bb
f3bc
0c0b
f207
0d6e
fd67
0d5a
02d1
034d
0467
f342
f29b
f70d
062d
f6a1
0644
fc7e
f7b7
0800
0164
0f4d
0cdc
017e
0435
0208
0408
0319
faac
0e96
06d6
f260
fe0a
0585
f882
032f
f6a0
0b7a
01de
089d
f4eb
fecf
04d9
fd9a
fdb5
04da
ffed
fbc9
089b
ff24
ff26
fbf2
0711
fad7
0675
0dbb
005a
0be7
f0a7
0caa
f278
09c7
f6bf
feae
f592
f523
f69e
ffcd
f598
f97c
0ce7
0606
0884
f1d1
fdc9
0a1d
efd7
0240
f3d6
0e38
0202
f98e
0876
07c7
f4a7
040f
f42a
ffa4
05cd
faea
099c
0455
0742
f5bb
0cfc
0b72
0234
f273
03fc
f50a
fad4
0267
00c0
f485
ff1f
f711
04d4
09b2
06a3
0441
f741
f4a7
f06a
f5a2
f653
0e84
f52e
0e78
f0ac
0eec
0b7c
050b
f965
0ca1
0e05
00a8
f5f8
0f09
f33e
f18d
0b18
f5a0
f242
0fb5
07cf
ff95
efdb
0159
0aeb
f398
0b71
0bf9
003b
0ce4
07bf
f564
0a72
0c29
f888
0dac
fc3d
0b95
f550
fc0c
078e
fe25
f574
09e5
067e
f7b5
0b32
0e0d
046f
fca8
f37a
0a51
04bf
f281
f6ae
f0a1
fb5a
0919
08ed
0d61
f40a
0a99
ffa0
082d
f844
0a9f
0d8c
f6c4
00a5
0fb3
ff9d
fcb2
0328
fdf5
ff44
0e0a
089e
07b3
f2ba
f105
fdfb
0977
01b7
f196
04ee
06df
f358
f447
f03f
f6ba
0c1c
fc01
09d7
0d8a
f55b
0135
0da9
046b
f333
0eea
f203
f10e
fb53
f66e
f115
0f8e
06f7
fee4
fd7e
0273
f49d
0e63
0121
0682
0d97
086f
f019
f021
0fbc
0906
0a3e
f718
0d4e
f877
f328
0467
0847
fef6
f327
0990
f6f0
0d4e
f820
081f
fa13
0bf5
f0d5
0b3e
f5d6
045a
01e1
0931
f050
fbce
f46a
f5b2
f69f
ff6c
ff47
0a8b
05e9
0ec7
f447
f0de
f34c
0753
ff6f
078b
0425
01f0
f8f3
02c9
fd64
0186
ffd6
f232
03fa
0d9d
04f1
fb2c
0f1d
0310
ff33
f2ce
ff0c
056a
0ea6
02c7
f92f
f2a8
0cf4
f16b
096f
f300
ffe5
0874
fa90
0049
f8df
fe4a
fc03
f719
075e
0cba
0ed6
03c8
f8f3
040a
fc1a
067c
f424
0f7b
00e4
f5eb
f5c6
0ac6
05d8
f15e
f38d
f179
0c3d
fcea
f3b9
f822
f6a5
0214
0f81
0548
0e47
faf7
0ee9
03b7
f53c
0cb8
f1cc
f732
0919
fbd2
f16f
fba9
0a99
fc9c
faef
080a
fb62
016f
03c0
f29e
fe80
04a5
f2f7
f5c5
0061
fe9e
0383
09fe
02aa
f178
0233
fdd1
07fa
0ac5
f495
093f
ffd4
f0c2
f959
f39a
0abd
0e0f
fbc5
0507
f356
0a53
0e7d
0480
ff4f
ffc1
f82c
f20a
0891
04a3
0c8e
f1c3
f413
0453
04ce
faa6
fc39
fc03
0d2b
0866
f95d
fe60
fdfe
f6c9
fac5
fe56
0bf8
0843
0dfc
f053
faab
03a8
02da
fab1
fe41
02dd
ff74
f010
0450
060a
0c34
046c
f3b6
f174
07e9
fb3b
f2c7
0ee4
04fb
fbca
f409
0b8e
0b65
054b
07cd
f91d
f640
fd2f
efcb
0bb0
f8db
f48d
0301
fdaf
f887
fa0a
0cac
0d8e
06d6
f156
001e
f084
fd4b
03e0
0222
feb7
f091
00e0
f49c
f1dc
fb80
f48f
0d67
fb6a
faff
faa2
fea2
0554
08de
f3f4
0a6f
ff57
0c1d
04b2
0f76
03c8
0af4
0f55
0711
f5df
f7ce
ffb5
f3bb
eff3
0015
efe8
f4bb
fc03
09ce
00d5
f991
0418
fe1c
0a21
0ed3
f7ac
0b09
0aaf
097b
feb7
f249
f762
feb1
0842
09ed
0e36
022c
fcc0
0ea6
0d15
ff9f
f93c
f1f5
f512
019b
f513
fa30
f1e6
0e06
09b4
0fb8
0e82
0678
0f56
00cd
0ec0
f482
f21c
f9c4
efd7
f79d
0c6e
0442
f1e0
0a81
0977
f83d
f339
fbf9
f8d8
ff3e
0c23
f14b
fd2b
fd36
f6c4
f7ae
f044
f7d1
f0cb
0372
047d
0646
fcf4
fa13
f33d
0c3b
07f4
00f6
0545
098f
f514
0b0a
0427
06d8
00ff
ff2b
05bc
0ba1
fd3c
fa12
f19f
0ce3
03ef
0aaa
f57f
0f3c
fed0
0427
028b
0167
0ec9
010e
f2d5
0035
ff38
0bf6
0593
0959
f002
0209
ff4e
0d35
f2eb
fa10
0594
fffc
0314
0e23
f356
0136
08af
f9b9
05d3
fc94
f1f2
f4a8
0caa
f704
f29c
f3b3
f062
0e36
f052
0468
f057
f6c6
0073
f7b1
fbc9
ff51
f621
f035
f9da
f2ac
0310
07bc
0afc
fe73
0f35
f850
facb
0385
003c
0aa9
f589
f3df
f88e
05b1
0277
0181
f1bf
fa7c
f5c0
f111
f8ef
0adc
fdb9
f240
fc8e
fd50
0cbb
f55d
074e
fcc0
0e3a
0c1c
0e33
faf3
f6b9
0d00
f93d
f438
00b3
f6cd
0301
0ce7
f253
fbc3
fcc1
0dbc
052a
094a
f680
f53a
faa3
0eaa
fe2b
060d
06a8
043d
0d91
059e
fcb9
00b8
0d5f
f9e3
03e7
f4c4
0629
0c4c
fa43
0cb2
ff84
0166
0585
09c7
fc6f
0a74
f352
f6b6
0df2
f8da
f0f1
f856
0890
fdf6
0238
fb4c
0a44
f7d5
f0bc
f82d
0513
000a
f17a
fa92
04f0
fc4c
06c2
f063
f10d
0d68
06fa
fcfe
0f77
0f53
09a1
f408
0c98
01b5
04e6
0bb0
fd67
0b9a
f893
fbfe
042b
0aae
f861
f9f7
f23b
f4d0
0ea1
ffc3
035e
04d3
079f
0270
0c18
f068
09d3
0cdb
f4b2
f1bc
0757
f602
fc4c
f329
0943
f98c
0950
08eb
f230
f1e8
00ef
03d2
f3ef
f813
f0c9
fe41
054f
f16e
092c
0b2e
f9d7
f92c
ffed
047f
ffe2
0a04
fa95
fafa
02d8
fd03
febb
00fe
093a
fb97
059c
ffac
f1f0
022a
fcc0
fd20
04db
ff47
0ef8
08d6
07fe
0f1f
0732
0ad8
f36a
0877
089a
fc9c
ff8a
0f1e
f4b8
f816
071c
0678
f12e
f4b5
fc1e
f270
0963
04af
fd24
0db0
059c
f48d
f013
f7fe
0ac7
f2c9
08e6
f95f
0984
03e9
f0dc
06be
0a69
f119
ff6e
0330
fccc
0c41
f0fb
f7eb
f904
f51c
0a9c
faef
07b3
f628
0589
004d
0a6f
f1b2
0e82
f943
0f31
074f
fbf6
fe18
00e5
f3a0
f2e3
fb33
080f
0112
0336
0a92
fdec
0dfe
f812
f505
f33f
0ca5
f4d5
0100
019c
f7eb
fb58
fda9
fe50
08be
0c25
033b
ffb2
0772
047f
f9ee
fd01
f415
028e
0df6
0d8f
f84f
fda0
0d96
092b
f0f7
fb6e
0058
01cb
0be3
0b0d
05b1
0e16
0d15
f2e2
f2f0
f058
0086
04b8
042c
0497
085b
f8cb
fc1e
026a
0ad9
fd9f
f8b6
fe3a
0420
fce1
f316
0aa0
01c1
081a
f0e4
0f05
fc12
fdc0
00b3
0c3d
f130
0d1b
f829
0cdb
03d8
f6da
0c84
0229
f01e
fc97
0c8e
0bfa
f751
f9b6
0e47
f79e
0a60
fc8c
0450
0c36
099f
f509
f2c2
f864
0400
0115
f79d
0654
0c8a
0b03
ffab
0508
03e9
f4cb
01fd
06e7
f72a
f92f
f8dd
fd01
f453
fffc
fb8b
0cdc
0914
08ec
f940
05ae
