f4cb
f715
f1b2
fb7d
fa17
051a
0c20
fdf4
0d46
f47f
f437
fabf
0748
f8f7
fee7
0322
f092
04d5
f5d4
f5f1
00a6
fc52
05e6
0c84
fbb1
0241
0dcb
08e3
f4cc
0d5c
ff3c
09a0
f148
fd4e
05ce
0647
0f07
0ba7
006c
f92f
0ac9
0340
0912
f433
f15b
f40c
061e
0259
0fb1
f41c
0550
fc69
fd1b
01b9
06e4
f222
002d
0564
f2db
0229
f2af
0331
0c45
f7af
fd8a
f5c6
f03d
09ab
fbe4
09c3
07bb
ff1b
0be4
0186
fbff
feb0
0005
f288
0231
f82a
fdaa
07b6
0558
f49e
fa79
0472
f9bd
0f36
0051
f4ca
02ae
fcc8
f818
0955
04f8
f100
f557
f4e1
0310
0c63
fc1e
004b
0929
fb35
0eb6
f7a0
fe88
0e5f
0411
048f
ff7f
06fb
043d
f99b
fbf3
f209
f1f6
0748
fb86
0b0e
08f5
05a3
0a0f
08ec
085b
020e
070a
fd94
f9c1
fecc
0aba
0544
0d72
0b28
0f4e
f69a
f63e
f1a1
fb8f
ff6b
01cb
f605
0909
f546
0664
072b
f5fd
f922
f594
0daa
f9ae
fee9
050e
fc3c
f147
f490
f279
f517
023b
0c0c
fe13
0c6a
0167
fdaa
f83a
f5e6
0dd1
0d23
0c8c
f4aa
f8ef
f972
02d5
f56a
08c8
0079
f933
f7f4
0609
03c6
fe49
ffce
0905
0f30
0c1c
038c
001a
f1e9
0d87
f3cf
06e2
0f24
04d6
05fc
f9d2
03a0
fdc9
fa8b
f9d7
f048
0166
098b
07b5
f958
07dd
0641
fedc
06bb
035e
fa7c
f4dd
0040
f712
0bd4
0d76
0251
01b4
0e6a
0ee3
ffb4
0475
096b
f0cd
0945
0962
f5eb
0c88
f1e2
0a7a
08a0
0858
f8ca
0c65
0960
0d66
0089
0580
f24c
06f0
fdf0
0680
ffdd
0fc2
08be
f9a7
0d6d
04d7
014c
02b3
0814
fc8f
0fc0
fa25
f0bf
0744
f982
fefc
fa04
fb7d
ff56
f0a9
0fbc
05a0
f4a8
0db2
f2e7
0ead
ffcf
f05d
f1b3
0db3
f3e1
f89a
0e47
073b
fa84
0fb4
03ee
0348
f63b
efe5
fbac
f5f9
f7ee
03d5
00e0
017a
0ec4
00a1
0501
fc1d
f3f4
f18f
f2f4
f740
08c6
ff2e
0a6a
fecb
0d5d
f1a9
0050
03cb
08fa
02d1
0caa
01f1
fee6
fda3
fe8c
f251
0a03
f97f
f354
f759
fb55
09e1
0dfe
fb2b
0be5
f32b
fe9c
f8f8
01fc
04dd
fa3a
f891
095e
f681
08d5
fe21
0318
019c
f252
fc77
05db
01a5
fd5e
ff86
0633
f090
02e7
f7c9
f86e
f70e
f9b7
fe92
f044
fcbe
06da
08c3
fdfa
0121
07a9
ff92
f5ea
0089
0eb0
0a64
099e
f240
f05b
0c67
040c
f70a
0fe2
0768
f74b
f8a0
f59e
055d
066b
0cde
034d
ff00
f0f7
f7f3
0762
09f8
0df2
0fa9
03b5
f066
0449
f194
f9e2
02f0
f21b
fc24
f27d
0c45
fba9
f2a3
04dd
f9d5
f999
f4d4
0c41
f1b3
097a
0c69
08ec
095b
0b34
fdee
f6f7
0db1
f9bc
0e2b
0a15
fb36
08b1
0a88
0fa0
0968
f59c
033f
fbe7
f9d9
f4f1
f125
0aaa
0875
ff20
f43f
ffb6
f731
0a6e
0f5c
fbe4
fefe
07d2
0116
0ed7
fd5d
fe08
0f30
fb5b
fbc4
03a0
0b6d
03ec
f248
025f
fd01
f33d
0f06
0868
02bc
0a0f
0072
f8c6
09e3
f2a6
f1c1
f444
0dad
f2e9
f3e3
f3ac
08a5
f6ba
f4ea
f417
0306
f78a
0a6a
f784
056c
032c
f2ed
0df0
fb25
f58c
f151
f1e3
f738
fa47
08d2
062f
0936
f6db
0774
0360
f723
06e0
ffb2
f60d
0ce0
f610
08c9
02fa
f911
f75c
0fbf
fad1
0069
0078
0329
0502
f685
0693
0028
068d
0f70
027f
f35d
f781
f78b
0cea
f956
fc09
0306
ffed
fe79
0f04
f95b
f5af
065f
0768
f3f6
0816
f9c9
fd82
01ea
0790
0996
026f
fa63
099a
f2bd
0b2e
0ace
f981
f651
0924
f8cb
0b63
f5c4
fb70
ffb9
f54d
f37a
0ddc
07ae
0101
f363
f9c9
0936
07fe
fb82
f5cb
f7c1
f2db
0cb3
05d7
0876
f734
fec3
f985
0413
f2bd
0be5
f8e5
05ef
f7ce
085c
fc7b
0716
fef5
f13f
04e1
f056
0e06
04bf
f119
08c2
f6c8
06b8
fe2c
0af9
f00b
f440
f221
0cba
f790
0f63
012c
0f70
f80f
f038
feab
0239
f41c
f4b4
07c4
f616
0155
01e2
0b7e
0f6a
fe67
0f31
02bd
0bdb
f776
0299
02aa
04bd
0740
fe2b
f18c
0a15
f8e5
03a9
f2cb
f76a
0e57
f0ca
f96d
0801
0849
0ad3
09f5
f620
f8db
f0e6
f95f
03e2
f12c
05e9
feef
fbb6
0bfa
fd20
0e9e
0eb3
f717
feef
fd79
fa87
0f55
fa8a
095c
f741
fd92
051a
09e1
f18c
0e23
061b
0ebb
fc0a
0efd
0ae3
08fd
f728
092f
0819
f16d
0a5f
fd51
f1e3
f0c9
fe1d
050c
0148
0102
f56a
0e3f
0385
f7c2
02b5
fd70
fd06
fdea
fef4
0c5b
f3a0
0f2c
fd1f
fddc
f69d
f1ca
f2dc
f838
041e
0802
02bc
0100
06ba
0e91
0af5
fddc
f192
0e97
02a7
fb82
f35f
fccc
00b7
0b16
02b2
0115
f997
f6e5
01b5
0369
ff5d
f056
05ee
fb99
0a30
f067
0509
f7ef
0e10
03f2
0be0
06ac
fc3d
f834
0b2e
f534
fe40
099d
0192
fb61
054c
fd9a
0f33
f841
03f7
0b14
0cca
0b9b
f4ad
f9cf
fc19
f59b
0d08
048d
fe4e
f507
f3d4
0702
fd3a
f7f4
f153
000f
0d08
fb99
f004
f887
f54e
08a1
f5f0
f72d
f110
f7ff
f332
0f22
f73a
007c
fe2d
f8c6
ff0b
006d
fbc1
fdc6
ffab
f084
fa38
f94d
f0f0
f1ae
f4b1
0bbe
fc9a
0d32
f87a
0f4e
f318
f291
0909
f0cf
0c06
035f
09b0
0cfa
fe8b
f3d5
f6a0
f0a0
faf2
f76c
0daf
ffb3
fe1e
efdb
0d67
fdd7
facb
072c
f2b0
f5f9
f40d
f6cd
0f84
0de3
0f00
0270
0403
f11a
0412
fe5c
fff4
02c3
07ab
0409
f927
f10c
085c
0bea
f126
0208
f28e
fb13
0190
f331
0065
0b2a
0181
0dd7
0291
08f1
078e
01df
f4ea
fd61
085f
0f60
0d90
0854
fc6a
068f
0c29
f315
0c56
0afb
f5b9
0060
09e1
fda6
0716
0906
0135
0662
0a51
0aff
f767
fac2
f8d6
ffce
f556
f562
0312
fd4f
0beb
f6e5
f794
0fb5
ff75
0f2b
053b
f145
f1ee
0b86
0892
0201
0e7b
0424
09b8
f3ec
0476
f18b
f6bb
0b24
f5bc
f3d3
f9be
feaf
f7b5
0ae7
0b84
0ec2
02f4
04da
fa78
0f9a
f038
f9c9
f086
f202
f6e4
0c1d
f3d1
07d1
ff5e
fb46
ff35
f554
091e
0e30
004c
08c3
f590
f842
08f9
07a1
00fa
0261
f147
fc70
f6ce
f422
0502
f773
0ad8
0d06
0e7b
015d
0cd5
0c92
fc1a
0f0a
00e1
07b4
f4e7
07d3
05c4
f52b
0e48
0458
f4b5
028e
f609
f1a9
0e8c
fb9f
0d24
f8dc
0ef6
f378
0338
038a
f1f7
ff5d
0e75
f785
f459
055d
01ba
f8c5
03a6
03bb
f11c
03a2
f286
f41e
f30a
f444
0aa9
0b05
fef9
0a97
f36a
fd39
08d0
f011
02a9
ff5e
00a5
0196
f6a8
016b
fc69
0c25
f339
fbf4
f9a5
0b75
0ea0
0d17
03ef
0ce2
fde4
0ea3
0a2a
02ae
0623
0d3e
f667
088f
0f51
f421
f2c8
fb30
0d65
fd39
07c6
fdbd
0fb1
0943
f8d1
0dfa
05ec
00bf
0fbb
fffa
f5c2
0201
fdbf
0b86
f17e
0f4f
ff66
0043
fca9
0f7b
f9b5
fde6
f1a1
f70d
0677
f7cb
065d
0375
010e
0725
f4f2
fbc0
f074
f123
0524
ff16
05d6
02b4
004f
01ce
0315
f36c
09b5
fb91
fb79
0841
f7d1
f4d0
0f60
fa72
00a3
f7c6
fcf4
f325
05a5
01c0
ff89
f7ff
f0b2
f4cf
f341
0a83
0a58
0238
f919
f92e
0619
f395
fdfb
f0c0
f92c
0384
0c6d
f022
f4ad
fd24
fc75
fa49
f5d8
fe70
0be1
0faf
f169
f04d
fc0b
f49d
f99c
fadb
0ddb
f83b
f47d
0031
f14b
0654
f0de
fcb4
024d
f638
0c01
fa8d
0e77
0690
035d
f856
0f8e
f9c8
f3f0
01e3
f93a
fc7a
f588
f113
f6d3
f6fe
063d
f06d
0069
f334
fb03
0c3f
fc68
f4b7
f3f0
f891
0e4a
0481
00da
f826
f431
0ad0
f7c3
0cfd
f79d
0087
015a
0235
0e1d
f4fd
02c1
f0b8
0ac0
f7fa
064a
f2ac
f852
f3ff
0fce
032e
01d9
fa44
03ae
f289
f20c
0e81
04d4
f84d
f98a
f12a
f530
f4ac
f218
f953
f737
0bf3
01bf
02c1
02b9
fd81
fcca
fda7
faad
fdbf
0fd6
f996
0026
07ac
04d3
f30c
f312
fdee
fc66
0d94
0885
036f
fddf
f158
f8f2
0463
fc98
feec
fc7b
f74c
076f
f725
0d43
fd5d
0fd9
fae0
ff8b
f1ea
0f56
fe0d
f69f
f0c3
054f
f0d3
03a9
f6ae
fbed
0016
f4df
0c2d
f49e
f366
f491
0c1a
0092
08e0
0792
0787
f631
f1bb
04f4
f358
ff77
0dcb
03ad
f80e
04ca
fda9
0b5c
00ce
f9fe
fbef
f535
00c8
024d
0da8
fd9b
0ec7
0e5d
062e
0879
fa8a
033e
0c16
f8a3
04ea
0387
f054
f697
0927
007d
0890
f4b2
02a7
f84d
05b2
05ff
fd4a
f902
ff07
013a
f08d
0112
0421
0de5
f234
090a
052a
f94e
0407
04ee
fde4
fbf0
07bb
f96f
f30f
f98f
fa16
f52e
f4ea
07c6
f671
f00e
0015
fb41
fd03
f57a
03ed
0e6b
f308
08a5
0a9c
f5aa
fe53
0b98
00eb
00d3
f683
0378
0e68
0883
081a
0819
f8db
0e71
f672
02e7
0e6b
02dd
ff10
0d2e
0106
f533
f8c6
0049
0279
0bc1
f83a
f7df
f24a
0edc
00fe
f54b
0d81
003a
ffaf
ff51
0889
f858
fdca
fb8f
f919
039c
0541
f0d9
0db0
0e67
06ed
faa0
0818
f541
0046
f88f
fdf3
0ba5
02c5
0c21
0f63
08bd
f0c2
0915
fa6d
fc3c
f502
0fbc
0fb3
0f76
0eb3
f8ff
facc
0cf2
0f11
0581
0e65
f0c4
00d6
0328
0b14
0c25
09df
0553
0e32
f1de
f3db
ff71
066d
0735
01b0
0cd7
0b66
f730
0b78
f5cc
fe8b
0e46
0582
01a6
fa4e
fa22
0b20
0c97
fa12
0608
f750
0522
f8b0
0237
0273
f47e
0706
0a85
f061
fed8
f528
08f2
f0f1
f4ed
f326
0001
f2ec
fd5f
fc51
f7fb
0146
00b3
f652
fc48
f928
f1cf
0dfa
0731
0819
f35a
02fe
09c0
f314
f767
0373
08b7
00ae
f20d
0582
f904
f672
06a6
fb2b
06ab
0da0
0b70
f61d
f0e8
f15b
f03e
fcdb
02c8
ff28
0961
040d
f9b2
f96c
fb2d
fd57
0604
fe8b
f083
0f9e
f672
05e6
febe
f1bb
fbcd
0baa
0a24
fa2f
0879
f2d4
f020
f9bd
04f1
f016
f6f4
03d6
f790
0aa7
fe25
fe90
035a
0518
02c9
0ae0
0be6
f182
f397
0992
f93b
f7ee
09a3
fb9d
f5bf
0cb2
fe36
f7c1
046c
f0b2
0f64
0881
f871
fd45
0275
ffdc
f082
f9fc
0d5a
0167
0d68
0383
f0f0
f47c
0d34
fdd3
0a10
fa56
0d09
fb56
0492
0e28
f68e
0f27
0eac
0e0f
fdf8
f331
f9e8
0d27
0f14
039e
f58a
004c
0fa6
f24c
f0e4
f128
ff49
f63f
fda5
00bc
fd86
060c
f967
fc67
f19c
0f0c
0014
f0e3
fbb2
fc19
0585
0e71
0762
f5a0
f6ad
f477
0872
fa31
f692
f11d
fbd7
0e02
fbc7
0ec3
01d4
f1d8
fbbc
ff3f
ff60
09a3
f160
fa0f
f5b9
0a68
f829
01f4
fcb8
fd29
f3c3
fac3
f0ed
f3e1
f09d
0163
0b0d
f379
087b
0e4c
063d
fb88
0c47
f054
06d4
f2fe
068c
00ab
0ee5
0fc5
0c1c
0096
0c59
08ad
0bde
f87d
0008
0e3a
f9c7
f3e7
0b5e
f479
fe07
0c44
0927
f1fe
f6e6
f995
09e5
0025
ff36
05f7
f6cb
f664
0c5b
fc78
fa1b
fe25
0847
065b
0051
0774
0aa1
0033
f362
f7ab
fe80
fa15
ff2a
fe91
0366
0188
0659
0ca7
f1a5
0ce8
0ee2
f7be
f9c0
08ec
0104
fb17
f7e2
f65c
036a
f541
0b91
f69f
fffd
028f
fb56
0533
0afb
fa84
fe10
015b
0eec
0a67
fa68
0f96
fb44
fca5
f3e6
0051
f129
0f85
fd73
fc6e
fc79
fc30
0443
0386
0f06
fc95
f72c
feb5
0ff9
f4b7
ff33
f510
f4a3
0bb8
0294
f7b0
f95e
0dc3
f51a
fdbf
fb13
f7c0
0a44
f6b6
0226
f544
f73e
075d
f788
0fae
f10e
fe54
fba4
f13f
050f
f7ed
fc87
f414
f713
f907
04e5
f06e
0cd5
f2d0
0462
ffcd
0750
0031
fe9b
0007
027d
fc39
f2fc
04ba
fa9d
07b8
09dd
083d
f83a
090c
f09e
fdd4
fa42
fda8
f668
f712
f3de
0c85
02d0
f75b
fb6b
00c6
087a
00ae
fdee
068b
03b8
f106
fa95
07f5
f1f9
061f
f466
f024
f85a
f4bf
fba2
f76e
01ed
f837
f8ce
ff20
0185
021c
fb5e
01a6
f69a
09d2
f55a
0657
0aca
fea9
f174
f946
f252
00da
000b
f996
f6f3
f9f2
003f
03c0
0272
f788
0ba2
f131
fc71
fa78
06c8
05c4
0b09
0a00
f04d
fe77
0ef3
fee8
f566
f874
fd95
fb9b
0fda
fed3
03ac
f6cd
f273
f056
036b
f26d
fa17
f2f4
fc99
f7f6
0d87
f4ae
0e6b
f397
0f27
0d6b
0e69
fa37
0289
f25b
0ced
f16c
0271
fba2
0bde
fe24
0ae3
f0d8
0cde
f909
0c70
fb41
087c
f9a9
05a5
02c4
f281
f397
0b13
f005
f581
0438
0017
044a
043a
0416
0d3d
022b
07c6
0cb4
0444
f5e7
0960
f0e8
02e8
f708
f80f
f14c
f6ac
f625
f881
0c0f
068d
0033
f31a
04e0
0612
fb4c
fe20
fd72
f9b5
f458
f514
07c2
0d8f
0bbb
fccf
f139
f8cf
fdf2
0b1f
081b
f812
07fa
0f38
0409
083e
f95d
007e
f41b
0ab5
04f6
0e5f
09f7
f677
0346
feb9
f675
0477
f5d1
0647
fc9c
f187
f28d
f130
f57a
f1b1
0c06
f18f
0f59
091f
07f7
f2e6
007d
f82a
f0f3
0fa0
fc34
f2e1
f2ab
09da
fe25
f3fc
ff3b
f75e
f21e
0eac
f74d
0fa5
f668
04a7
0877
00a1
fced
ff41
f990
0511
0db0
f0ed
f7ac
05e0
fc29
00eb
f2a6
05a8
f408
f307
0a68
f9ae
0101
0d46
0f0c
042c
0815
01f4
00f1
ff98
f061
f76a
f654
08c9
f594
fd09
f5e3
0bfa
fcec
0d8d
f129
0524
faf7
0683
f521
f470
f221
f36b
0c5e
f8c7
f65f
0b93
040d
036d
f972
0560
fdcc
0da7
0008
0854
f223
0e5b
f2d6
0af3
f549
071f
ff22
058c
f981
0dda
fe71
092c
000a
f6b9
0bd4
0e37
0925
f23c
f38a
0b27
0d82
0ed0
0b0a
f9ca
03bd
f51b
f014
047c
0beb
0820
fbb3
f5d5
f0a3
028c
fef5
f091
0756
062b
0a5e
0007
f195
f334
0ee6
fabb
f793
f482
0edf
0614
f679
0e25
0c12
f608
0f94
f987
0f44
fd56
fd01
f1ed
ffe6
0c7e
08ad
0ff9
081f
f33d
06b4
0b1a
f065
fbcc
f0d4
f9df
035c
f30a
f707
03a4
f78e
0b5f
ffde
0083
f09a
fabe
095f
0921
0bbd
f6a5
f727
0fd6
f8cc
fd94
f09b
f87a
f6c0
f162
0c73
0b08
f7c9
0051
f4d1
0c5b
02fb
07d7
f960
febf
0d20
f207
07b5
f402
0208
08c8
0e7a
f5cb
05c5
0459
0195
0007
f1d6
0b1a
ff0f
f0aa
f396
0198
f858
0777
f9b0
f5ca
f0ca
0273
0510
f527
f750
f7bf
0d58
faf0
f49a
f45a
0292
074e
fb13
ffbe
063a
03a8
0b0c
f06c
0fab
fe09
fade
f77f
f3c8
081c
f1e7
0173
0910
fdeb
00b8
fdd4
01a5
01f2
01a6
f618
f3d0
f7eb
f8bf
fcda
0747
fa16
0510
fe82
061a
0381
0691
fc38
f08e
0f48
02ad
fa8a
ff47
0cc6
0273
08d4
0383
f914
0433
f0ac
0a9b
fc52
0539
0eb2
ff26
0948
f516
f53f
0c14
f85c
0de6
0700
0981
020f
0ab6
0064
0a14
0d85
0cf3
f02e
fd39
f42a
0cd0
f1e9
f1bd
06f5
f72c
0665
fa76
f92d
0bc0
0e4c
fc07
fd2f
f742
0d69
f2d8
058f
f97f
f368
f04e
f90e
fa3b
0191
fea7
fb0b
00e2
02d0
0f63
0f3e
078d
f03b
f65a
07ab
f8ae
fd61
f813
f511
f4e0
f960
f4ea
fb1a
038b
0baa
07e4
0413
f88a
f70e
0d97
03c6
090b
062c
06dc
f923
feec
fc9d
fd48
0887
f244
fe77
ff26
fc8b
03f3
fe4b
00dc
f800
046d
00d0
fc15
f56c
0384
f071
fe25
0eb8
f015
01e7
fb1d
f2c0
0027
0ddf
f77b
f855
0720
fae3
0c0f
f89f
0840
0a68
0d35
f99e
0a83
09c7
0303
f3da
0b4d
060b
f865
0964
00a4
f420
f254
02d8
03a6
0f79
f743
0813
f42d
f2bf
0bd4
f288
0804
0544
0177
f432
f209
fe33
0634
037b
fec3
020f
f99c
f031
0e09
f5da
06e8
fc11
f8f5
01b7
f28d
ffb2
08ca
0c9e
0c93
f798
f7de
0cbd
f57f
0f35
f98d
f404
ff00
fb21
fcd5
f540
07d7
f415
fbf8
0a55
f5b0
0427
f42b
ff11
f388
f299
f59c
0b59
fc1f
04af
f0dc
01e0
fc67
f3d9
0b14
fe17
00f8
0939
fdb8
fb39
f4f8
f20e
0c41
f66b
0f9f
f2ee
09fb
f396
0a53
0689
04e6
02d2
0091
fa7f
fd80
02eb
fd53
f915
0d1f
feab
f910
0579
fe2d
0403
031a
fcb1
f162
fa75
0bea
fcea
0e0b
0d2d
f00a
0e4d
f032
0e60
fb89
0151
f55b
0f5d
ffb7
0ad3
0d9a
01fe
f372
0a93
0108
0703
f3c9
012a
fbd9
f303
f740
01b7
f238
0956
f52f
0e05
fa4d
fd8c
ffff
0bcf
f0f0
0fa7
0527
0e2a
f1cf
0f37
fa0c
0c97
f9de
004a
030a
fc42
00fa
ffa7
f5f6
059b
f5d0
0f47
fd49
003b
0cbb
03ec
fb83
fafa
f01d
f16d
f4cd
fb7f
ff73
0ffe
09aa
0c12
0f4c
f171
f439
0033
0085
0a16
0750
f1c8
003e
f5a2
f028
f0d2
f026
0b7e
f6b6
f883
f607
fecb
f108
ffd8
fe71
f095
fe36
02bd
072e
f856
f4a6
017c
0138
0bf6
0053
0686
0db3
f2b4
f0fa
0dad
065a
0cc8
f3c5
f7d0
05c2
f0b4
0c3f
0737
0ec5
fc57
f03a
0099
fe8b
0cc8
0cf8
01c0
f1be
0119
f741
f28f
080a
09c1
07bb
05a8
07bb
0feb
fc36
ffad
0ecf
f1b8
fa2c
00fc
f210
f65b
0a78
f22d
08df
f6ed
fd50
f610
f7a7
0fac
02ed
febc
f733
0882
fd88
0088
f7d1
068e
f520
fee5
f121
0c0c
013e
0924
04f3
034a
f3e4
f41a
fa25
f4b1
fe81
06c3
f818
fa29
0044
076e
f84f
f3f4
0e13
09da
0eba
0df7
017c
048e
f24a
fad8
f42c
fd5e
f869
03ca
0393
0e17
f55d
f0f7
0d1a
eff7
0522
fc61
f824
0d09
0d3f
f449
f0ca
fb3e
06a4
0621
0a3d
0ba1
0319
0d94
0929
f718
0479
0d53
f1d4
f08c
f6a3
02c8
0ad0
fb21
06fc
03cf
f66d
fe9d
fee5
06dd
0592
fd1b
f247
0019
08bc
02d0
0fab
f93e
f8a5
f9de
f054
f8d8
033d
0968
04c3
f765
f80f
033c
f27d
0931
fd55
f9de
fbd6
0cfb
efe1
032a
f9f7
09a9
f14e
f392
05dd
0baa
f3a7
f383
09bc
f11a
0491
0e1d
038b
039f
0d1d
ff87
0b8f
ffca
0bbb
046c
0317
0c77
f085
f348
06c6
fef1
f302
0e08
f031
f718
f626
02fa
fe84
093d
0951
0815
fd24
f4d7
fcc6
0edf
039a
f028
0658
f686
0179
03bf
f0b0
0400
f958
08ac
08c6
fc31
03eb
fa5c
0868
0f5e
027c
ff81
fb79
f74a
077d
f65f
0414
0dc4
0151
f9d5
f0d2
0548
f0d5
f94f
f57c
0479
0c03
010c
0039
fe72
fed7
0f22
fc3e
f587
fbfb
f1fd
fdba
f973
0153
fde4
ff5e
01b1
f4a5
0315
0bb2
f8b7
fa59
f3fe
f838
0dca
0d8f
0a23
f079
ff6d
f14d
f6c5
0095
0792
fafe
f394
00e2
f147
098c
0a57
fde9
ffb5
ff73
069b
fda6
0958
07e2
fa77
0119
0787
fadd
f346
09b4
f1b7
f103
fd0e
f857
f2c8
0d16
0668
0105
067e
076e
09af
fae2
04f1
fdaf
f914
0405
f202
0375
f4a6
fa18
0779
f716
0261
0879
00a5
0c2a
fe45
0e12
0dad
f281
08a6
f70b
0647
f67a
009d
ffab
030e
fa62
0439
0484
0c50
005a
0a55
faf6
0cc5
f5b4
fd35
f3e3
fd11
f4d6
0f2a
f817
f0a3
019e
f7b1
057a
0dfd
fde5
f180
f6dd
07d0
0455
003e
068a
f1be
05be
03d6
0329
f370
023b
f87e
0603
0e6c
f812
fd0a
06d3
0b16
f3c6
0060
f9cf
f1bd
f48f
f630
0f57
fafd
0f34
fe44
069f
fde5
f5fb
f1c3
fece
0e56
07b7
0556
f280
07c1
0c2d
0499
fbab
f1f8
f43c
023a
f065
f941
fcab
fcc0
fe2d
0f55
0941
f188
06e7
f733
faed
09a3
0bf8
0358
fcd7
f2d8
f5d4
fd61
0f97
042b
f7a9
0cca
fdbf
ff79
0e7f
ff51
f942
ff5f
0e36
f840
0824
fa6b
ff0c
0bb0
07d6
ffcf
fc34
068b
0053
f6fd
013a
f4c7
00cd
f68a
f184
05d1
0de4
0253
fccc
f1f5
04a9
0518
05d0
f147
040c
098a
fe61
01fd
0d3a
08a8
05b6
f916
fbeb
0f9f
04b1
0b18
0c3f
f60f
05ce
fc2f
086f
f011
f759
f101
01ff
fcf5
03fb
ff8b
0f02
0376
0fb7
05ad
fced
079a
03fb
0c6b
08f7
f2be
0c80
0ab3
0cea
052f
054f
0325
07ca
f2c7
0553
0e17
0ca4
0d80
0227
0307
0d47
fa89
0c78
f7d7
02a8
001b
0b6a
0a0a
f067
0d6d
03b2
0a86
0b9f
0487
fe9c
020e
f265
f55e
0359
0068
effc
fa82
0949
0f78
f899
00fb
fdf1
fe36
08ef
f753
09df
f7a5
fd8f
f0c5
07e0
0b2a
fc86
0929
f641
fa99
f88c
ffaa
0749
02b6
ff07
fac8
ff1f
f6c2
fd6f
ff35
0d48
0548
fdbf
fa9b
fa21
0e59
f2f3
f519
f5a4
f8c9
fc29
f625
f154
fd24
077b
0366
0b09
02b6
05c9
048d
f3dd
f7e5
f646
f207
0537
ff84
fad1
fcac
ffc5
f268
0a87
f782
01f5
013c
07a3
f079
fe65
091a
050e
0664
fb08
f72f
fe4d
f644
f77d
016a
0caa
f775
0218
fc67
089a
08d9
fe0f
03fe
0dba
001f
0f05
0adf
08f3
0df5
0f70
f64c
fba9
f5d7
0623
07a8
063c
0e14
fb56
0cc9
09d6
fe10
f924
02ca
ff7d
049a
0d9a
0a35
f14e
0266
f917
0693
f663
f56b
0036
0ae8
fe99
05a6
0efb
f6de
fa8e
ffbb
ff5c
f027
0a71
0f3f
0069
f387
fd51
0c07
f645
0b3e
0259
0d85
fe69
f7fe
0cd3
f66d
06ab
f473
fa7a
f53c
f03f
f7b1
0c2c
0ba3
0dfa
0a06
0032
0434
f436
094e
0c75
f715
0744
0d0c
0d0d
fec1
094e
0955
f24a
0922
034d
066e
0948
0403
f2dd
038c
0d20
f8d9
fa00
0848
035f
fca0
01ff
fd4b
ff81
0881
0336
f8f7
fc9d
077c
fa02
fa98
0339
0d3f
f570
055d
0579
0e83
0343
fee8
f62b
0893
f823
f94a
fa83
f972
0f54
068f
f275
fd88
0df0
f295
fde5
0b73
0e3a
ffe8
ff4f
00a2
09af
fe1a
fd64
0f46
f471
0455
f75f
f15b
f923
f45d
f003
0419
09b0
0e03
0c46
fe01
03c4
f8e5
feb3
fd02
fada
f507
03ef
fab2
0458
022b
f796
f91b
07ec
0006
0632
0fd5
0302
0291
0df3
07c9
0d6f
ffdb
04cf
0193
0054
0851
f920
0d9a
0ae9
06dc
fd12
fe48
0f63
fb44
0712
f5d5
02ee
02d4
0264
0fba
f8bd
06e8
0977
f1f1
f2a9
fcd2
0482
01a7
015b
ff08
0464
0559
0f26
fb2f
0d23
f5c7
f674
f321
f00c
0870
f76d
0f62
f1d8
f472
fda0
f927
0d15
07d6
0ce4
f4f4
00c3
f13e
f52d
0dc5
09e0
fda0
0abb
fade
f487
093b
ffff
fc61
0a42
f7a7
009d
f52b
08ed
f8d5
f02e
ff67
0c38
094e
0525
0b1d
f72c
0ffa
04ea
0cf2
0054
0ae2
062e
ff1f
f3b3
0f96
0699
f9ec
0c7e
0661
fe30
0666
0890
f04b
0721
0979
0a5f
058f
0862
0bdd
f966
0645
0646
0e64
0dd1
f4ed
f279
0eb0
0803
f869
f43c
03b0
fea0
0384
0e20
f3bd
f245
0b2d
0049
05b3
0154
f8cf
fcc2
f402
fd2a
0a63
f092
f47b
fd94
0331
0682
f6ed
fdcb
f628
0032
fa79
0933
f714
f46e
0bae
f099
0188
f606
0801
00c8
fff3
0eac
0a61
0ccb
f464
f80a
0c87
f21a
fe62
0ace
038c
05b3
f424
024b
faaa
0054
049e
074f
0196
0b06
fdc6
f015
0589
095f
f800
02ab
0a18
06dd
f870
efef
0ab5
00b9
fa18
f72d
0bb8
f74d
017f
0b3a
0c0f
0d40
0de6
07fd
0e21
09e6
0630
f95e
0257
0860
0f43
0774
fd04
f521
08bb
f6d2
0466
fc4f
02d1
f26d
f0bd
fe5d
f814
0186
f300
fd6c
0b23
f9ac
06d8
f094
00db
fac7
00b5
0120
0e45
0865
ff1e
fb33
0edd
06d6
0c98
f443
0416
fd74
0410
faaf
0e0a
0151
f96e
fa55
0889
0405
0660
fade
0fe1
fccd
f935
03c4
f26f
f256
02f8
faa6
0180
024f
001c
01b0
fc56
f0d3
ff46
0de8
f1b8
efec
f91b
0122
f2f7
0315
f19e
0303
0573
09a3
045f
081f
0e87
0581
fede
f584
0d1c
019a
fefb
f7df
0ee9
ff7f
f910
f197
04f8
f19c
06d6
f041
f04f
f2b2
fe30
06ad
048b
f2af
00e0
fe12
03de
f064
0ce7
040b
0c43
fafc
04d7
f8de
07d7
0af8
f82d
f1cd
0603
f574
f82b
0cb4
f866
06dc
fc9d
fbfa
f806
f6cf
0dbb
ff3a
0226
ffa1
f150
fd1e
061d
0294
0432
0649
0cd0
ff57
0079
080c
fdf9
fce7
fd38
082f
fcb7
098b
f236
0081
0adb
030e
fcd0
f265
0c58
0d2c
fae0
04ff
fe75
0056
f185
031c
0169
0956
0b84
fe28
0163
f36d
f55e
f0d2
f517
ff9c
fdf1
f413
f3c9
f75f
0579
03f7
f916
f1a5
fccb
0dab
f810
fa54
039a
0039
0bf1
f49f
f397
fd9a
097d
0ea5
fac3
fdda
f83d
fe1f
0c99
0eac
f073
0a4f
f6fd
06a0
01c1
fc75
038d
fff8
07ec
fcb8
0f37
fb45
019e
0294
f439
fabc
ffdf
0801
f84b
f675
08e6
fcb2
0f37
07eb
08bd
f32f
fb73
f066
0942
fdd9
0ac2
0fed
f086
f7bc
fef9
fb67
0217
0c07
f549
f817
0b2f
0e87
02a3
fcdd
f686
09b6
fd32
f96e
f3f1
f77b
0244
f2b8
0485
f844
f4a1
0683
0342
f8e8
fbfc
f1bf
f8e9
0b01
0a3c
f99a
f7d3
f01f
0cd6
0172
f296
07df
faf8
f82d
fc42
f6fe
0cae
0afc
f33c
0475
01d0
0dd9
0a42
fa2d
fcc3
f08e
f22b
fd87
0384
fae5
efff
fc8d
07e0
0847
f788
055a
f0fd
0aa4
0dd0
009d
f938
ff66
035f
0022
101d
feab
f9f5
02bd
fe0c
f745
f4cf
f954
07a6
0d2a
0671
081b
ff00
f138
fbbf
f76d
f416
0532
0c1d
0708
0134
0d72
f13c
055c
0f05
fac6
fe90
05c9
0698
fa92
0723
f395
001c
09af
fbda
075e
f229
035e
f1e7
fd19
0772
fca0
f851
facd
f3e1
0abe
f33f
f911
0634
0e15
05fd
fc06
0e19
f60c
fa45
fada
fc71
f0ac
0a0c
0c8d
050a
07d3
0b78
fb53
0bbd
f441
f99c
f550
0fa0
0f89
f0ab
0dfc
fb2a
00fb
fa23
023c
0ef3
06d3
0c54
f658
fc45
fcb9
0c52
fddf
0fba
fe08
0ded
0c4d
f4c6
06fb
fd28
0112
f75f
ffdd
f6bf
f554
fc70
09be
0c7f
0cde
0c08
f8de
0f54
f967
0354
04c3
fa84
f6e0
f41e
0938
febd
fe87
ffb4
f961
0c55
0f13
0b25
0e1f
0053
f933
0c82
f9ef
fce9
024f
f74b
0aff
f4ab
f1fe
03dd
efff
019b
0172
f90e
fb40
09e7
0bf5
0a7a
f766
0a62
060c
0758
f477
f4f6
0e3e
04e1
0215
089a
094f
062f
0f3a
fa01
fbf1
0d5a
f29b
069b
00ac
ffc2
0fd9
0bc2
0360
fef4
f1ea
fd29
0bb5
0eae
0411
fade
0d40
f197
f31c
f100
fc92
f6e1
f6a5
0290
ffa6
f559
0719
f272
f4ee
0826
f6e8
09f0
f562
f74b
0fb8
0c43
f825
fafb
feaf
fdf6
fc5a
0b4f
0358
0a9a
0adb
0313
fc5b
01a6
09a4
f6e4
0724
0617
0652
08ec
fbb1
0f33
0128
067b
f39b
0dfc
08c9
f3ff
f717
fc18
f796
095f
07b5
f2b5
0574
002e
ffc2
f7b2
effd
0e66
0efa
0e76
0a30
0bf1
faff
052c
fe28
08b1
f405
04de
0195
0002
0e30
fb36
092f
0619
0465
05ea
ff26
f240
0745
ff87
094d
fa1f
f414
04fe
0069
fa55
f435
00e9
f6c2
0bc4
0930
f06a
f507
ff5f
0a18
09b8
fbdd
0fd9
fee1
0a07
f722
0ef3
f016
fccd
0f45
f40f
fae9
0784
0b84
0760
fbb1
09ed
f02e
0c4b
fbc9
f5b0
f1a3
f176
058e
f3da
09b2
f31a
04b0
0989
fafa
035c
0ed8
f8ea
0995
062d
0975
02af
050e
f3ae
0a58
fc29
fd0f
f107
0337
fd60
01a2
0117
f1c7
f956
fdc2
05db
0f52
fc12
f91e
0917
ff49
031f
fa06
0b76
f5bf
0724
0f88
fdaf
0160
f65e
fe8a
0906
f85d
f77f
fedd
0b2f
095c
0fc5
f8ae
f29c
f4a2
030b
f8f7
04cb
026d
0f94
0101
0bfa
f747
fb2b
fa2f
ff3f
0738
0df7
fd15
f4c1
fbea
f483
041c
fe46
024f
fba5
0b0b
ff16
0400
fac0
ff1a
021c
05e0
f65f
0fc8
09bf
f479
eff5
07c0
0cf8
0a8c
f02f
ff8b
08dd
0aa8
f519
f254
fd78
0a40
0ba5
0ef4
0477
f3e3
01d8
f307
0561
0957
f9c9
fc75
f87f
fb30
09d2
0149
0a65
0875
f725
0933
f04b
f224
0998
fefc
00cd
f3c9
058e
f6bc
f162
0fbc
0634
f64c
0354
03fd
0e97
064a
f125
0ba4
fa2e
f975
045f
fbbe
ff71
0f49
f4a0
05f2
02a7
f416
fba1
0ea0
05dc
fe40
fb9d
0fbb
fee3
0752
fceb
f1dc
f80a
f4b3
f6f9
f5f1
04a9
0986
0c38
f8dc
023a
f8b5
f143
f5d6
f019
ffb9
ff51
f8e4
fa56
fadb
0d2f
fd09
f6fb
0648
fcd0
01df
fdfb
0d79
f61b
ff9a
f818
f142
04fe
0263
01fa
0f6c
fb1b
0987
0a01
f967
0b31
0b81
0b55
026a
0c92
070f
fd0b
fa97
0d5b
f5c5
efe1
0f32
0601
fef3
f400
069e
0466
f0ef
fd0a
035d
f363
f8c5
0a05
089d
f217
045b
fdcd
0ed3
0c44
0b11
06f0
f4ef
01e6
f19e
fe0a
04e7
0ffa
f596
007a
f281
01b0
0e2d
f55f
fa2a
f8ce
fd80
f555
f875
0d71
fb36
f6b0
f605
fce1
f1bc
0e75
08fe
fe56
fb0f
0a99
ff7c
074d
fed5
02d5
fd6d
0aee
f1fa
f0cb
ffc0
f2c1
f081
07b7
ff7a
f434
f666
08c2
01c2
0508
0561
f779
fb87
ff0b
fcb7
0496
ffc7
07d6
024a
f42f
061c
0cad
0605
fd94
f1df
0e10
09eb
f2f8
0064
0164
0144
0f8f
0291
feda
0acc
0f73
f834
0247
0b8a
036e
f4f8
f36f
fdd8
0c47
f9b5
f219
0009
f6c6
fb8e
0552
f965
06c7
f308
f2bc
089e
eff6
f6b9
fa73
0bdf
fec7
f5f6
0552
fd9f
f76c
0cc2
fa6e
0e9c
fc65
f96f
f0b6
035c
f8e0
fc33
005f
f97f
f51b
0ee5
081e
f291
fe1c
06ce
09f6
0825
020a
0380
08ea
f97b
061c
080f
0d35
f171
f579
096d
0cd0
f0ca
f967
f5a2
0141
05a9
fc69
0ed3
0f94
fa9e
fdbd
f3c3
09a5
0d97
09f2
fbbb
f156
f438
fe85
f600
0c80
0cae
0fb9
f004
0a17
06ca
0b66
f284
f1ea
0152
0daa
08df
f86c
f2c6
0bc6
080b
f06d
f771
02d2
feab
058e
00a7
0b62
f350
0285
f3f8
0796
f86b
0c9f
f1eb
f9a8
0af9
fc90
0076
082f
0baa
0ce8
fca7
0285
039a
0ef6
f169
0071
0230
f70b
f559
0f3f
f314
f960
0285
f45d
f2bc
06e4
fb15
07de
0aff
f5de
f8e1
0195
0de3
0917
0b75
f0cc
f651
fe6f
f7dd
f57c
f731
0b8d
f21f
f703
f3b9
f8e1
078c
0b50
f52e
fa8b
0f77
f39e
0e42
f951
0a2d
00d9
03f8
f2d9
f413
f8d4
01c7
ff6f
00b5
0bfb
0f3f
0a49
0d34
0224
050e
f5d7
012c
fe51
0a3a
f7b0
fbab
0a3d
f7ce
f3a7
0e1b
fe94
099c
0c7a
f66b
fa26
f012
f0b9
fbfd
f4d0
05a7
f648
00a1
0c9d
0a80
f4f3
02b0
fe7d
0915
0bfe
0ed7
fdb7
f0c2
fc81
071c
fd3a
fffc
045a
f4c3
f2d3
ff26
0c21
0e51
0285
fce6
0e62
f48a
087e
fb62
0b43
0472
0507
0c25
0b5f
f1e1
f65d
ffe9
ffcf
fda6
f753
f170
0187
fccb
fbf7
fa16
fde9
052a
f1fd
0967
fb48
0345
0f2b
f980
0902
0cb4
eff8
f34d
fafd
f68e
0954
ff33
0659
f0d0
f5f1
f14b
f537
f4ff
f149
0ddf
f0cf
00ef
0616
f4aa
0ae6
f221
f283
f4a9
f4b7
f251
ff1c
fbd1
f762
f9f7
fce8
01dd
093e
f29c
fe8f
03f8
f875
f7a7
0995
0fd4
f81f
0618
09ba
0e39
f21c
f7a4
04b0
f774
f3d2
f675
f3c0
0b11
012b
f3cc
0b81
07b9
0d8c
f5b2
f28c
00c1
fc97
0617
0c5d
0a29
f65b
fb9c
0552
072f
0ac4
09a5
f5fc
ff89
fd29
0440
011f
0937
f53b
f2eb
0592
f166
f392
fa2e
f438
006a
fc03
f805
f4e8
02dd
f1f9
fbb5
f522
0a9d
0899
019c
f92f
f466
0de3
ff55
f3ea
04d5
02f4
faac
04ea
0700
0a1c
0d3f
0cd5
f89b
ffed
fe93
0c8c
fa38
fa0d
0dd7
ffed
f396
f300
0719
0852
08c7
0bc6
f77a
0e0f
0610
fe26
019e
f11c
f77d
f330
0199
0dcf
fa07
07cd
0553
08cc
fb26
f684
fb96
00e8
f457
fa92
068b
0454
0acf
0f1e
0596
f553
0c4d
fb75
0a84
0425
077f
f705
f253
f861
fba7
fb90
fc2f
0a76
fcf1
f949
0a1c
0f0e
f548
0c1f
fad1
f63a
fcc8
f922
0aad
0ab9
0c0c
fcde
faa3
f1ba
0c02
f8f6
f81e
01b8
f027
0d73
f571
f82e
0872
01a0
00a2
fb05
011c
0986
f69c
f3eb
0683
085b
feba
0205
0a8a
f009
faad
08e0
f1c7
0574
fadd
f88c
0220
f143
0edd
f882
0e33
0ddb
06d8
f91b
0b14
05f8
0aab
f5b3
0a21
02fd
f72d
fa13
07d4
0333
03d5
0c58
f267
0b62
074c
f2d1
0787
0e77
098f
0a10
f4fc
020b
0d2a
0e3f
f0d9
f7c1
016c
fea1
0ab9
fb03
f9f4
f0b0
0844
03e5
fc04
fb80
f4dc
fb26
f672
fcdc
0070
0e1c
f507
0716
fc21
f198
f895
03aa
f9cf
eff3
0540
0b0c
f689
036d
0be8
09d8
0b73
f338
f5fb
fc5f
f7c2
f379
05c7
f171
05f4
f76d
0ec2
fac5
fc47
f532
fdf9
0b5b
06da
fdcd
f60b
088d
067c
0a20
f77f
0b22
0d0d
0524
f062
026f
02c0
0148
0d43
fb0e
ff49
0a57
fbca
0a2d
f1d1
0503
03eb
f39d
0f8a
014c
f576
f2e3
097f
f430
0a8f
fdab
0813
0fee
0d33
0292
f5cf
fcaa
0a17
0dc2
0c15
f12e
fdc6
f477
0938
fef8
0092
f81c
0b3e
0868
f922
f749
083f
0bcf
0e6d
03ae
049d
f911
04a6
f961
0d9c
fab2
073b
0f72
fe7b
0c20
fe5a
0f73
0b5f
064a
f698
f733
0789
02af
038e
fe17
f58f
ffec
f75e
f080
f30d
0077
f0b9
06dc
facc
fcd8
f594
07a9
0f8d
ffe7
0539
f928
fb0b
06ca
f37e
f543
0b9a
0e56
0166
0cae
07dc
f395
f8b4
f26b
0594
001b
f913
fc83
fc94
0730
f7e3
f723
ff17
f25e
f13d
0fa2
06a7
0f2a
07e9
0852
fb37
07de
0d2c
09fc
f95e
0acd
f794
0049
0ae7
059b
0c61
0891
0cca
0fd3
02e4
f9fe
f7f4
f4eb
0ec4
09a8
0ba2
0e25
00af
f8fb
0924
fa7f
0227
f2ca
0704
fde0
f5e4
f081
f1c6
f7ce
f33d
f28c
087a
02ef
f005
f533
04aa
f307
f82c
f4a5
f5f6
0c19
fb9b
f75f
fa42
06ce
ff29
f9b5
f0e5
090b
08c9
f5d0
f214
f280
fe9b
fe36
f502
f385
08d8
01e5
fb35
0301
0d36
0fa1
fc58
0e3e
064a
f68c
f1aa
f320
0299
f623
02ca
05dc
0b70
0ef5
0a97
0485
04ed
f50e
040b
fb03
f8a4
0ecf
0372
f52e
0414
f619
0929
f0a8
0058
f708
0f38
f2c2
0a7b
0f8d
fd0d
f965
044a
f770
f3d4
0adc
040c
ff8c
045d
0a8e
05a6
0258
0755
0a3a
07a9
0a0e
0d6f
0a81
fad3
0750
0ec3
02ec
f894
f9ab
0567
0c2e
f93b
f8ed
0e52
02e5
0114
0da2
fd4c
0292
0d7c
f7fc
0bd8
f025
080b
fb75
f2a2
f30d
0529
0002
f3a2
0f06
fdc9
072c
f1aa
f543
0d49
02e3
fd25
f2d2
0db1
f95a
ff92
0a2c
03fe
f632
fe0c
f55c
f0c5
0f73
f6da
f7aa
f42a
f158
fb27
0bb4
0846
0d73
f863
0d16
0d26
fd12
0214
fd89
05e8
0aac
0fd6
0438
0175
0dc1
031c
0ff2
0924
0df1
0687
f619
f4be
0e87
01aa
0e2f
034a
f88e
0d52
fb33
0cc8
0cb0
ff4f
03c6
0a63
f818
f5d9
f8ae
0407
f5df
0ae8
fa0b
07ae
008c
0711
fcd6
f419
ff43
087e
0a5c
f1ec
0d9d
f503
0bdc
f021
f03b
076d
094f
f42d
fba0
f6a0
0479
f2e2
f681
fa33
f143
f892
017c
0cfc
0845
059e
01db
f8b2
0b78
f6c0
0899
0137
ff45
f34a
f7c3
fb5a
00ef
04e4
fb70
f293
0eb0
0fbb
f570
fec8
f5ae
f446
fd7b
fb25
0beb
094f
f1ff
010e
f3ff
0ee6
05ea
f265
0257
0992
f6be
f09f
076c
0a29
0df3
0300
0daa
07c2
03c5
013f
0f3a
013e
ff38
f10a
0095
f3b6
0fd6
f705
fcd1
fd4e
071b
f2be
0076
08f2
0bf9
0a2f
04b7
0a20
0066
068e
06a8
fe92
fbb7
0be8
095c
f9a5
01c3
0835
0c2f
fec6
f81b
0957
0c1b
f8d8
f5bc
0e7c
f921
fa4e
09d7
0cf4
fba8
fff9
0bc4
f2b7
045d
f9b4
fa2f
f1ea
fe3e
f533
05a8
03de
0f35
f2b9
0938
fdfb
f907
0e91
fa01
f458
f68d
0491
04e3
fc75
ffd5
0765
00f8
f68a
f154
fd21
f281
f7f9
04c6
0c48
00ee
fb18
f4d4
f6dd
0c34
f4e1
06ab
0402
044d
f171
fa25
f56d
f62e
f9ff
0be4
fde8
fbab
0609
0204
0e5d
f6a8
fa63
069c
0dd5
f9b8
0412
fbd6
f997
f750
0d8b
0be5
0267
013c
fbd4
003f
0704
094a
0cce
f3fc
00f0
f5b4
f502
f97c
08c3
0089
05b8
02e0
f8e1
f1d4
078d
0498
0898
0771
efdb
06d0
09db
fc4f
f1e7
078a
00bd
04ef
001c
f2ed
f46f
f5c6
0179
f298
0d62
032f
f272
fba0
0964
0f8a
fb4b
03ae
0e53
095c
0ded
0c93
f45c
0afc
fb9d
fd26
05ed
0c2e
fcea
095a
f5ab
f7ac
f363
fbec
f67f
f617
0cde
0545
0be3
0d53
0147
f85c
f558
0a41
04fb
f75e
f5da
f26f
fa9d
f2fc
feb4
fa84
0ae4
f1bc
f5d9
0a67
f629
f284
0581
07eb
f072
06f6
fbd9
f267
f927
05a6
f940
06e9
f4a4
04a8
fd4a
0419
fd35
0f8b
f74a
06fa
f0e6
0cc6
f2d3
f713
f435
f8a5
fc49
01da
088b
fd3b
f55b
0219
f1f6
0e1d
f86c
f911
0d00
0ecf
0893
fa69
0503
085f
f3fb
fb22
ff1d
f81a
0584
0046
03e0
fa3f
0818
05d5
0806
f4b2
0c7e
02c5
0ac9
0813
f7f6
0e92
0aa9
0af4
f3ad
04bb
0f6f
f9e5
fb08
f60e
ff7d
0cad
0b1c
05ac
f5a3
0db0
06d1
f8cf
0813
fc2d
07ac
fcba
06d4
090d
04c9
fe14
0d55
0135
0ecc
fcca
f1ee
f712
fc7d
febb
025c
0e0b
f315
f11d
f49c
ff99
0768
00ed
0912
0842
0ae3
0db1
06f7
f1a0
fc6a
fb5c
fca5
0439
07f9
0cdb
0d83
ffaf
fd15
ff88
f00a
fa0e
fe48
f6ec
f5b4
f24c
febe
01ba
05fb
f59a
fa96
0959
09bb
f904
0f29
0e81
f071
0cc8
f2c7
0332
0088
fb0f
fe73
f63a
f4fc
fc26
f65d
0f33
ffe3
0efe
027c
f061
031d
024e
f60a
f21d
f4a2
feea
0dbc
0345
f179
f0df
fe59
0b5b
0346
fbf9
f15a
04fa
02bc
070b
f682
fae2
f610
02d1
09dd
f196
fa42
0f37
f930
0585
f5c4
0522
febc
08cc
f335
f0d0
0689
f9e8
ff27
f1d3
f267
f2a5
fea8
0269
f3e8
0984
f1dc
fd44
f983
f4ed
f355
0cab
fb3a
0bd9
fdb1
0ede
fbf2
04a7
f80b
0aed
fab2
f7b5
0298
f3fa
00a7
070f
fca4
0b77
fb0a
027f
0860
f9e1
f9e2
0152
f17a
050c
fd14
0674
0e0b
f088
f623
fe38
055c
fc1e
f9c9
f46c
fd1d
0c09
0486
0aa7
0c24
095e
0ba0
09f6
092f
0936
08f0
f669
053e
0be9
0af5
f0fe
f664
ffc9
f6d6
f76e
f803
fd7c
fd46
04fe
074e
0864
0c03
f4c0
f11c
01b1
04c3
0ac7
07b9
fcaf
fcbd
01b8
f38a
0ae8
f04a
0f3e
0f56
0938
f43c
0833
fd21
f815
0b82
0baf
ff01
0471
fe5f
f6ff
06dd
0b35
f39a
0331
0da1
f800
00d3
ff0c
0939
037e
0a1b
f975
059f
fdb4
fc86
fb8e
fea4
0fc0
026f
0da5
f73e
fdfa
0dd8
f952
0e0b
ff2d
0255
01fb
f9ee
fe35
086f
0954
fab7
0cc4
f552
04b4
f2f1
f617
0771
f459
0934
feb6
0d23
0ea8
0004
f8df
f051
06d7
f8e0
ffa4
07d1
f824
f4fa
fe6d
021f
0b30
f8da
f038
fdb9
007a
07b1
f7a5
f231
073c
fb03
f42f
00ca
08dc
feba
046f
fd4c
fcc0
0bd3
fa25
f571
06dd
0988
f310
feb7
0e8c
f1fa
f4b0
f347
0a75
0b95
f691
096e
f3bf
fb1d
fc6b
0761
f77d
fd92
f7b7
0c3d
042e
fbd4
0248
f794
fc15
fd0f
f362
f964
fb43
fdca
f209
0697
0ad3
094c
0481
f115
0dad
f76f
071d
f937
f7bd
f4b9
f0f6
f3e4
f149
00a2
0457
f3cf
fcb3
044b
09c9
f828
f2fc
036f
0ab8
074d
f7e5
011b
fc39
0c66
f02d
054e
00b0
f427
001b
fc15
f86f
f8ef
04df
fae9
09c5
f188
0201
fe51
f7b4
fe10
0ada
f983
0e52
0110
fc88
f40c
f105
09c1
f402
f63c
f3ed
f9c2
077c
faae
0c20
0363
0140
06a9
0e7c
0c2d
f459
04b9
01c2
0b4a
0af4
0e10
fb6b
057d
fed2
0110
f0aa
0e20
f440
0051
fee3
f611
f42c
0238
f549
f055
f5ef
fe8e
0c1c
01d1
faec
f30a
f6bb
0537
0d98
019f
fde9
0236
087a
fd75
ff3d
0aa2
0ad3
0e55
f2af
022a
04a8
f5d0
0429
051e
f789
f69b
00d1
f75e
f197
f4ef
05dd
0731
0092
0c97
fb97
f663
f13a
f487
0562
075e
050e
0b59
0cd5
f2f2
0b33
0b48
0823
fd72
f627
02ac
fea0
07c8
0b27
0bd8
f85a
fa5c
0c5d
f5eb
fe3b
fb40
fd17
0af4
f7dc
0e46
f6d5
0ab0
0738
f2e9
0f38
f957
03ae
0128
015e
fa40
f0b3
fc75
f214
095c
0434
0d97
0611
047a
098a
fcf9
0f6f
0c05
013b
0a4a
f504
f323
010d
07e2
f103
05cd
f484
0dbc
0e7c
f2fa
0131
f472
fdfa
f987
035c
fa79
0ae8
fffa
053b
f084
05e7
ff76
09ea
0767
f66d
0822
f8c1
0e6e
f5e7
f69a
0ab3
0a4b
fad8
0a9f
08a7
ff49
fbb7
f5ad
0f16
f994
f343
f4d1
ffde
0c6b
f020
09e8
fed9
0316
f00c
fbfa
f03e
0705
0211
f3b3
0bb1
fb75
0b32
007b
f8a3
fc54
f1bc
fc2f
09c1
f48a
04c7
f8ab
fc08
0442
00bb
ff1e
f7de
025b
01a0
f4c7
f368
fea7
fa7e
0963
f77a
0b66
fffa
0913
0c6e
02bb
ffe5
f983
06ae
025b
f712
fce1
fdd5
01a8
033b
0365
fea9
fa2b
0b07
01d3
feba
0170
066c
03f9
0fd5
000d
0d13
fff0
0c0d
0db0
0735
fcb0
f409
05f3
f526
f768
fb64
07b8
f298
0e71
f3b2
fcab
048b
f531
f372
0673
050f
0f89
fdb0
0e9d
f74d
0426
fe25
f352
fc97
f969
0410
071e
f99a
08ee
06fa
f254
0236
0524
0395
f33b
fa02
0045
0f68
f33f
0351
fc39
0797
00a5
fd57
08fd
fa67
0822
f1a1
0f1b
fbe9
fb38
f00e
090d
f153
f647
011d
00cb
f5e9
07ee
0edb
00c1
f26d
005a
0f73
0fe3
0302
f6c7
f6e0
0265
fb7f
fca0
0168
0a15
0fe5
05ae
0d7a
06b0
f35c
f1d4
0b1a
f42f
036a
0807
0b8f
0957
0772
fb9d
0b7f
f277
092a
f0b2
0cb9
0d7c
fad1
f1e1
fcd2
00c6
0a84
fb54
f366
0aff
0233
0b25
f029
fb0a
037d
f16c
f45e
faa3
017a
fc48
f804
0fcb
f8c3
f657
f4e7
0b93
f87c
fa80
05bb
f4a9
fef0
f643
0d6a
fc5b
0e3e
ffd3
0b47
00c8
0f57
fb21
f112
0f97
0d2c
f124
0df7
fd5a
020e
0361
f461
fa68
fa30
039d
f301
01ca
fc53
f27e
0ae9
0eab
f55d
08cc
04c1
fb3f
f0f5
0ecb
0ed6
0e52
f1a1
effd
03f3
0a1b
05f9
fb40
ffb1
06cc
f900
0b06
0ed3
09e9
0c6a
f0c4
f2f1
0557
09e6
fa91
f429
0eda
0bfa
f868
05e2
0273
0d83
0f40
00d8
08e1
0e64
0d50
f57d
f7ae
f89c
f933
05d2
0bc8
01cb
0b82
fe27
f467
fedc
fd4c
ff68
09a0
f87b
f7a1
ffd0
fa57
049a
f7ef
08f7
007e
0d72
0b6f
ffe0
ff9d
0ffd
0e90
f5a2
0d28
ff22
08b8
0917
05b0
f77e
f4ad
0aeb
f133
fc1a
f360
fdfb
0985
f4bf
0a8c
06b4
0eb7
f7a1
f10d
f334
f263
fd7f
f337
0733
0922
fb5c
fbe3
095a
0bda
0d8f
f871
0cea
fe7f
fb33
f60e
fce3
ff3f
0131
0a29
0b5f
fa39
0fb2
0182
0639
0d65
f7b1
0139
fba7
03f1
ff46
fa13
0de0
f26a
0e46
f8c9
f867
fba3
0832
f53d
f6e7
0467
fcfe
f4b7
0448
0f85
0fd5
fa5e
f6d6
f381
fc00
f47c
f4f4
fd8b
fab9
f58f
014b
0791
06e0
038c
0c66
f60d
fea2
f576
f5aa
f967
f37e
f00e
0f8c
fd1c
f6d7
f1f5
0b77
0d49
0b0e
f8ad
fb2e
fd96
08e4
f5bf
0345
f8f9
fc7d
0267
f7e2
f4ff
f190
0e6d
f490
08aa
01e2
0ba2
029a
f69a
f2d7
0b61
f054
0a46
083f
0cf8
fc98
0084
0dcd
0cff
f83c
f378
f3c8
0b22
fbc8
fbac
0c04
02e8
f462
0fab
0767
0cba
0053
0f74
0100
04a7
0445
f9a0
f2d7
0b34
0ab6
0693
0c08
078f
07bb
f804
f0e2
fd51
f263
f799
fec8
09e4
0ef9
04d6
0970
0632
f315
f5fc
0562
09fd
fe8c
030e
f30e
0b31
0ab3
f347
f268
01de
f5c3
fd5a
f8b9
08c1
f5f1
0ed2
f16b
f306
fc11
0c77
f214
0044
09cd
0ab4
0d26
0bac
f2c1
f56b
0f65
030d
068a
0be0
fadb
fdb3
f045
0494
01b7
0635
0f70
0821
0eb9
0fce
f7e3
0ad7
05a3
09f8
f2a5
0824
017a
fb38
0bdd
051b
f6b9
0fdf
05c7
f448
0220
0ecd
020a
ffd5
f55c
f38f
f577
ffb7
0751
00e8
0ade
f48c
00e3
f5a7
f125
0c7d
ff0d
f5c3
f6ca
f56e
0088
0a0a
fdda
ff3a
0f7f
0c67
fe2f
f3fc
0be8
f5cc
f37b
fefe
f461
0fc6
f8cb
0ca5
ff26
f8dc
f56c
fea9
f02d
fecc
fd9e
f74e
ff17
f4cb
f976
0300
01cf
f775
f9fe
f23c
09b7
fdb8
06c1
08c9
f73c
f1ad
f9ea
f536
f7d8
f609
0254
0aa0
f88f
f04f
f911
f255
03f3
0c40
049c
050a
ff9b
0aba
f102
f4d1
faf2
09ed
f0ae
0e6d
ffe7
01b0
0cd8
f459
fbf6
f171
0406
f237
fe8b
057b
0cc3
fab8
f116
fda9
0e62
0bea
fdf6
0253
f488
fb1f
f8a2
0862
f528
0d8c
01a4
f707
ff04
fdcc
02af
0d7b
f51b
01df
f7af
0510
07c3
f1a9
0bf0
0e1b
0bdf
fa28
019d
008a
f21e
f21f
fbd0
06b8
0c5d
f764
f58a
02bb
fd7a
07cf
023e
fab7
09fc
0445
f3c4
fa63
fc1d
013c
0206
fa8d
fa60
f814
fe77
f265
0a12
ff9d
0e91
f709
fb98
f1b6
f166
031e
0f5f
f9b6
0772
0841
f891
f999
f9d2
039b
0af4
0fea
016b
ff05
0cec
08aa
f300
00ff
f843
08f6
ff54
f098
0770
faa9
060d
0c1f
0b84
046a
0807
0b3f
0198
fe1d
f52d
fdcf
0e9c
03e3
f1db
013a
0843
03bc
0195
0137
0c3e
041f
fd28
0723
fc4a
0d3e
f75d
f54b
f1c4
0396
f348
fbc0
f7f4
0a76
01ff
f7cd
076e
fab4
f352
0ad1
fdb8
097f
015d
08d8
f421
f02b
fb60
f855
fcc0
fae4
08f0
0c18
0cf9
fbe8
f892
fa86
09c2
0b98
0964
023e
fec6
0f1b
fa00
019d
0966
0853
0d0d
f07f
fa15
081c
f41e
f56a
f40a
feea
fc92
f316
0293
fe98
fdd1
028c
f239
0e7e
011f
0e9f
0915
f8e2
0f89
fd02
0f45
0636
05ee
024d
02d7
04f4
0376
0eb8
f018
f4ab
fa8d
0f68
02bf
0798
0b1e
0c71
f6b2
0dc1
fbdd
f5eb
00a5
f2dd
0816
0dbc
0fe7
049f
0cf7
07a0
0115
f815
f7ac
0d12
0d8f
f5b4
0ffc
fdd2
fd78
0f7a
0ca8
fdc8
f91b
f87b
084e
f4bb
f721
02db
0b37
08d8
08c9
f05e
02ff
0957
f148
0c32
f30f
0c3b
f472
f82d
fcd2
07dc
053c
0bfe
03d1
f970
0a81
0d3d
fab3
0c90
fe96
0a6e
0bb4
f7da
06c3
fcad
fb6f
f62e
002c
0298
0a4b
07a8
f2e9
0db3
0c7a
07ba
086d
f2c1
08ca
085a
fd9a
0e22
f98b
f8c7
0295
f077
f958
fb5d
f5ff
07b3
f581
f772
fe23
0a4e
0eb8
f360
0a39
fe55
fb49
f703
071c
f51a
f402
fdef
08fd
0e77
086d
0228
0a69
f7ce
07e3
0224
0c6e
f908
08dc
fb53
0d3b
f2c3
059b
f497
05bd
083b
08d7
0bb7
fab0
f10c
f60d
0e32
0ba9
0080
0b56
0271
0574
0933
f383
fbdf
feae
0f82
0321
f78c
f3f6
f767
f260
017a
f9a1
fe54
0717
f13a
fcc0
08f3
fe81
08c1
f66b
0877
f6b0
08ec
fbd2
fbf8
03a2
0159
f372
031f
f011
014c
f30d
fca2
008a
0db7
05a9
0166
01c5
0c0d
0665
f441
0cfb
f77b
056e
ff6c
0848
03f7
f52c
f23f
048f
02b1
0f43
f357
051a
f261
076e
fbf9
06e9
f8f3
fbd1
07dc
04f5
f7da
f514
0a85
f0ca
00bd
0df8
f8a9
0927
08d9
0898
f688
010c
fb74
0141
f5a7
fc5d
034d
fc8a
0b38
f0ed
0fc7
03e2
0d89
0b7a
fb61
04a8
f4a7
0a08
04bd
f598
f88c
0de1
0083
f0cc
0a61
fab6
00cf
fc71
f1b6
03be
0a53
f17a
060f
f396
02c4
fa72
f22b
0783
f083
01e3
f3cf
f8bf
f6a4
f73b
f4e8
f26e
02ee
f6b3
04c9
0b2c
0af8
ff23
f7a3
fefe
0064
02c3
fab9
f58f
027b
02b3
030d
fcdf
ffe3
09aa
0755
06d0
08c2
0c4a
0aa7
0901
0019
f883
054d
ff84
066a
fa9c
f7e9
fd02
04a3
0c1e
f518
feac
f36b
0b25
0cf1
fabb
0cca
0167
f68e
fe59
f8b6
fb21
049a
0c74
f2ce
0cbd
fbd7
f82c
0cd5
fddb
ff8a
02e0
031b
fe78
0735
f38b
08bd
0fe8
f806
0e67
f396
081d
00b2
fca5
0a53
097b
f94e
0dae
0d32
fdd0
053c
f2b2
0c52
fdd5
0991
f40b
f955
f98a
f50b
f79c
05ed
0c5a
0eb0
fef3
0a02
fa29
0d1f
f1a8
f36e
0b9e
f9b0
0344
0ab8
f435
0b87
f2a3
0b39
f2b4
0283
08d2
f577
0efa
032e
04f4
07a7
fc82
f3f4
08ab
0aa4
02c1
fa31
f4ec
fa9c
f5ef
04cb
fe18
fa50
091f
01c5
0bf8
0bbb
f876
09c0
0c66
09d7
0bdc
f5bb
f608
f8f9
fd5a
0725
0354
feea
088b
fb4e
0fbc
f469
052c
f522
f71e
f2d8
0e1e
0612
026d
064f
0632
fbbc
f483
fd62
fbf3
0a69
0a52
f6c0
0af1
0cfb
0562
0120
f20d
f9cd
048b
f6d1
0146
fbe8
0ed2
0c63
0e31
0669
0252
fd49
fb7b
f940
0464
f89e
efc8
0097
f73a
0e7a
0bb0
04c7
f2e3
fc64
ff04
f978
fbca
f827
f3a0
0714
eff3
fba2
0fc7
fe83
f236
effe
f8ec
fd62
f2d5
fbf9
0c78
f9b2
f675
02c8
0c97
0d14
0c9f
084f
0a1b
03f1
f562
f291
0f93
0ef3
0f7c
f7e2
0d7d
0a0b
f4c7
0dc7
043d
0a02
f288
0cde
feb5
0339
0336
fc12
fa5f
f359
0b11
05b5
007b
0802
02cc
0e18
f10c
fdcd
f7ee
0da1
09f7
f55e
f18d
0eec
048a
f808
f486
ffd7
0b85
f265
0ce0
fe12
0c6e
f8af
f97d
098e
f472
fca7
0edb
f6a0
fc72
05f8
049e
f64d
020c
f62b
fa52
f486
fee5
f93b
0817
f500
07f6
f6b0
08ea
f9ff
0558
0a30
012d
05c2
030a
0b69
0f04
0d00
fe57
fd5f
0518
0c44
025d
0104
0fb8
f593
0669
fcb9
f478
f17e
09be
f0f3
0631
0cce
f433
f21a
0dd5
0066
0843
01be
fdb1
0876
07c4
0fc5
f927
0686
06bf
f865
fa21
f639
0c5c
0d57
fbd2
f439
f2e9
02a8
0492
f4c9
f5c0
f6c3
fa34
ff09
0952
fb91
0017
fbfe
fd32
fb4b
f5f1
0888
f05d
fd11
03de
fd8d
f443
059e
f157
f2b3
f04f
f766
040c
fde3
fc9f
f40c
0cbb
0004
f402
ff1b
f33a
f60a
fe73
f426
fb4b
f3d7
f6f3
f0c8
f189
f616
fb69
0fc9
05c3
fa87
fe33
0db2
04af
f98a
f89b
f5e6
0724
06d8
0c91
01be
0c99
05ae
08f3
0b81
0665
f438
fe58
f4cd
f4e8
0d3d
0058
0999
fba3
0cc0
0638
f029
0129
f8b4
fed0
f29f
f34e
f6c2
0ac8
06ae
fd82
f9a2
0680
040d
fc72
0259
026c
0089
0bb7
0ab3
f9a1
0ca6
06e8
ff39
0083
fff6
fc1c
fbb2
056a
f335
0466
0cc3
0d58
042a
02d5
0348
ff09
0986
0a3e
0136
0ace
f51e
fba6
f71c
0b27
f00a
01da
fb2a
0678
f46f
fa0e
f665
0699
fd8d
f7a5
f7a8
0789
f318
0336
0dd8
0a51
f349
037b
f684
0370
0eac
0113
f12b
0126
0a45
0034
f809
05bd
f92d
0c06
0df9
0b71
04fc
fccb
f6cf
f551
f673
f05e
08cd
fd94
f102
f886
09e8
fa88
f6da
ffaa
0645
f4ed
0cdb
fa95
09a6
0da7
0d3f
ff85
f4e4
0a60
f075
0724
f554
01ca
00f6
0afb
0e09
0ef3
0263
0e38
efcc
f076
0b3a
0466
099c
f80e
f45d
f810
f01b
0e96
ffb4
ff0b
ffab
0423
09f3
f0d0
0c63
f197
fcc7
07fd
0fc6
0251
f4f5
023c
00ce
f30a
f500
037d
06a4
f6b3
037b
0026
f11f
f821
f264
0b21
05bc
fe4e
0db2
0922
0efe
f9f2
0508
f0e4
08bd
f1aa
0f9e
0143
fb2c
f578
f0b5
00a8
f933
0cea
fd16
041b
faf2
0a77
09cb
f72a
0466
07b3
0b9a
fa90
0606
fc93
f19d
f83b
0ab0
077b
f187
fd56
08ac
f9ae
f0fd
ff42
056e
0c96
0e29
005d
fede
0867
f4f9
080e
0f27
ff76
f042
feac
f762
08e9
032c
0988
fd58
f833
0b96
0a05
007b
f195
0b5e
f973
0799
f6db
08ae
0439
f16e
0fee
f5d9
f673
fabe
fff8
f889
0590
fa0c
f7c2
fef1
0139
06d1
0055
f9ab
0231
0da1
0e51
0cdf
00b7
f3e8
ff27
0403
0b64
0967
fd49
f28f
f41a
f347
081d
0ea6
05a7
f25b
0edb
0d08
05b8
0b63
f279
06d3
0c46
f769
0d46
ff36
fad5
f81e
0be0
f63c
06fa
0714
fb7d
078a
06ab
029a
ffab
fafc
06ab
092d
f496
0488
0b67
f457
f5f8
f03f
0643
feb5
001b
0174
0d33
f599
f492
088b
f2bb
0b82
06f8
0204
0a31
0cf9
f090
fdf3
0280
f3f2
0676
f1da
0692
061a
039e
0291
fce6
0495
061a
02d0
0c67
fee4
f318
f5d4
0061
0b2d
06cf
076e
07b8
0cc8
0690
00c6
f06c
0faf
0ec1
05d1
0070
0d0d
027a
04b4
f362
f26d
05b8
04f0
f273
f301
0a7a
01e3
fabf
0581
0458
0eca
0ab7
05e3
0039
f904
f8cb
00c0
f157
0735
f1f0
0382
f0ae
f075
f715
f071
fe49
f40a
f9a9
f4e4
f1fa
f764
0069
ff9b
f27e
fd91
f02c
fdd0
fb61
064e
0549
0e65
08c1
fe20
0411
ff21
09ba
fdfb
0058
048e
0246
0914
0361
0549
fb8a
f594
0374
09f5
0f69
f789
f0dc
f67a
0bcd
0e0a
fd35
f9a4
fb12
f5c1
f179
f7c2
fa21
0e10
0584
0f80
0965
0776
0e56
f958
f2e5
0e8a
0bf4
f863
fffe
0398
f6bd
0cc0
f9f3
f235
0d79
038c
fdfb
f4a9
f772
082d
0019
0398
059c
f90f
ffb1
f9d1
f87e
ffc7
fd9f
fe94
ff29
f55a
0552
f4da
0188
f0ad
05f1
098a
f3b8
fb60
f969
02bd
f28e
0d29
fa8b
f1a3
07d7
0755
0104
0525
f582
f7ff
f939
015c
f106
fdff
ff3a
0d61
f45d
fa7e
fdb8
fdec
f65d
0072
0df5
02c6
071c
ff0e
fef4
0028
fffb
0351
f875
0f19
05e4
0e99
f3c1
f718
0c32
0edf
0627
0d66
ff6d
0f52
f941
0b93
f6fe
fe3a
f3fd
f24c
f87d
fb3a
0cb0
f839
0c60
f5b9
f5f8
fa57
f088
ff14
0a1b
003c
ffee
f34c
ff8c
f499
f0fb
f20b
0e9f
0b4e
05ac
f18b
f8d6
f5e8
0427
08d3
0120
f94d
f8bc
f622
0ac8
f246
f1bb
f8b8
ff19
fc90
f58e
068f
f578
ff2b
f963
042d
f43b
088b
ff4a
f0ef
0f60
0c06
08b7
f635
040a
f734
f7b4
0edb
f667
fd44
0c8c
f2c1
0cba
0cd9
0482
fb17
00e8
0f4c
f1f2
0e4a
fff6
fe40
0908
09ac
f2ab
f2d1
0c9a
0f78
04be
0e22
0024
f75e
f0d7
0504
0bf8
f35b
0c26
f018
fe61
f94a
0f75
fcfb
f939
02aa
061e
f63b
ff06
fcb9
fa96
f1f0
fc6d
0c4e
00fd
f49e
0c03
f3b1
0241
02af
0799
f3fc
02ed
ff15
ff17
f1f6
f8cc
f9c8
06f5
099f
fc22
f8d1
f4ef
071d
f5da
ffcb
f16c
05f9
09a3
0070
f25d
01ae
0ed1
08e3
0a1a
0d8c
f489
09d8
f7a2
0cf8
f580
ff02
f068
0d77
0f41
0e87
0391
fea7
00b6
0afd
f4c1
0f64
fa70
f87e
0838
0eac
fe13
0edf
0a83
f142
0d6a
fdee
09ec
f0a7
f5bb
f3c9
feb5
fe01
fc39
04d5
0267
073e
0a68
06a8
f440
0cd3
fc2b
00be
f8b8
f094
fa0d
fde5
01ec
f35d
03f5
fd9f
f891
08c8
094c
0352
fa0e
0a37
f55f
f739
0528
00a6
0606
fa4c
f2b2
f45b
082a
f24c
0c70
ff36
fde0
fcf3
05a6
03de
0121
036e
fe60
02c3
f1be
0d8b
0c43
02d2
fae1
0ecf
0809
f1f4
f854
0582
f099
f13b
0322
f3cb
ffcb
0ebb
fca7
0944
02ac
f976
fc5e
f438
f0fd
f98c
f356
0f23
fde1
0cd6
0edd
f02c
fdd7
0d38
fc26
0028
0f48
0d7a
f359
0880
09b6
0e10
f01d
f040
f447
f887
fe9e
0dfc
fcef
f05a
083e
f88f
f7f5
0537
0802
f626
0a9a
074b
f690
f4fb
f15b
06a9
f367
0404
0025
f9a5
ff7e
0cdc
fa9d
040a
f303
08f5
f18a
0976
0129
0f99
027a
0dfd
012f
0067
f614
0ed2
fbd6
05e2
f97a
f9fe
f804
fd00
0791
0333
f48c
f705
04fb
0f64
0758
f289
f182
f2bf
fcdc
fd83
0a95
03cb
f3a5
fb45
f131
09c1
031f
0b87
f1fe
02df
f798
0f85
06bb
01ea
fc6e
ffbd
0119
0b84
0361
0b82
07b0
0f0e
ffe7
f13c
0baf
fa3f
03bb
f921
f385
0bd6
06c9
f3b2
f0af
fd7f
01bb
0c03
0ea9
fee7
033b
0cee
fe90
030c
0612
f68a
0287
ff35
0fbd
f945
0255
fcf8
f36a
041c
f841
0a0b
0031
090e
f731
0f05
078b
f074
0944
08c7
f964
0e6a
f0c5
046e
088d
0249
04f7
f727
f901
f920
00df
f542
0c65
054b
f941
02e5
f020
fc08
0c28
ffe1
f4f6
f934
0d45
0d23
0882
01de
faf2
f286
0f82
f1cc
02f6
f091
fcb2
0d8d
0e72
f964
0c65
088b
0e8e
fd0f
04c4
f94b
f23b
0adf
f8d2
0f4b
f968
0c61
0f4c
fe0c
0108
f226
0c61
fa51
0158
f6b5
0748
f1a0
f4ab
01ec
0c4f
f1c3
f2a4
fbee
f314
fa94
0729
fd94
0b25
0c59
f474
f827
0daf
fc36
03ca
f100
0f66
0ef1
0485
f2ce
efd6
fffe
f5e2
0c93
09f6
0f41
048d
0a66
067f
0af4
faab
f69a
0fbf
054e
f7d6
f6de
fd2f
0164
0ec5
ff11
fc6b
0a5c
f2c4
01b8
08d0
ffc3
fcaf
0e93
f786
f5b6
0afb
feb7
0b3e
0199
fa44
000b
0572
fffe
fb9f
f124
f65a
f244
f9e5
fbec
020f
021c
fe33
f3fe
0a33
f649
0063
02db
006c
0f1b
f593
0a0b
0d69
036b
f83a
fb87
f92d
f026
fcce
fef6
0abc
f63b
06d6
f2bf
f3cb
0d16
f93a
f29c
0f25
ff4c
019d
0be7
fe72
fe2d
faf3
02fc
fc9e
0409
fcd1
0d76
052e
0e44
02b7
093e
0cd9
0059
0409
f508
f3f3
f1a8
005b
f7c1
09ab
036b
0394
f741
f881
0b34
02f1
ffb6
fd96
f349
0827
0430
01a5
07d1
f19a
09b4
06c5
feed
0bfe
fbe5
fcfa
05d8
f2b9
fe16
fe90
fdc9
05f0
f3a6
00fd
0833
06f2
f12a
f17e
088b
00b3
f6b2
f9b3
f94c
0e19
0c5b
0fc0
fa50
0e9d
0b54
05f8
0801
fd89
0219
f2c1
08c3
0f00
056e
fb30
f8f6
f79e
fb5e
07fb
00ad
0942
01dd
f0c2
f388
f251
0e1f
f0fa
0589
0cc8
f41e
f1d0
005c
025e
0939
f43c
0a0d
0a15
f242
ffff
fea3
0765
f4d8
0ee6
02f6
07ab
0812
08c9
f9f9
f275
f783
04a1
0a98
f494
09a8
f598
fd19
0cce
0d24
f97e
04b4
00fe
069d
074d
05fb
06fc
ffe1
f1d7
0ead
0553
0a19
f2c3
09d3
f2e4
f16a
0cc6
0b27
0949
f3ef
fcd4
ffdf
00de
08fa
0e0d
0a4b
f290
0509
0add
f1fd
0e2e
027d
0147
f562
0aac
0676
082d
fc0b
0be1
f0ec
0790
fb45
f1c9
f2a8
f337
0ae3
0159
f16f
085c
f965
f8d9
f07d
0d78
0fc0
01c7
f858
f7fd
f7fd
0806
fbe1
fd13
f3c0
0952
00c6
f4b8
0b46
086a
0135
0526
0ad5
f6a9
fccf
f261
0e1e
f169
fa21
0f6e
ffae
f6e9
f2fb
0936
05c8
f414
0ba2
f931
081d
f9ab
0287
f054
0e39
fd8c
f7ac
088b
048a
0268
fdff
0809
0a7b
0636
0f9f
030f
f8da
03a7
f09c
f152
febd
f5e3
060a
0ae2
055b
f756
0fec
f8c4
0d6a
06f1
0652
f7aa
f042
ff26
f04e
efce
0cb5
0134
092c
0b9d
01c7
0567
094b
f3b4
f80f
ff33
0a78
f298
089f
f454
f9b0
f01c
0099
f4b0
fdfd
0a61
00cb
f9c2
0d0c
0fae
f374
f51c
fcc7
0002
0f2a
f05e
f8b3
f960
f503
f617
0979
f86b
061c
f7b8
f244
0b64
f982
0b66
f3e8
02f5
076f
0898
05c9
ff0b
fba6
fd48
0d8c
0605
08b3
04c7
0cb6
0d9a
f5e8
07d8
fda2
03d6
083a
0f7b
f214
06e6
f2f3
f880
0517
eff8
07c0
048a
fcfb
0bdb
f440
06d0
f205
06e8
09ab
f432
0b2f
0c8f
f9c5
03ec
fc93
f7ae
f53d
010e
032e
f0cc
02c0
f020
f250
0508
f930
042b
f636
f2f4
f0be
0121
f288
ffb0
fcfe
067a
0752
0084
f3b7
fa90
feb4
00a6
0c22
05bf
0dea
fb38
f713
0144
058d
f7b9
0641
f469
0400
099c
fd56
0ac3
04cb
fdfa
0d54
0938
ff27
03c6
0e66
0f94
0e19
00c2
f1bd
fce5
feaa
0e77
fecd
0323
ffee
0be3
f2da
f3d1
0a34
f971
03c1
fefb
fd99
00e0
0f1f
0202
f050
f838
0db2
0e73
fb8a
0f5a
00e3
0a7d
f59e
0cb8
f263
f83e
efe0
07f4
05b5
0f73
0716
03e4
0ed4
fc9e
f1dc
f19f
f657
fe4f
ffc3
0aa3
fd10
040a
f81d
ffa7
0a11
ffea
0570
fd08
01a1
f8b7
09aa
f8d1
018d
fb06
0b16
fcb4
0e87
fa75
0eb1
f760
0b40
0ee3
04ba
f1b9
fb3c
03be
0673
f278
fe46
f6d6
06ef
f624
f88c
069f
071d
0798
0ebd
f951
f707
f96d
f770
f773
0b11
f5bc
ffb5
f972
08a5
0187
f288
f5fb
f9d4
f04c
002d
f44c
061c
0b2e
f109
096a
fbc9
fece
0049
f31f
f700
f5c0
0df3
f70d
0d6f
00f2
ffb5
0282
f235
f38e
f5ff
0005
fa28
0b8e
0443
f6ff
f980
0d26
0025
fdcb
f0f9
fffb
0fe6
fc50
0d32
078c
066f
fa66
f692
f5ce
f195
0c9a
f5e5
0dbd
f308
f7a5
fe9c
0119
0160
0216
fc08
f331
000a
0c54
0c92
0291
f678
fc22
00e1
0842
02af
ff88
0ea2
f806
f5f1
0094
0d3b
f213
0db0
f2c2
0e94
0483
f78a
05f8
05b2
f88c
0b37
0e6d
fd2a
0cd4
fe39
072f
fdaf
fed9
f550
012f
f777
050b
fa17
fe20
f285
0883
f1b1
0bfd
0aca
f075
0b8f
0bf3
f997
f5c9
0986
0ec1
01d7
f4df
0a45
01d6
0c99
0a06
f895
f689
f012
0ef3
eff5
05e5
f8d2
0a35
f3be
05c1
021b
00cc
f635
043d
fffa
fe66
f394
f806
06ca
0000
0e21
f0c7
fcb3
0e5a
fac4
0702
07ce
0914
0bb2
fea3
0c1a
04d3
06a5
f355
f6b1
06c5
06bb
0cf1
f4cd
0d16
fc3c
0430
f505
f915
f5fa
0963
fe38
f859
0443
f5de
0dee
06b8
0e5a
049a
0d44
0d97
0d70
0886
0668
f3e7
f059
ffc6
011a
fcaf
08b2
f4c7
0e4e
fd18
fd67
04ef
0ad3
f8e3
0036
f4fb
fd23
f224
0c7f
0ef6
f901
f450
f972
fa5f
0387
084b
f9e8
05a7
0075
0618
fe4a
0fa2
0dea
f98a
f144
f373
0fba
03ea
0093
ff6c
fb59
07a4
033c
fbe5
0f59
f461
f690
0d73
f208
05ba
0f73
02eb
fadb
08ce
0ce6
f56b
fc76
f32b
033c
fe9b
fc8e
f758
0ca4
0772
0ee5
0548
0de8
0c62
095f
fac5
f308
fe1e
fc78
0d1e
fcb1
f839
0ad0
0bad
f817
f7e9
0ff4
0011
ff51
0909
0f7c
fdfd
f151
f6ab
031d
f931
0e2b
f69d
f914
fbd8
f92b
f49c
0c64
f7c1
0004
fad1
f914
0db1
0113
058e
0f45
0a09
0308
0d0b
f296
08c8
06a3
0d9c
0f34
0170
06bd
0180
0de9
fcfd
f457
0c33
f1e0
f274
06de
0424
08a5
02ec
0320
f1be
0791
f4fb
0fbd
f98a
0a06
0c83
01e0
f327
effa
f403
fede
f496
f278
f8bf
08a6
f0ea
fd17
f452
f766
0f3b
03b5
f440
f5c3
0f17
06b2
0fa4
fb08
0a11
0510
04b0
f329
fbd4
061e
04d2
f9b1
f662
0beb
f5ea
02e8
0845
f46b
0308
0824
08d3
08a7
096d
0076
f8e8
f461
03e4
f3e6
0e19
fa6b
fee5
0892
0b4c
f144
f794
05e7
f3e8
09ba
f004
fb11
009a
f6fd
02ba
0911
03b5
f375
fa62
fdb3
f1c4
07ca
0d18
0c59
010e
058e
082d
f1c8
f524
fbca
fe96
062d
f572
0730
f136
f475
098c
f337
0463
0608
fa2f
0602
fcae
f0c3
f763
0413
fd59
f8af
fb18
fcfd
f62d
03da
0652
f060
0a82
f5f0
f2eb
f92c
01f7
f082
f766
0c94
fa0c
f7b0
0efa
07af
0922
f30d
0640
f55d
fa98
f1d9
f83c
ff23
0598
081c
f4f1
fe65
09a6
f05a
0ab9
fcbb
f3c1
fd0f
092b
f80c
f2f0
0d93
f2f5
0a66
f6ff
f382
f31e
032a
f1e8
0bc8
ffd7
0267
0def
f4b3
f617
f1f6
0faf
0ca9
fac9
0afc
fb9c
0486
f774
f371
02c2
fd7c
0954
f667
f633
fe60
f139
f53b
fff5
0b4d
f79f
00e2
01f6
0420
094d
f0b6
f4d4
f51a
f925
fe55
f781
f1cb
f32d
f025
f1a1
0f53
f7e3
055d
f343
00de
f2ee
0f25
fc15
074d
f29b
fe72
fbef
f59b
f123
01b6
fb4b
01f3
0ea7
f381
fd02
f475
0465
f340
0bf0
f526
09a8
fbf0
fab6
05ee
f606
041a
0035
ffbc
f5e3
fc86
f5e2
f65a
03d2
0fd6
03d9
f8ea
058d
fffb
fc7f
f4d9
fd99
08a2
f368
fa3f
07ce
0039
f1a1
0ba0
0e97
0a66
0760
f686
04f9
f46a
0f15
0123
f4a6
f081
fc38
0873
f5a9
fc84
f889
0205
f5fc
fbc3
f896
05cd
0886
0411
0506
02f8
09b8
0560
049b
02a6
fca0
0aa9
f44d
08e6
0843
0209
f4f5
fa85
f8d8
003a
fc93
f29c
f565
085c
0098
f202
fcf4
fc17
0cd6
f57f
fb4f
0d9a
0709
0cbf
0bcc
f8fb
0d5f
01b0
0326
f34b
05da
ff70
0ecc
f293
fa45
f5f6
0b8c
0449
0d0e
03e5
f3bc
09a7
f1a5
0cd9
f475
04e0
0e62
024d
0ea3
f832
0d6d
0220
f80d
f3d8
fbf5
fd6b
03e3
f4f2
f952
08e8
ff99
0771
0e08
ff58
0544
fc36
f862
fa6e
f424
f45d
f8ef
0738
f627
f633
0bfb
0ae9
fb8c
fcc8
09d1
0540
f3c0
0c35
f8d7
0b28
f2b0
08b1
f663
02c0
0887
f863
056a
0f3c
00ff
f511
fb3a
0ddb
f9be
0843
fe57
fc00
0aea
f6e8
fd2e
f688
0d34
fc08
0113
fd6f
fb2b
042b
ff5d
f571
090f
0bb5
f294
f206
0933
fbed
ffdd
faa8
044b
f584
06f5
f1f9
0ad8
fb24
f54e
f126
f589
f95b
00eb
0417
0a79
f525
0886
0c3b
f4e7
f879
064e
0e4f
fd13
f097
f7ff
f607
ff28
0f0b
038d
ff10
fb40
0bb9
0cca
0870
f926
fdef
faea
f58d
f68c
fee6
05dd
019f
f1e7
fc4e
0aef
0038
0e17
0009
0807
fd7c
0cf8
01dd
03df
0c6c
0ba6
f279
f4f7
02f3
f170
fc25
f6ae
019a
0c8b
0c1b
f07d
0026
fcfc
f248
fc83
f8e4
fa6e
06cf
f030
0dad
01e5
f32b
0652
0699
0009
09c7
020a
f8d1
f5e6
072f
0607
04b4
09b3
f938
f75f
f2ae
f5e8
f80b
fb3b
f01d
f829
04cf
039e
0213
f8d1
f394
0aea
0818
fe58
0542
0da5
f2e5
f2eb
fd23
0978
0333
f2ec
fa14
faa9
f66a
f955
ff61
fada
0d99
07d9
f8a3
02d0
f1a1
0b9b
f2b5
012e
f53b
0c62
fd22
fea6
0c05
04f0
f511
f2fe
ff68
fc05
f500
f31c
faca
09bc
f828
0093
f8a5
0161
080d
f48b
00ce
062e
0c1a
f063
f5db
0ef0
0092
f3c2
089d
04e2
fa2d
0316
0cb3
f482
ffab
f75a
f2c0
0311
f8a1
0ad2
f64c
f5a7
0389
fb1d
f840
f666
0c0d
fd5f
f96b
ff35
f7cd
fe35
0a7f
f615
f24c
f4d8
f00a
f3e9
0a60
084e
0bd9
098a
f76d
f39c
0cab
097a
0be9
047e
0a1f
0eb8
fed9
0bb0
02a5
f781
f0a4
fc8e
ff06
f7ca
0484
04dc
0c41
f4a2
ff3f
05d9
0b63
06df
0be1
0f3e
0346
053c
0482
0c67
f4a1
0838
0c71
ff30
031c
fd6c
0e60
f010
f1e2
058a
0818
014b
f35d
0887
f3c4
0e9b
fd10
002a
0be2
0771
05e7
0f77
fbca
0985
059d
0639
02e2
f288
0643
f91f
f4a6
0e42
f1a0
0fa2
f872
0252
f80a
fc3e
0bb4
f234
f9f7
0477
f769
fa65
f582
f38e
fd62
f891
0d38
0a20
0503
f221
0521
01b9
f00c
f442
fcbb
fd5c
f99b
fca2
f7a7
0e7c
f4a4
f412
f68a
0be7
0fe2
f190
f4f3
0d8c
f215
0418
025f
017b
f878
fe2f
046f
f174
043c
fb0a
0089
f3f5
f895
0723
0f40
0e0d
06bf
f834
fb34
0fcf
fa4b
05d3
025d
0e4c
0e92
f6c8
0567
0549
034e
0da1
0be9
0d77
fd6c
089a
0d6a
0006
0f94
f1a6
fb40
032c
f130
050e
01e8
052e
f9c6
fa14
0f51
fef8
0faa
08c5
f97c
0f5e
078a
fc1f
06c7
f3c7
0303
f956
0c5f
0dc3
071f
f474
f46d
08c1
f53e
f73d
0203
0b3c
069f
f2c2
fff4
f061
0ba3
fc4c
ffdb
08e4
f208
06a5
08ef
0355
fe2b
fdec
091b
fcee
f696
0c4e
02ba
f3fb
0861
0c94
ff88
fb1d
0189
0170
08a8
f050
02a0
f933
046d
072e
f750
f3df
f9f3
0547
0574
033b
f6e3
0a23
f3e2
f06e
0bd5
0750
019f
f0fe
f1ed
018c
0103
f3c8
f0a8
0142
04c9
fc22
0e6b
038a
03d9
f219
f1cb
f458
05d3
fb66
fbee
0af0
0799
023f
f8e9
0c90
fb7a
f992
0e1f
f7a7
f75d
f97c
0e8f
0985
07cc
fa8f
f56d
014d
0f2b
00d3
086e
fa3e
017e
0707
05b6
f6d2
fafb
0e80
0f6f
0e0c
0c69
f5bd
f7fb
0923
f9ee
0357
f383
0efc
05b6
f38c
f2ac
ff0d
03d8
0ed3
ff59
f0f7
09bf
f39c
fe0d
0d89
f2a6
0d72
0f9a
0767
f5d3
f066
fa6a
fc97
f774
0520
0bd9
f1bb
f2f0
0575
fca9
f3b0
fc3e
fb8c
0bed
f112
f729
0897
fd8d
0c18
fd26
f6b1
f63e
0038
019e
f4fa
0a31
ffb5
fa2c
f64e
f9b5
0d23
ffbb
f739
07ed
f603
03b3
f362
020f
f272
0c21
0d59
0488
ff75
f031
fb8b
fc0c
0255
06fe
f262
f8eb
0167
05d6
facd
0f33
001d
0c28
f56b
f827
f08e
f644
fe75
0f6f
f705
0817
f92c
fbae
0435
f7ab
005e
f05e
03da
f7e5
093e
f831
f0a2
f399
0acd
f999
f171
f057
02cc
0463
fe89
028b
f520
0734
f32a
f5ff
f076
eff6
0806
0917
0184
f01f
f51f
ff3a
f771
096e
f813
f9e1
0c83
05b0
fd57
f283
fada
0612
f041
08b1
fef5
0dde
084e
fb36
fbbf
07a8
fd77
0561
fc65
06e1
0175
f323
feab
0318
09cb
076b
038a
f701
0834
f551
0634
03f8
089e
f7cd
01d7
0fcd
f75c
f4c2
0d28
f119
0e13
f448
04cf
0614
f9b9
f4aa
0859
0e66
073d
027e
0b6c
0657
02f8
f881
0196
04d8
f613
f55e
f2c1
f4b4
0604
f9ee
085c
f2a6
fe62
fb3a
f9f9
0fe3
0419
06ff
0155
056e
fbb4
0ad5
f153
f0e0
fb24
0def
0848
f223
0d0b
f1de
fcf9
f276
0644
08ef
06fc
0d30
097e
0e4c
0673
fa26
0707
0886
fc52
0f21
0ca4
0267
f646
005a
f6ba
fe0f
f107
fd7b
f0ea
064b
f9c2
0482
f18a
f1fd
0577
0d0a
ff4d
ffdc
fdf2
f425
01e8
0f23
f5f6
080a
ff20
03ad
fb60
fc1b
fd92
041c
0c09
01be
fe98
f290
f6bf
031e
fa70
f903
0b43
fa9c
fa7b
08c6
fad2
f82c
0420
0b1b
f033
04b2
fc32
f1bb
f273
0fd9
fe62
fe8a
fe65
055c
0cd3
05a1
06b3
fe0a
078c
f0d3
f198
fda3
fb46
0907
f4e2
f429
f8c6
0540
01b1
009f
fdfc
f0a3
094c
f649
f9d8
fc0c
fda5
040b
fc7d
f918
f32e
f22d
f8b2
f793
04eb
f2ea
f66e
f706
f921
00a7
0286
0b7e
fda5
048d
fbf7
047c
0456
f796
0e9e
0749
fe41
f705
0dc1
0049
00a7
00e5
0c22
09b9
0812
092d
06ca
0cda
06df
0040
f049
fbd2
0861
0cbf
08ea
f4c9
fe0c
0dc5
f6f8
0455
0dc6
f188
f2db
f512
f412
0c79
0a5e
0849
0a26
036c
0af4
f91f
0001
fc0a
0215
0966
f88f
f569
fa94
05ed
f9a5
f991
f4d4
f2da
0d10
fb30
0588
f2f8
05f1
0ded
f01b
0ec9
fdab
f170
055f
fe29
013a
0d7a
0174
0a14
0a11
fc8c
06f8
fdb1
f2d5
04ff
f6ec
f9bb
fa4a
ff87
00d3
02bd
feb4
0faf
f658
0969
f577
f8b9
0081
0879
05b7
fc04
f372
feee
065b
01b4
03a9
ffc6
0624
f143
f308
f43e
f456
041b
01a9
f32d
fb61
0c80
066f
08d9
0a06
fa48
f445
f522
f643
feef
0d35
0fe7
fb22
0eaf
00b8
0668
fe4f
014f
0d7a
f15f
0b66
f7e3
fd48
0e2b
0bed
04ed
09fd
0936
0990
0ee7
f0f9
05d7
087f
0618
0c8a
f896
f5fa
0f5b
fde8
0d47
0dbf
0332
0409
f6b1
0b86
03f2
f88c
f207
f80c
0b2e
fc41
0514
089a
f5e3
fe16
f3a0
f8ae
fa1a
fa1c
0623
ff91
0109
04c1
f465
0a8c
0e11
f611
042e
017e
f507
f063
0b3c
0320
0314
fe1c
f133
0747
0be0
0dc7
f785
0a3b
f727
fbc6
f0f6
f44d
05d8
fe71
f3b0
fb27
fe53
01f5
f4d8
0713
0157
fbf8
ffdf
fc35
0b28
f724
fc26
f5ce
0408
fb0d
0cbe
f7c6
fcef
fdd4
f31a
f88e
0721
039a
062b
08bb
0ff2
f263
0ebd
06f0
0b2c
ffcb
fa25
01b2
0dcf
fe7f
0ac7
0be0
f2f9
f3cd
f50b
f8ee
fd47
f491
0fd0
0b8d
07d4
f044
0268
0179
0586
072f
064b
f491
f195
0251
023c
0311
007f
037b
0282
fe13
f3c0
0ac4
0399
04f7
074e
fde5
0503
f5b1
f9bf
f6cf
f243
fc7e
0216
0ef7
0785
fc52
0654
f090
ff8a
0931
f4f5
035d
084a
f9ce
0283
0d92
f4df
ffc0
0466
0056
09ad
f6c7
0805
f5fb
f4e4
f0fc
0e5b
014e
f7eb
029b
fedf
0e21
05dd
ffc6
02f6
0ac4
f953
008f
0d3c
0531
fd44
03ee
05d2
f09d
0a76
03d4
f7b9
f9a7
fabc
0d0d
f3d1
0789
08bb
001c
f74b
0067
0a7b
f0e8
0c5d
f2b7
fe38
ff59
0a74
f47d
f726
f708
0ee4
0b35
fcd4
08f6
0222
03bf
09b1
f846
f5e4
02fd
f906
01ef
0ce7
fe03
08e3
098d
0a27
08f1
0068
0373
f2e2
f4d9
f896
f36d
fcd5
0841
ffee
f497
0742
052a
09cd
fee4
06e6
fdbf
f069
f6d3
097f
fe3e
f2b6
0e88
f1fa
f90c
0594
013e
0138
f508
efd9
0592
f7d1
ff81
0ee0
f563
f286
06b5
fd72
0efd
091e
0f47
0054
039b
f5b2
fe32
0465
06fe
fdd8
f9d4
f33a
fbd2
0dc6
f58f
0590
f313
fac9
f902
f8fe
0374
0e98
f136
0a7d
0c52
f3b8
0274
fec1
fe17
0597
f89a
0891
059b
fab5
03b1
0bba
f842
0c40
fefd
0d64
f169
f03d
f55b
0c27
0906
f486
f654
04c8
05cc
0dd6
0e34
0c7a
0b53
f775
0cd1
0ed9
08f7
f97f
f0e8
0152
fda1
01f0
0b60
0280
0f1a
f91b
f233
fe3a
f8b8
0ad6
fd2e
0df3
f06b
06a1
0adb
fa6d
f96c
0a99
feee
0a54
f3e3
0e31
0caf
044b
f5c1
f2ed
f06e
ff85
ffdc
f4ba
04c5
f08b
07cc
f5d9
0ec3
fd3a
09b5
fdd9
fc60
087c
0a62
f2f2
f9ce
eff8
f9ef
fb03
099f
fda3
fd73
069b
02a6
fd01
0f09
fc72
0402
fafa
f4b3
f58a
07e3
0d26
05c2
f0f4
fc90
045f
ff8a
0c8a
04b7
0184
03b9
f78c
f1a6
0d34
0af0
0ea2
0664
fb65
fcb1
ff0b
f6f8
f24f
f87b
f6c9
f89c
0dea
0b4e
0127
f9b5
fe1e
f7b0
f705
0759
f2fc
f830
f268
03b1
f116
f4aa
0b7c
0be1
f0a4
fe0e
f1ce
f530
0ed1
fd85
f74b
00aa
0807
04b2
fa3d
07fe
f648
0147
f6ad
ffbb
fbee
09b0
0d8e
0e1e
0af9
f5fe
0b64
038e
f9a6
f0a2
0af4
0f62
f8d9
f995
0ba9
f2cb
fbc2
0067
0c52
fcb8
fa7c
029a
0659
0205
f455
fd25
04bd
f23e
f6cd
01ff
04c0
0753
0f13
0f69
0d5c
ff08
0f14
f3f0
f848
f4f7
048f
0d32
f7b8
048b
f56d
f096
fb5a
0909
f271
0e21
f98a
03df
fffb
0b65
fbc7
0b61
fd36
0e54
fb4d
f479
0844
0e8d
fb59
fe3e
fa7d
0694
fbab
0a74
020d
0027
0de7
fb2a
f98b
04a0
075a
f520
0399
f8ed
fa84
0ede
f24d
05bb
07d3
f6bc
0b55
feee
fa3b
fcc7
fe9f
0983
013e
f9cd
0760
086e
f36c
f44d
fbce
f74d
0236
f18f
fa5b
f6c8
f373
0904
f612
022a
fbe4
f0a9
01b7
0567
0eee
0de2
f4ec
f02f
fb4b
006d
fbdf
0c8c
f3b8
f745
f57a
0a37
047d
0218
013f
f476
09ef
fdef
0475
0bcc
0192
00ad
f247
f9e5
06cd
f85f
0ea2
f5b7
fd09
f21c
02b8
f833
f58d
f22f
f6dd
f943
f9c1
0201
fdf4
0a3c
f754
f197
0481
f9c3
f0ba
0bce
fff9
f9e3
055f
002d
0374
0e22
f148
ff35
0898
eff2
fff5
f455
0550
0e52
007d
f41a
04e9
09e1
0be7
f6d6
f356
040b
fb22
f1d9
fef5
0a7b
07f0
07eb
ff41
001e
0998
0add
f402
0a41
f71a
f8e0
0264
0482
f362
08dc
075f
f94d
0e76
fb27
0905
f786
f825
0c80
04c1
fdca
0f50
f5fb
f025
f397
f607
f9dc
f3aa
0308
ffd8
f600
025c
01ec
f2cd
f749
fed8
f4e5
0bc8
fdd5
03c4
f2ce
f965
fa8a
0a35
f713
0efa
0740
faf4
04b1
01ba
f2dc
f319
06f3
0b09
f73b
f274
01ea
03c9
0014
08dd
f73a
f1c1
f115
f478
fd3d
f03d
07a4
0073
fc0c
f6fd
0075
ffb1
f79d
f5bd
f2a7
0e03
f95b
0949
fa77
0a04
f559
0f06
f4a3
faa3
0ba7
00ba
074f
07e9
ff1e
076a
f55f
f4fd
fb22
fd8b
00f1
028f
042f
f56c
fbf6
f0ec
f33e
f775
f04c
0f55
0ac4
f596
f3dc
f3c7
f136
0cf0
f771
016c
f410
0107
fd52
04b2
0226
fe13
f028
03d4
045f
0299
041d
0cfd
fdb1
0453
020b
0c42
f841
f56e
078f
fe23
fc6e
00be
faa3
09f3
0930
f7c4
f4a8
f749
0904
0e71
05b0
09f9
0b66
05ad
02b0
03ea
0947
0704
fdb9
0439
002b
f509
fe3f
0de7
f00a
f541
0fc1
0745
fbc4
f511
0836
0ade
0d5a
fe58
0458
fa14
f646
04b1
f6ce
0be1
f1da
fedf
fea5
f505
f782
0308
f87e
feb2
fd41
0066
f8b7
0ba5
0a7b
f507
fef7
0c23
0c31
f7f6
0fba
fe50
fe3c
f4ea
0721
0a55
f9da
0b36
0257
08a9
0c9b
f634
fe66
fd8c
fb58
0c4e
0254
0e2d
f6c6
f041
0a8c
07e5
f2d0
f955
042d
f6f8
f6b1
f05e
f49c
f0cb
fb81
0297
f9ca
07dc
0bab
0154
fb85
0d46
0dc8
eff1
efe5
f063
f996
f760
00ed
01ff
03b8
05b7
fd6f
f136
057e
0317
f44f
f823
f44d
09a3
f6fd
f53f
ffcc
f72c
f14e
06bc
0f0e
0fdf
0bc7
0675
0943
0e81
07ec
fd66
f40d
fc68
0614
0fa0
f4c8
f933
f666
f7eb
f730
0c5c
05e5
f51c
fce5
08cf
07ad
f0dd
06ad
00e7
f5aa
026e
0dc3
fca1
f6b8
07cd
f134
fdfb
fc23
055c
0020
0a1a
f772
f8ec
ffee
0d44
f807
f2eb
0b84
01ef
0d67
018e
fe80
0cd1
029f
03b8
f3d0
0b4a
f4dd
fcb1
038d
f5d8
f054
05ca
f17a
0bd1
087d
f4ae
079f
fb59
fa28
078c
0c97
020d
0b1f
feea
0d66
0345
f3c3
fd73
068f
0c32
08b0
0790
fac1
0910
01f5
ff74
04d9
f016
08e9
0eba
0518
0e02
0d2c
0979
0c36
0c57
0524
f8f8
0e2f
0085
f03e
f5a8
fff8
f150
0050
fa6b
f8e5
0494
04ca
07c5
03da
0de4
f7d9
0bfe
04cf
0a6a
0506
05db
0dff
f9be
0f8e
069f
f130
f69e
0b21
f78f
0b5e
ffb7
074c
fd1f
076c
00b5
fba4
00e8
f2f2
f196
fa85
f13c
f6cc
feff
fb86
f6e7
0857
f05e
ff1b
05e2
0914
f1cb
f857
0a27
0852
fc28
f731
0c6b
fc50
0055
fa80
071f
0ed1
fd2c
f1a8
f146
fb16
ff60
fed4
fbb6
f6a3
f9f9
0347
0037
0a77
fd85
fcd9
f903
08e5
069f
0316
f742
fa32
0d14
0df0
0ad3
0186
f171
0698
f591
fec4
f734
0766
09af
f29a
f111
0133
fcc8
0885
f8ec
fd8f
0504
f40a
fc9a
04c1
f60f
03eb
0586
034c
0bc3
0370
ff4e
0774
f9f2
0365
017e
fc57
fe22
05db
f434
f67b
0c6a
f0cd
0252
05c5
fb16
fd37
0c6d
05ec
fc1a
0da8
f78e
fed7
0cdc
09ee
f6fd
f560
0d54
f94b
fa08
0426
0114
f170
0557
0c39
f25a
07dc
0e6f
0fd9
0cbf
f0e6
05b5
060a
06bd
0b8c
f045
f038
f32b
f79b
00f4
04a0
fbf8
f959
09cc
01de
ff42
0bfc
0f63
0053
ff87
0e90
f19b
f7be
fe96
fc9b
f179
05a4
f255
fcc4
0d8d
f39c
07d4
f93d
0b66
ff99
f576
036d
fc00
fc39
fead
fa97
f914
0426
fe95
0c0d
0aa1
0d30
f256
fea1
08fc
08d2
ff6a
05df
0724
f9fb
f88e
f8e2
f086
fcd0
f820
f244
faa4
05e4
f7f3
0d2e
0930
0c3a
f32e
02c1
f2fd
f46a
0df5
f84d
076d
f906
07bc
0ad9
fdc5
0d2e
f0c2
07d7
029f
0db8
0489
f730
03bb
fc36
f6b8
f266
f976
03f8
f3b1
f676
09b8
0998
f225
093b
f172
006e
fc0d
0280
0922
0dcc
fa19
f5b6
f48e
0b45
f3f0
fa1e
042f
f2c8
0f17
fea8
0a8e
f46a
0801
fa44
fe64
0c2c
0453
00f0
f519
02ef
f367
0e1d
09c7
0c6d
0838
f318
fffb
fa87
f7ac
f9a3
0405
fabb
fcce
02eb
014d
0824
f7df
02d7
f679
f80e
02b0
0c6e
0e8e
0f9e
fa27
0a49
f724
f630
02c4
fdf9
01cc
0c80
f479
03b4
f758
f932
048c
f5fb
ff4d
fbf7
0992
0bea
06fa
04f1
05ab
f66c
fd1e
fb9e
fee6
f121
0e2a
f485
05b7
f79d
ff49
f796
fc51
f3b5
0cee
08b6
f349
f440
0df9
fc5c
0d01
0ebf
09c7
f82a
f7c1
039a
0ddc
08ee
0cc9
0219
fdd8
f639
048a
f2c7
f0af
f2e8
0585
0e78
0043
fea9
0868
f5c9
f9d2
fa50
0168
fe24
ffac
f39f
0485
080e
0211
f4d6
06ad
008c
0a31
0c26
f493
001e
febb
f8fb
f5a5
0572
0d2c
f069
0818
012f
fbff
f8a0
f9b5
08e3
f610
f677
f53e
0ce1
0f4d
f22e
007e
03e5
099c
fd80
091b
fae2
f3af
fc1d
0138
fc10
090b
fa31
03db
f2ab
f1d3
0173
0963
f8ef
0f7e
0812
06d5
037f
f1ba
007d
f1df
f670
0fdb
f47c
097d
0af5
0eed
0c86
fbb9
0fe0
f8da
f8b7
05d8
fe59
0f99
0007
0558
0f05
f09c
f433
f085
f399
f69a
f8da
0119
037c
04f6
0554
0c67
f4d6
f6d7
f32c
f020
f743
fde6
0bbd
0dbc
0199
0179
00a4
0878
f890
f3c7
0901
fcce
0295
0e9c
f07a
f020
f5b1
f338
f462
0fe9
07c8
0efe
ff47
00fc
f608
0590
0ed2
0b21
0f94
07d5
ff2e
0b96
0b51
0652
0387
fa85
fa32
f923
0d25
f5bd
0995
f639
0092
faf1
f532
f22a
f0bd
f91b
0ad5
08c8
f781
f2e3
0d97
facc
f1ef
0afd
0d7d
05e4
f19c
0df1
f89a
ff72
f277
0c9d
0fb9
0276
fee8
03ff
0424
f0c9
0b0a
0e45
0184
f06a
f64c
0a31
0446
0852
016d
fe18
fee6
fc0d
f884
f1db
f63b
f2cf
032b
f8e5
0ca3
0d63
fc21
f0cc
fdf0
0366
f64b
00c6
0305
ff0b
0077
f08a
019e
ff5f
f0eb
0db4
fd63
fbc2
fc00
f43b
0d51
f2b8
ff64
0581
03f7
f5dc
091d
f8e2
0ccd
fe3a
0662
01c4
f7e0
0cfb
fce0
0b7c
f96a
fc54
f94f
0465
0f97
fe56
f024
f3dc
0c9e
01e2
fbfb
ff49
0e51
f366
05fa
fcba
fa64
0480
0ca6
0c6b
065d
00ba
0491
f739
ff43
f2e9
fe64
05ab
0544
fb51
0d30
034c
05d2
09a0
0d43
f1a6
f4f3
f2b0
f2f5
08eb
fe5a
091c
f031
02d4
f2d8
fb24
0541
fdbe
0df9
0f24
fac4
0cec
fd16
f790
fa56
0558
f788
0597
f231
f2f8
0e3c
fe98
0441
0525
fd53
f8ab
fc4c
fbdb
fa77
087b
0477
fb8c
f111
f54e
0349
0ee5
f945
ff28
09bd
0599
0f73
0ed4
0738
f5ee
04df
06d0
f6b7
0113
ff5b
f5e2
0240
0b63
02cb
ff4a
f729
fa19
0589
f474
0e4a
042a
f049
f866
07c4
fcd7
f953
0561
fe4e
faac
ffc6
f839
02bb
04e5
f92d
0fc8
0fe2
fbe3
0f3a
0457
f7ed
f521
feab
070e
0503
fa58
f18a
feab
fea2
0ab0
f44e
f84a
0269
00ae
0572
f5e0
f0cc
f8a4
0102
0c9e
fab9
0f14
f2ee
f746
0652
03ce
f8d1
f493
05cd
fb8d
f61a
019f
0e6b
fc94
0f81
faf4
f2c0
f941
f76e
0459
066e
fadc
f5d0
f1e5
089a
faad
04a2
fad5
fbc2
06be
ffe2
0684
f345
0bbc
fba4
04e3
f019
f433
f2e6
fe46
0545
0322
f2ea
0905
f9c1
0a15
f31a
f763
f626
f03a
04a7
ff76
fe12
0583
f3be
0403
0ad7
f3f2
0c82
fd8d
0a7a
0ec4
0b66
fca5
076b
ff32
f7fb
f74e
0750
fe75
f7b1
f344
f06d
f9f9
0bd7
0bbe
01a0
00d8
0a76
f888
ffdc
0328
0730
09ef
f7c5
fce6
087e
f255
0269
fcc7
0b97
f0f6
0527
fba6
0a56
0c80
fc6f
ffde
0a6c
069c
f978
f531
00e7
fd3d
f55e
004e
fa51
09fd
f9ae
fc3a
fab2
f22b
f0cd
0293
0178
0345
0909
f9c5
098e
f999
f8f5
f0c3
fd78
fc40
f572
00a3
07fe
0d68
f637
0589
0838
f72e
0cb7
f1c7
fc44
0fb5
f9ef
030a
0d61
f032
09a6
f566
000a
fd63
0276
0427
faea
f246
f76f
fd40
f072
0243
fb44
0fc3
0919
f008
f999
f150
0be9
f6c1
fbf3
fc59
03ce
fee7
fd65
0bdd
f8f6
f453
fa8f
05c2
0094
f273
03dc
f193
0644
f78f
f922
0c50
f7bc
f0c9
0e3d
f96e
f733
076d
0557
f880
f3cf
f172
f9eb
0ffb
00a7
0417
0971
f035
0d0a
f39d
fe41
fcc4
f299
08c4
0a30
fcdd
02e4
f3dd
f849
0d64
f5a4
f1da
002f
09b9
f63b
fd45
f21d
034e
fd6b
0ac6
080c
0e8f
ff0f
08e7
000f
f23e
f7c8
f928
f70f
0302
f37c
0f4c
f8da
0dd7
f787
f063
07e3
f525
f2b6
f0b3
0bfe
017b
08d1
f2de
f9a2
0fd0
faeb
f5e5
f7f2
02bf
f6b7
08ca
fa31
f7eb
0029
fbba
0470
04ab
0844
fb46
00ea
ff98
070e
006a
f854
f37b
f79b
0456
0679
0396
f408
068d
f5c8
fb5b
0ade
fcaa
0a57
f9d9
0976
0be0
035d
f478
06d1
f3d5
fe08
ff23
f127
f558
f65e
09f0
fcee
0188
f855
f9cc
002d
f642
f1ee
f9c8
f7ab
035d
0eef
0d6e
0210
fb81
f3e6
f25c
0362
f8a3
f050
f9b2
09aa
f810
01cc
f830
f85a
0c9c
02c2
0303
f426
f83b
f81f
05dc
faff
0f17
017b
011c
0ce2
0b81
024e
f267
ff26
07e9
f6d5
fa68
05ad
073b
fc31
fcd9
fe0f
fb60
f38b
f160
043c
0f36
f8a8
008f
fbfd
f98c
0997
f274
015d
fd10
0e17
f7e7
05ff
f1ed
0e68
086b
037f
f585
f46b
f3b1
0d2c
f633
ff36
fa74
07b0
07f2
f5f2
0877
f2a7
0bee
05d6
0867
0632
f264
f510
f403
fe1d
f0c8
fec2
0357
028a
f4a6
0fa0
0137
07b5
00c7
05d8
09e1
fe6c
fa02
03c4
07a2
fe77
f662
011d
05e5
f771
f7a3
0708
fcba
f8d9
0ba3
0cc1
055c
f1b1
f479
fe62
fae2
0aaf
f91a
0f7e
fd68
f119
0f8f
0b81
f35a
fbc5
008a
fe56
fe27
f6b2
fda7
0608
f775
f0e4
0069
f1c8
018d
0f39
f676
fd47
fbe9
f17f
fec8
f9e8
0de2
02cb
006c
01ac
ff4c
0e90
0cf8
f757
f230
0ac2
0390
f4cc
fe2e
f298
f255
f8ff
0ef9
f018
0f60
f07c
044a
f33c
0906
0243
fa44
073e
f7d0
fb07
0bdc
f638
0803
0655
f475
0f78
f993
f43c
0f8c
fba1
f070
f374
fc23
0dcb
fd15
f04f
f7f3
0884
f4ba
f3e1
f4f6
0e81
fe5f
f54d
f4bb
fbef
08a9
0e72
f789
f961
076f
f010
0a58
0e7f
f9e9
06f3
0edd
07d1
f367
0280
01da
0221
f4f1
0946
09ad
f59d
0afc
f768
feb6
0ba0
f9dd
0109
f312
0901
0e33
fecb
03a4
f298
0951
037d
fe43
f812
0351
07a7
073c
fca4
f7b3
f13f
f1fd
0cf5
0297
0cec
fd13
0518
0ad9
0a29
0228
fbf9
0996
016e
f76b
0bab
fdb4
0989
f0ed
09be
03cc
f5e3
0293
fec8
f033
f145
0a01
ff87
f411
0b6c
f0e1
fd79
f814
0c12
046b
f891
0fb0
0da0
0832
0419
0946
f995
054b
0431
f265
0839
021b
fcc9
f295
0dac
0906
0bf3
085e
04b0
ff1f
0ae1
03bd
fea0
0fb4
f322
0d0b
0692
086b
fff1
0082
08cd
033d
fc26
fd50
f202
f935
0e5d
0dde
0f42
0b8f
f030
055f
f223
f95b
0331
04b3
0385
fc7c
f5dc
f4a0
f721
f7c5
fad1
fe24
0733
f425
f915
f8c6
04c9
0bf6
0b9f
f875
002e
0d9f
f64e
fd3b
f315
0b32
0096
0122
0519
0c9f
f2cb
fe3f
f309
0840
0739
045d
0ac5
f70b
0152
f600
fc22
f978
0e7f
f2eb
0dae
04d1
0c3f
f8ae
07ef
0d11
01d2
00c6
f00f
037a
094e
f1cf
0f5e
0607
0fd2
f50b
f804
fcb3
f1a7
f013
0364
0e10
07cd
f4ba
02a7
045e
f3ef
00e9
0d07
0a74
fc87
0906
0e93
0a32
079d
077e
fa98
f918
02d9
0808
fc29
f54b
0cf0
fb29
03b3
0f62
f7f8
04e3
0747
f633
0e61
f89c
fa2e
086a
06f8
f686
f9ae
0f85
f82d
0ba9
f8d5
033b
095b
0e38
03c5
03cc
0fb0
07bd
009a
0d12
fe76
f8bb
f745
fa2d
0697
f6df
f69e
0c15
fff8
0e7b
021b
fd53
087f
07cb
02da
0d17
f9bb
f609
0b23
077c
eff3
0e5c
fc24
fd60
f64b
fe6e
0c7c
053c
095d
0fa2
08df
f7cf
fe9a
0273
fddb
05b3
0c52
05dd
0368
f072
05bb
037c
0c31
0c8c
f223
f776
f371
fb6e
f3ec
fae2
fd57
04db
f9a3
f91a
063a
025c
ff64
f1e0
0cf7
fb92
0ef5
f4fe
08cd
f60a
f40f
016b
fb7b
0c37
fb78
f44f
f48e
f118
fb87
023d
f8f9
f7d9
fb52
0950
f86a
fb5a
ff01
fb85
fcdd
f5c9
fc2a
ff64
f274
f3d2
fe0f
014f
00cb
f592
00fa
014d
f8bc
08d7
f61f
00ac
0b92
0d38
efd8
f11c
0a82
fb78
f5e8
0ec0
f60f
f3f5
f701
fc59
04fa
01f8
039c
0322
00d6
06b6
0e3a
fe29
03f2
04da
0938
0295
fc8b
fa9e
f40f
fa76
0489
f722
f521
f494
06b5
fca7
04ba
0793
f59d
f431
f4ff
0ff0
f54c
0531
f32a
0e71
f317
f40f
f0cf
fb04
f4b9
fd8f
0688
0ff3
f7a3
0d0a
f230
0085
f36b
0828
f248
026b
f8cc
f84c
0367
fa54
0994
f107
0021
fdc8
fb95
fbc6
08bf
f727
0647
0e2b
0ea4
0831
0612
0a8a
030d
0b3f
f63d
0ca2
0f6e
009d
0578
014d
f339
fa95
0251
fdd2
f076
0c9f
f8da
fc80
fe3a
0b79
065b
015c
04a8
02a0
fa34
fba3
f04e
053a
03ea
f784
fd52
049e
0816
0112
f992
f03b
f897
0966
0daa
0e09
f2c2
f6f6
f47e
f4ff
fe93
024e
056f
f664
003f
f07b
0d84
ffc6
00a1
f1bf
0a76
0408
0a02
f088
fc5a
054b
f64b
fb50
fbf3
003b
f9d0
f9f9
f590
eff7
fe09
02b0
039b
fa47
0aee
08a4
0f13
f55f
0a25
f849
f5dd
073e
f857
0f45
0515
f7d9
f989
03e5
072c
0898
0735
feec
f49d
0c6e
0a15
03b4
fb80
f560
fafb
0205
098e
0eb1
f0fc
07e1
fffd
0836
0899
f995
00e3
f85e
ff7a
0301
f8a3
0e6c
06aa
0448
fa40
09c8
f29e
01e8
0e01
f3fb
0115
fd23
fa6a
fa14
0232
fe29
0be1
051d
0ab9
06f1
0557
0640
02a0
fba5
0f00
097d
0d05
fc20
0b88
0bae
fb8b
0b16
fd33
f717
0880
0495
01f3
07f9
0cf0
f894
0a07
05c8
f0d4
0153
0550
f029
ff4c
0d7c
f05e
0f68
0e6f
05c6
f95f
f1f6
07f3
0d99
0476
fdce
f3bd
f69b
ff7d
0f28
fcbe
fa72
f382
0faa
0bbf
0402
099b
f09e
f652
0295
ff7e
f12e
0c3d
f3fb
0604
0382
f77a
08f5
f744
088a
f03a
f3c8
fc3d
049a
ff70
f3a1
f7ad
fffe
08b4
0154
fe30
0ba2
07c9
0363
f8b9
fea4
f537
f70c
0381
f518
06b0
fda4
f080
01f9
f50a
0d6a
ff3d
fbe5
fe37
f093
09cb
fd75
0b24
09de
ff4f
ff0c
fb77
05a7
08d9
f965
0ad4
f819
f034
f20e
0f1c
03bd
f2f2
025c
0b55
f075
faff
0511
0003
062c
f515
0bd2
f240
f3ed
0095
f060
ff08
04c2
f37b
f449
0153
f20b
0eaf
0186
0735
0698
065c
0d27
0e13
f521
09bb
f253
0e02
06a8
01e5
0466
fe46
0edf
f8bf
f7e6
0204
0bf1
f116
f704
0298
f5ca
f238
0810
093e
01d1
ffb2
0162
fcbf
fc49
012d
0fb4
f4e5
fb65
0930
0d4b
043e
070b
fa4b
05cb
0232
0413
f45d
0a4d
f9fc
ff31
f5f1
fc1c
093c
f9c0
0e7c
0b6f
fb41
0cff
f7cb
09e0
0d7a
fc91
f1c5
0d81
0067
fd66
0b46
f4b9
fde0
038c
f700
0ebd
0b22
034d
0257
045a
f3a1
f811
f1fe
0f3d
f5d6
083c
00b5
fd09
f09b
f6f2
f576
feab
f86a
0f1b
fe7e
ffd3
0197
0fcf
0269
f289
fa91
0440
f718
0762
00ab
0d97
fcf3
f3c3
fca3
06d7
fb65
08d6
f34c
06bc
0f94
0056
0a14
f786
02ff
f295
fe1f
f937
02de
0a38
04c4
018d
08b6
f897
0967
0e3c
08f5
0139
f536
0a18
fe18
f433
05d4
faf1
0c52
fefa
f9d2
f751
f074
f942
f669
f176
0959
0f90
fa37
037f
0ccf
f74c
f4e8
09ff
f398
0248
fb7e
f382
f715
f169
0232
fa9f
fc71
f6aa
f286
f4ca
f07b
fe95
04a1
fd8b
f452
f1c9
f8e7
fe1b
0a34
09bf
f7a8
f2c4
0929
0bde
fe5c
0c4b
fa78
fad6
fcf7
066f
f43d
06a0
f13b
f680
ffb9
098c
01f7
fd5e
0b72
f681
0506
f188
f9d6
f87f
fb6d
f9cb
0086
0f33
f44f
0559
027e
f7f3
f421
07d7
0ea4
027d
0307
fd1a
08bf
080b
ff4e
0685
fd7c
f2d0
0fc8
fc25
0434
05ce
0736
f522
0c98
f50e
fcf6
f9f5
0faf
0078
0bb7
07c9
063e
0c8e
f200
0e4a
0d4b
fe07
0d78
f220
f776
0477
f62c
fc86
f222
0359
0dd6
f9ed
f0c5
0bcf
fe30
0ea0
fad7
f1a1
0d53
031b
0b5d
04aa
0990
f52c
f261
04d2
f13a
f734
f558
f6cb
ffeb
0c03
f888
0ba1
09c0
ff22
0608
f813
06b4
0d9b
0529
04ba
f313
0a7e
0082
f113
0a61
07f2
f6f1
f5bc
0bff
fb75
066c
f1d7
f6a8
f1b4
fcda
fdb6
0e1e
f909
0e08
0417
f28f
f44c
05e6
0b9c
071f
0ad6
063a
f4c0
0816
f3ba
f3c8
06f3
f0e4
f84c
f725
f042
f27c
00ef
f611
ff64
f26c
067a
f686
0aec
0a88
f341
01c0
fa58
f399
0d79
f855
fc84
f45b
f2e6
fd67
fd87
0244
09bd
f678
fbf8
011b
fb18
ff06
fe35
00c6
0dd9
05a4
f3f7
f855
f554
0bcd
0a82
0a66
0b54
0da2
09f8
0252
f5cc
068e
febd
f802
0d6c
f711
ff75
f962
f18c
f1a7
f830
f78b
f9a2
f1dd
0d3d
0cd7
0408
f660
f492
fe34
f1ba
0cca
0a15
03ce
f3fc
05d5
0bec
07df
f4a8
04ec
ff1e
f1ee
f609
00b2
0b6b
f54e
fcdb
f676
0fdd
f933
fd2f
07f9
fa1c
0c88
0199
f3ed
0df0
0ead
f609
0faa
fdc8
0abc
f85a
fdea
f633
f59a
fa29
f307
07d2
f4ed
0d72
f520
f97e
fab5
04bc
0b1a
00a6
f0bf
f355
00e8
fbf1
07c6
f1ff
07f5
0512
07c2
0cf2
f413
0750
fa48
052b
f169
0635
0fdb
f090
04be
0a1e
0212
f164
fb41
0839
f9af
f4b4
0084
fad8
0707
0a03
015a
fb08
01b1
03a0
f473
f963
f386
f72a
fddb
02e9
fb41
00f5
f59f
f924
0f4d
f7f0
f568
f072
f1cc
0d96
f18a
f294
06c9
05b6
f94e
fa84
f2c9
02bd
0b67
f509
f4d3
0f68
0524
f059
0a07
fb8f
fe23
07fa
0256
026b
06cf
0568
0117
f804
f3ad
f788
0a15
07e8
0205
ff88
0de5
08ee
0dd8
fae5
0f16
f699
f212
f54a
f942
02a9
f862
f337
f296
0ad0
f93b
0013
007d
04bf
f61b
efff
0697
0525
f70c
fa94
0d65
f860
f65e
fbaa
f813
f37b
fcbc
f048
03b8
fd03
fc5d
0335
fe78
fa79
f0e0
003b
febb
f694
f613
0970
00dc
03e6
0888
fd88
f70d
f413
f353
f038
f2cb
0408
f957
f575
099e
0062
0273
f29b
0571
0586
04f2
fbf0
f6d6
f04a
0f29
fb77
0a4c
fb52
0133
f22e
0321
0dcb
f069
f25c
f012
072b
04eb
fed1
004c
f315
08ba
0e5d
f623
fa4c
f516
f496
f5c5
08b4
0c7d
fe89
f279
0e30
ff45
0f3b
094a
f66f
069b
fde5
0d49
011f
f458
0335
f316
f7fd
0dbc
f8fd
029f
f06b
f825
0979
07cc
0a2d
0574
0743
0baa
eff5
fb42
f51f
05f1
0f69
fa0b
f719
f5fc
0ed3
04fe
08cc
f01e
f372
f48a
f53a
f421
0121
fe6e
f1db
0538
f23a
053c
0fab
0b1f
f183
f35a
0289
fada
fb4b
0095
0b6a
0fc0
f2ef
09f6
0cf3
0c15
fa7a
fc88
f104
fc76
0c5d
0781
f089
05c2
09bd
0190
f184
fe11
f9d2
f17a
0852
f3e8
fb17
07a9
0544
0790
0641
f875
0425
f07e
0f97
ff86
f61e
f9af
f69a
fb5c
fc36
053b
fc0f
0bbf
ffbf
0796
fdd0
fdf5
0656
f00d
f9cc
08ad
08f9
f843
0c59
047f
0596
013d
f83e
0b31
02f0
fe7f
0f5a
075b
ff99
f822
fe4e
0e0f
0e86
06dc
fefd
08b0
f427
fe5f
f66e
0d5b
0958
fed3
f1fe
0855
0630
fac9
f928
0d49
0f20
f356
0e7f
febf
f6f4
08e4
fbd5
07ed
05d0
fb2b
f93e
0a54
f8a1
0db2
0a04
04ed
f058
fde1
0a6e
f67a
fa56
0930
feb7
0a08
0993
0080
02aa
f3c2
fc62
02f4
f951
f689
f0ec
ff2e
077d
f334
0ee6
0995
f830
f088
0624
f6f6
f4cb
f6a8
09cf
0fad
f06d
f120
0b56
f122
f4a2
080b
fbf0
00e9
f98f
0b28
02d5
f9a1
062d
f8d7
0536
f949
f049
ff81
f166
0b22
f1ee
f36e
0fb2
ff88
0dfc
f2b1
f427
f5e4
0312
f22a
0f94
fd16
f8d4
f0ed
f897
f0f6
05ac
f734
0dbd
f70a
0253
f4ea
f640
0301
0bf7
0397
036b
096c
fa37
ff88
0196
03df
02f0
f501
fb15
fd21
fa05
f4dc
01c4
fa50
f4a8
f731
f042
fa74
0f96
f35e
f899
f107
fb46
0432
fb72
090c
09d5
f4b4
f65f
077f
f2a0
f09f
f7fe
0098
f524
0c28
f6a3
0306
fac9
f184
f160
025f
fcf2
03d3
efeb
0efa
f418
fe49
02fd
000a
fd6c
00bd
0740
0e81
f4c8
f5ec
0e1b
fa7d
08f3
f150
fdbf
fae8
0dfb
f8c3
fb3b
f859
fa9e
090f
0464
f59f
f42d
ffde
0720
f420
fe39
07c7
0d27
0318
faa4
f32a
fc53
f032
f5d0
0c8c
08d4
0113
0475
02df
0541
f1a3
fc15
f619
00bb
07fe
0c91
f3b7
f1a8
0d64
f132
f75d
f43e
fe49
0571
f72b
019a
0450
fb74
f284
fdc0
faff
01da
0877
0842
f5d7
0cf6
0634
0887
0298
0af4
fae6
088c
067a
0f8b
0071
fa80
0187
f73e
0f7d
f977
fb70
0974
0f7c
07a4
f9c5
f9f0
f1d9
0e59
044f
060c
0f90
f0a5
0b65
01d6
029d
f267
0d8e
fd9b
00e3
f91a
020f
084d
f9eb
ffcd
0bb0
0292
02cc
fd05
0d1f
f21e
f507
f437
0ed4
f77e
f8fa
0aef
f3b1
0404
f9f2
02b3
f1b6
fa13
0f05
0712
090a
0e80
f06a
f271
fc10
fb70
0bb8
fefe
0a55
055e
0edc
f856
fd58
fcfa
f050
01b3
f2f1
02c0
f981
f223
0506
0b3a
ff59
f6a4
f113
fd00
efd4
0245
ffdf
fe84
fcbf
f596
03b4
f88e
0a33
0c96
f7c3
04b9
06e2
0030
f2cd
0831
0079
0ee1
fa4b
048f
f4a6
fa19
f6f7
fee0
0815
0d66
0cc7
fb74
09ce
0321
fe6f
032b
0d2d
f213
fc90
f84f
01b3
fe8d
00fb
0ae3
f2df
0339
06b4
fcea
0074
031e
f70e
069a
fb7e
04a1
fc20
f2c7
f436
fc22
0800
f255
f196
fa86
f718
07ca
0588
f495
f933
ff7c
06a2
09ea
fa72
ffcf
0259
0a11
ffd4
fd7d
0ccd
0ec7
0c11
f786
06e5
0395
f50a
02c7
0f38
0caa
fb05
fe70
0e6a
0051
fa0d
f989
f9a4
07ce
f587
0e58
f175
f5c9
02bf
f8cc
f59d
fc12
0f9f
fbe8
f068
f65b
ff8f
f0fb
f807
f5fe
fa10
fcb4
fb35
f8ca
fcb5
0db7
f9d5
005d
0363
0627
fa66
003c
0c24
0a2c
ffa1
fa26
0e51
0363
f3bb
05d6
0c00
0a4a
02e6
fe76
fff7
f3ac
f0b7
f56a
f90c
0a62
f351
f9ef
07dc
ff5a
0b2b
f0b6
fc95
f45e
0f06
ffe7
0503
0e18
082b
0946
f30c
025a
0fde
f88b
f0c2
083e
f120
f818
0289
0e7f
0675
0fae
038b
f348
f378
fbd6
086a
fc76
f5f4
f22b
00a1
05e7
0e1c
0c34
04a6
fdcb
f618
0053
0bb0
fc0e
f49a
0103
0424
0f0e
0c38
0464
f2e1
fd27
09c1
fee4
f846
0eee
084d
fc62
f7d8
0231
f0d0
f122
f629
07ac
0278
f4ed
0b2c
0c75
00ec
f4f6
0cbf
0406
0d28
f9e6
0f1b
0dab
0220
f6ce
f1b6
f7b8
045b
f526
f6ee
000a
f9c5
f74e
f5ad
0c81
0476
f219
095f
f6ba
0ead
0249
ff1f
0429
02f0
0d22
f3ab
f691
ff0f
f8ab
fa15
fbfc
06b9
fde4
0101
fed8
0fdd
06fe
0082
fe0c
f23e
0518
f068
f134
0db1
fd53
fef8
f85e
089d
ff18
0369
0404
0186
f961
0962
063c
0c81
0fb2
026e
0925
0ad6
0b87
06d4
0165
07c0
f81a
0244
0805
f2f3
fc3f
0c44
0168
0956
f1cf
f5a6
05a4
f90e
f8b7
f2a9
f467
fd64
0abb
072b
f724
f56f
0582
f65d
0808
0a59
0971
f21a
fb76
f8c0
0933
047b
01cc
0d46
f9df
f891
f318
fa8d
0104
06c0
fad2
09e6
0b24
0df3
0f4c
09b5
0e38
fc1c
f937
fcb3
0a02
0296
0e52
fcdb
f752
f344
f8e0
fadf
f5c6
09be
0e1c
01e6
f8be
0f39
08a6
fbd4
fca7
068c
08b9
f398
f937
fa88
f044
f0f8
f0dd
082d
0b67
0a58
fa72
f98a
0df0
f30a
f666
f208
fb56
05b3
00d9
f1e2
f273
0d24
0e8f
0fc4
06ce
ff0c
0e7f
0593
00c2
fc69
0172
f4aa
0dee
f57e
fe87
fc3d
f80c
f715
095c
0cc4
feec
0bf1
06fb
0d67
030f
fa52
eff1
0172
041f
f837
0758
f3d2
f228
09d2
fcc1
f835
feef
f038
0945
f242
0dc9
ff22
f22c
0556
f10a
fd64
f9e8
f984
ff1c
f5c3
0e72
f122
ff32
fcbb
0003
09de
0b34
0ec7
0919
fa7c
f223
06d5
0b13
f4bd
03cb
0c17
f4a4
03e3
01c2
0d9b
0dbf
fd5a
0bd0
01ec
f68b
001f
080a
ff1e
fc97
fc40
0639
0379
087b
fbb3
f7b7
0875
f8e1
0277
fc84
0722
f53b
f7be
00a4
0092
fb0a
0a58
09f8
05a1
f0b8
ff0d
f637
030f
f085
04e6
0c04
fb61
040f
0f76
06d0
0051
0c20
0c06
f998
0e79
0ff3
09b4
f34b
fba8
0dd9
f554
f477
05f4
0efe
fece
02df
fccf
0e5e
0c6a
f85b
fecd
f19d
f852
f933
0103
024c
040d
f085
0531
04fa
fe79
0eb9
0366
f143
f40d
f67a
f0e3
fe01
fd16
0a18
069b
f041
fdcf
ff66
0766
fa1e
0825
fb00
f5a8
0a07
febb
f42e
0675
0634
f7e1
0d68
f0d3
041a
f75b
0c4c
032e
0b9a
f20a
0b6a
fb22
0e44
f878
f3e9
f391
0f37
0109
0323
f852
f3dc
f932
0d91
ff36
0eee
f4dd
fd37
f078
fa3c
ff0f
0d46
0199
faf4
f370
f98f
f646
0dfd
fc3c
0da5
fdaa
0282
f929
f58d
0987
03e8
f999
f97c
f121
f115
f381
fa13
0b35
0499
f964
066e
f2d2
0748
f50e
0748
0e7b
02db
ff7a
fb8e
fa58
0744
02a1
0d77
014d
0b3d
f9a0
0eff
00b8
f965
f0dd
06db
0fd8
028f
01bc
f0c8
04e7
0712
0987
0d91
fe00
f780
0be3
0248
0e37
0504
f4a7
f9ba
0b52
0550
fc31
f6c0
0d51
0312
fe2e
0d72
f571
07b6
fae1
f5af
0c98
f3ca
0142
014c
f655
f7b8
f36b
09b8
f86a
0f84
fd5c
f5d6
ffe7
0723
0ae4
0d43
f180
0571
ff15
0557
f53e
fe25
fe45
f318
0d93
0961
081a
04ae
fdb0
0f2f
fc9a
f62a
f64b
0d2d
0777
feae
f231
0325
06e1
f522
080b
0557
0530
fe95
030f
f80b
f23d
07df
0f83
f37c
f042
0e30
048f
0e4b
f5b0
f22e
020e
f6f3
0b72
f412
0723
07ae
f9b9
f378
0a7f
f97a
fcc5
0b7e
0f32
f92f
036b
f360
0426
0f93
f9ed
0f15
f9d6
01a5
f57e
0191
f6e4
fd56
f61e
fd69
f5a8
0d71
f62a
0f27
01f0
0716
054e
f8d3
fc97
046b
099a
fd91
f37e
f0e7
0701
f002
f299
075b
f13c
0108
f8bc
f879
06b3
03ca
00b9
08fb
0cc8
f027
005e
032a
f5c6
f0b4
034f
f452
ff33
0c42
fb3c
fcd2
099d
0bbe
0781
ff32
0838
03a1
fbe8
0212
097e
f2e1
06fb
f80c
0b3d
0f53
f913
0433
f5cb
0a84
0857
0df7
0366
fda8
f58f
057b
017e
043b
fff9
095b
00b2
0454
fe01
0ef5
f5e2
042e
0dfe
f3e5
0bc2
06fe
faf3
014a
03cb
0081
fe10
0bc6
01aa
0f70
05c3
f83e
f907
f106
f26e
05b1
097d
0b7a
05a1
f2f0
055d
f182
01b8
f830
06d1
01bc
f369
f5b2
f964
fc60
0bf8
084f
0b9e
ff31
f7d5
0f69
f887
f755
f6aa
fcd8
0228
fe90
0197
0d66
06f6
f8a2
0688
f17c
0431
f0ba
0f2e
07f5
057d
074d
08d1
0bae
f502
f664
fabb
0121
0765
f258
0c88
0a1b
f191
0070
fbef
f748
f156
fd4e
f12e
0654
f7e0
0911
03ca
0fb7
01ad
0d60
0695
012d
f4c0
efeb
f4e0
04a1
077d
094c
f40a
00ed
008a
fb19
f59f
f17e
0bcb
fd1d
0407
09bf
0c5d
f4c9
f2e1
f2ce
00e2
0d67
fbc8
f122
ff03
fb4e
0627
0d3b
0c11
00d8
093b
0d86
0374
f186
fe0f
0b28
eff8
0588
0360
f43b
f701
f172
03c6
0951
034c
02bb
fbe1
fce8
0779
0d60
0e6a
0609
07f8
032f
0c73
0e08
f82e
0143
0a79
0d47
f4a3
0184
fdc5
0ed3
0d4b
00f5
fc91
f51f
018c
fa03
ff49
f682
0625
f547
0d1b
03bb
027a
f76e
f6c4
f2b5
020c
0a51
01e2
f0c9
0ae6
08ba
f425
0b55
f85f
0a60
0bca
f16d
ff29
f8bd
00d6
054a
0343
faa4
05a5
f5b7
f02e
fb50
f7aa
0e4c
f88d
054f
029c
f7eb
fab7
f4c1
0bc6
06ee
fe07
fac4
07b5
f232
00fb
008b
0686
04cd
fa92
0f2e
fa18
0c5d
0279
0208
fbf4
037d
fea4
00a5
fbc8
f401
f69a
efcc
05bc
0c41
f483
f216
fd2c
ff3a
071c
f053
fd14
f92b
0aaa
0dd3
01c9
f6ee
04ff
0391
f896
f5ef
f2bd
fccc
f39a
fcd7
f5db
f273
f447
0056
fdee
fd81
0717
06c9
fa18
0f6c
fc3d
000c
fc49
f0a2
05ce
0a4e
0e10
0587
03f2
fa2e
03b3
05fc
ff10
f09a
031c
0f84
0155
09f0
fd09
00c1
0de3
09b1
f984
09b8
f431
0616
0107
fd97
fa61
0708
0c2a
fff5
0db3
ff9d
0ddc
fae9
0ec4
0c0f
fdb1
08fb
06e1
08ad
048c
f285
09c4
06bd
0bfa
0dbe
0e0f
fad7
0433
f1d0
0d2e
f5ca
00dc
f05e
0b3d
0703
0bd3
04da
f65a
0cd6
fa27
0299
f823
f021
018c
f28d
00e1
f926
f50e
f671
f098
f39b
fbc2
07dd
01f5
f939
0a0a
f9b9
08c4
f76c
ff38
fc7d
fc25
06b4
0d4b
f5ab
091a
0f99
0350
0472
f3e3
07d0
fe46
02be
f833
0f63
087e
f3c7
f9d1
0562
f995
fbe5
0d9d
01dd
0b26
f323
f830
ffe5
0268
094d
0ef4
0879
fd33
fdaf
f2c7
fa6c
fc24
f321
0cf4
012c
f3aa
04d4
f285
0f59
0718
0c03
f9ac
020b
f937
057f
0b8e
f8cc
0db2
08d6
0525
fe0d
f962
f4ef
0d40
0245
036b
0ef0
0a04
f6ab
fd97
0638
f7cb
f35b
f3e4
0992
0baf
f605
fd62
ff55
0357
fb16
0067
0df9
fc83
0848
09d2
047a
0704
0824
f9ba
0dc8
f019
fbfd
fdd6
00e3
fd33
f4ae
fa9b
035d
f39d
04ed
07ff
fbb7
0c49
0875
f9f5
f7bb
fa0d
0f76
f80b
f299
0e97
07c8
0044
f2db
084b
0317
f9f8
f518
0049
0acd
f672
f71b
007b
0767
faf6
0664
0afa
ff9a
f1db
f63d
fd30
fa6a
03dc
fbb3
085d
fcfd
f170
0363
fbf5
08a9
0085
03f0
0545
0e6e
0aa3
f04a
0156
08c8
f2b9
05bd
fa36
f0ea
fe50
f418
0c51
f7dd
096d
fe03
fab2
098d
f7c2
fb9a
0f9f
fc0c
0ba0
06d0
f784
003f
0419
fb58
0611
f731
f659
02b8
f47b
f6ef
0001
067d
f595
f78e
0dd5
0c58
0a09
01e4
fe41
0b65
fcfa
063f
fbce
f3fc
efc2
00cb
f39b
f7f6
04fa
f1a7
0dfc
f02e
02d6
f703
0294
07e8
0e8d
f1d8
0169
0d46
f5f0
062f
05ef
0e8a
f417
05f6
f669
014c
0461
feb6
08d6
0509
f25f
fd26
f532
00f8
fe9b
080d
f943
ffb4
f9c6
f5cf
f7f8
f6e6
f883
f4df
fa9c
fb12
0356
fd25
f16a
0fbd
001d
061e
f0f0
01db
f2b7
feb1
045b
0f72
f787
0cc2
fd03
06ba
ff6a
0372
efc0
07b5
f656
f604
0343
0254
02a4
0fb3
08a0
0d3a
f329
f795
fb2b
0f83
05db
0488
fc89
0fac
0b7b
0723
fc15
fa21
fc80
fb2d
f187
0c83
f27f
f702
0a2f
09e4
febc
feb9
f741
f6ee
0e6f
fc32
0a84
fe37
f21c
0807
f651
f0e9
06c3
08a5
05fa
f47d
f497
0af8
03d2
03ad
0640
0f73
ffa8
049b
f05c
f471
feaa
026d
f983
0ac9
089f
f735
f998
0cac
f71f
ffc9
fc18
0039
099d
06e9
f966
0a6b
0ba9
f76d
f4bd
f01a
f4b6
f95a
f951
ff90
f534
f3ea
0906
074a
fe44
0818
074e
fda2
f37a
f873
f662
f35e
09f9
fd03
f8f5
ff3f
f128
f0a4
08b7
f635
ffe9
088d
02a3
f1ca
02d7
f26a
fa3c
f1fb
00b1
0e26
056d
f767
0782
0110
07e1
048f
f264
06bf
0a34
f0dc
f61e
fba8
f1d8
fc4b
08f9
0dda
ff06
0bdd
fd59
021d
f66e
f67b
04be
f13f
f867
0859
fee0
0d84
f0ef
0daf
019a
f586
0a96
f2f3
fc67
efe1
f4a2
f14c
0d42
027e
ffe9
f85c
f235
0082
0841
083e
fd67
04c9
0de5
f708
f32b
efdd
008c
fd4b
fb31
03ec
0b4c
0375
0169
02c2
f0ba
feb9
0125
0a88
07a2
fc81
fb0f
0883
f4d8
0c3b
f954
f155
ff64
f0e3
0dc7
fe92
08f5
08af
fa4a
0087
f358
f55f
f703
0a8b
0f33
f6c4
00be
f445
0713
fb1b
f0b1
0f7a
ffa6
f3d2
f5ee
0cf5
01a8
f7b3
040d
0698
0a23
f1be
0266
fb4f
f34a
fa00
0cf9
0d0f
fea9
f9f6
fce6
07bd
0484
f60b
0637
0c55
0bf9
ff2d
f493
fc4b
083e
f484
0e7c
f4e7
f113
f04d
03f3
f429
04ab
fc3d
01db
0a16
04ec
0618
f08c
0dc6
06d5
fa00
f0b6
0432
08fb
f502
f4b1
f658
0262
f7ca
f51b
f260
f807
fbcb
f917
0a1d
0ebb
f492
f15d
07d1
03aa
f4e6
02f3
0d85
03c0
f44d
f004
fe58
fa92
ff4d
0196
06db
f442
f114
0767
0e61
0556
f6c1
08ef
f9df
007e
f916
0cfc
f9ef
0156
0856
0cd5
fc04
fd84
0588
0069
08b1
f5a5
0203
0c81
f5e3
090d
f87c
0436
08cd
0b42
0b66
01bd
f0b1
ffd2
f6a9
f6fd
f3bd
074c
fc3c
03da
0246
fa08
fa24
fa46
f414
fa45
f52f
fd92
fa1b
060d
0f09
f315
069c
fadb
0885
f900
fca1
0003
0036
fb81
fb84
f529
0b33
f9bd
019c
f9c4
0185
0e26
05e1
05b5
0c54
0bde
00b9
f205
0fae
0722
082f
09e7
0c61
f08f
fc8f
09c2
0e64
02b5
0202
028f
f22a
018a
fe16
f1e5
fff4
f47a
0d7b
0791
00ba
fe05
0873
041a
f6f6
00fb
09ba
f376
01bc
0d7e
fb84
f58f
f6bc
f937
0696
0aa4
0381
f170
f536
f40e
f1a5
fabb
0c75
0688
f45a
0996
f979
0204
f95f
f3ae
f139
fc47
001c
fc48
05a0
07eb
0f24
0af7
f7b4
f844
018a
0b1c
f94d
0261
f2e3
f1af
efd3
fb8a
086e
fca3
f6e8
0fb0
0681
f536
0db1
0f5d
f235
fd8b
f576
0c0b
0438
0edb
0f6e
0aff
0c81
fb2f
fbc3
f72e
02ab
fe44
f64b
0d81
0ddc
06ef
fb04
f076
023e
f05b
0eb6
03f8
0274
f9a2
fdda
01a9
0564
062a
f980
00b7
0cf4
f130
f67c
01e0
04e3
f7b8
07e2
0142
ffb1
f028
0067
f01d
fe30
f288
0eed
fc77
ffe5
0cf3
f41b
04be
0fbc
f763
f6cc
0240
07bf
0a7d
0f58
0097
05a8
fe01
f647
00c6
faca
faf0
fc55
0231
0da0
0e4d
0c57
01a6
fc96
04eb
035d
f0d0
f68a
f2ed
02b3
f009
0395
0535
0d08
0c3b
ff65
f64a
0879
f899
024b
0c2b
0c5a
0902
01d7
ff9b
0e9d
02d2
0bb5
0e4a
065f
fba1
0a7e
0a87
f8f6
f153
049a
f038
0ff9
0c88
f7c1
052e
f6a8
0c43
ff67
fac6
0fd8
0a39
fac4
faec
0518
f3b1
0a15
00f2
05f5
0e3a
f7e7
0e14
0d5e
04a0
0725
08f2
f4db
04d8
f40e
04f6
f0c0
0b18
0d7c
f925
09c8
faa9
ff9f
f07d
ffec
01cd
00db
fbff
07fc
0456
07ad
0e41
06ea
f094
049d
0c9b
f3fa
fb30
f7ec
075d
fa45
f45d
0fe7
0a48
00b3
ff2d
ff2b
0a2a
0e59
000d
0ef7
f8e3
fbf9
fdbe
02f1
0614
f974
f186
f2a7
f172
f860
0486
03ae
f4a9
f999
f374
f687
0724
fbc7
0751
0b9a
f083
0f56
fb4b
0d15
fb0a
f9d4
fd84
fb4a
0641
0ba0
0d76
f9ca
0b8a
f725
f995
0d9e
f1ea
f103
fedb
f641
0467
f336
0f9d
070a
f36e
016e
fdf3
f0db
06f6
09e3
02c0
08e8
0841
f55f
effd
f6bb
0efc
09df
f442
0ab5
0bee
033e
f846
0928
0ee4
f107
0460
0acc
fab7
fa73
0b2a
f4b1
fca0
fe4a
f694
f62a
0dc4
f362
f025
fa8e
fac8
0c3d
09eb
013a
f3f4
0704
081f
05a4
f3b5
f572
0618
00f1
fc18
f7c6
f3ea
fc2b
02cf
00e5
f88f
fe1d
f6f5
0a01
02f3
f8ee
f068
fa8a
0714
0fde
09ef
0725
0df8
f0cc
fcf4
ff80
fac9
fdd0
f48f
f33e
0ba6
0237
0ce7
08c8
0dd2
f74e
08d1
0d31
078d
0010
fd5c
0dcc
f51d
f5f4
f3f7
f7e5
004d
0a06
f418
018f
f2b9
052d
0ab3
0b3b
f6b8
0526
fdb4
0828
02e0
f6fa
0d25
fc26
fd5e
f093
0f00
0670
f9b6
0daa
0685
fdd5
053d
0213
f610
0b39
0f35
f14d
fd0e
0ca0
f420
f9bc
0755
ff14
0879
fc91
fa53
f19b
0ce1
fa71
fe66
f5ed
f891
f37b
0a15
0490
f683
f7f3
f709
031b
0bb1
fa9b
08f8
fa94
0dcf
fea8
f4e1
0575
fa3c
f7a9
fb38
0a8e
f16d
0a7f
0746
f9bb
f6b2
02ed
0c32
0e08
0e3c
05f9
0c0e
09ea
03b7
0dc6
f625
f4cc
0bf1
0071
07c4
0933
faf8
f41e
09ef
fc7a
08ff
f741
fd24
f756
f94d
fbfd
ff15
f744
0a69
f83f
0103
0082
f9da
03ba
f864
04fb
0a1d
0b78
03b3
f853
f9d4
07e4
f488
f288
0313
f8a3
0107
04d4
f1a1
f09b
08fd
04c4
f7ce
0dcf
f246
0187
0a3f
fefb
f477
0ed9
f310
095e
0d14
09da
f637
018d
fb5e
0cbe
f00f
06bc
f404
014f
07ac
fde6
0245
0006
fdb0
0448
064b
f96b
f668
faa8
009b
fa94
0af5
0b1a
f33b
0a0d
04af
0571
01a1
f7da
fae4
0b61
f036
f5ee
0110
0b1e
f2f7
f802
f9a7
0b98
08dd
0a3b
04e4
01a7
0fe2
07b3
f4cb
f047
04c8
08c0
f72c
07cc
f76c
0001
0add
fd0c
f7cb
0bdf
0f1d
0d67
f849
f2da
fdea
fc92
fa1c
f4df
fe8a
f8d1
feda
0d06
0018
f6af
07e5
05ea
f3a8
0b0e
0d1b
0a7e
f66c
f685
fdd1
0bf1
f421
002b
021b
fa48
0e76
f872
fefb
fc16
02ce
0c02
01d9
058c
041f
0671
fd68
03ef
0b8b
0296
08a4
0b0a
f8e4
086d
f61f
0b90
f313
ff32
f8f8
f4bb
fcd3
041e
f838
0e4b
fd0e
04ad
ff8d
0fd3
f750
fcd8
0d47
0483
f5a0
07cd
013e
080b
0c64
08a7
0f1d
07ac
06f8
0ee3
0619
08c4
fc4a
f60e
029d
f6c8
0975
0b70
012a
0d62
fbda
006a
003c
fc6e
fc3d
ffbd
01c6
effa
fcec
f6d7
0de6
fac8
f686
f280
056d
fa2b
0355
00d8
0565
04c6
f0d1
ff21
f0da
f39e
f110
f763
fd55
f9b5
029e
fcb2
f1e4
0a76
faa1
f722
0fca
0419
05b4
0239
0b20
ffb2
fd4b
0c1c
ff82
017e
fcb5
f442
fd7e
f7fd
038f
00c7
0f7a
03b4
0439
f9b5
f91f
007d
fe34
0758
0e8b
fc07
ffc6
0bc7
f592
0884
f997
fddb
0c33
f4e8
f079
ff7e
0eb6
ffee
0d36
0b49
fa4f
08f0
0ad9
f808
083b
f2a3
05f1
ffa5
079f
f6a6
0f5c
f55b
f1bc
0e9b
ff05
07fb
f4dd
02a6
06ba
fbbf
0c44
0d5a
ff6b
f0db
0be4
0e43
fc88
f1a9
fe57
0de1
09a4
f9f1
fb37
f32c
f28a
0e64
f833
ffac
01d8
f140
07d2
f529
0cb2
0bab
0d71
f3da
f683
06f1
f04a
fcac
0b6a
f885
ffac
f68d
0dd4
f6fa
0408
0eec
fa85
054e
0c25
f40c
062e
0529
0704
f996
07ac
fd93
f04f
f509
01dd
07c9
09eb
0ee0
f95d
f192
febd
f149
f470
f900
f233
f2a1
0a1d
0584
073a
f96a
062c
0820
f517
f029
fb49
f5d2
f2f2
fcbc
f560
07c7
0101
f8e7
0c21
fa1d
f7f7
070e
f130
fcb3
0bb0
fee8
f3c5
f328
f77b
0e1c
0901
f181
0124
0160
fd6e
044c
fcd1
0a89
fc18
f635
04d4
fead
f0b9
f481
effd
0f8e
08c1
f1d3
fd05
064e
fa9b
04f4
0bb9
ff25
031c
05e7
fc3c
fa9a
fa63
04d9
f549
04e7
ffd8
fbee
0405
0390
077b
09c1
0010
0ac6
f23d
08dd
eff7
068e
0a45
fc5b
08b4
0c4f
fb5e
09a2
0f3d
0ba4
f126
0f53
f66f
f4f1
f4ab
05aa
f1ee
09b4
fd95
0c8b
faf1
020c
0e47
0c7d
fc8e
f004
01e9
f6c3
04d4
0d7d
fb52
01c4
fa58
09f9
0868
f36a
0dfc
ff6a
029e
f32e
f86e
f409
fbc1
f8a0
f4a8
fb66
056a
07ff
f0b5
0478
079f
08c7
fca3
fec9
febd
f7dc
fad3
0ba2
ff9b
efda
00d3
ff01
f211
0cea
fc5a
f17b
ff1f
f1f3
f979
0720
fcfc
fd0f
f166
f751
f0fc
086d
f425
fcef
049d
00bf
f7b0
02b2
f4d7
f3f0
0ac6
fb00
fc55
054b
f91b
fbe0
fc44
f29c
f7c6
f01c
0f74
09da
fe51
fd0e
fc96
fa53
0fbb
f9a1
f634
f287
f16e
02a2
017f
0e16
fc35
f058
f6f9
f356
0355
f390
0667
05d3
05dd
0dd6
f02a
0e12
0d1d
0af2
0474
0403
f3fb
fde7
0419
0ccc
056c
0d37
f10a
08ba
fccc
f3c1
f8af
fa54
fd0c
02f8
f772
f452
f5dd
f146
0a17
08f2
f9d6
0e65
f2c3
f4a7
fbb2
0d6c
fac4
0bb4
fbf6
fe0f
0735
f1e3
f1a0
0ebb
0729
fec3
ffcb
fdb0
fbc9
0c21
0d51
0f56
099f
041b
f064
0f1c
feed
f7d6
fb90
075f
0028
fd59
0c6e
f574
0ba3
038b
0762
f093
f74c
0538
0b47
fa6d
0adb
0793
fb3f
0c0b
0648
0f92
f782
09a6
0027
f03f
0853
fd40
f698
0c4a
f92a
f3d4
f116
fcd4
074d
0e7d
f0eb
05d4
095a
068c
fa7a
0ec8
fd40
0365
ff03
0adb
0221
077f
05de
0dd2
0491
0325
0b82
faf4
01a1
fc14
faa0
06b9
0281
ff9d
f72a
0b3d
0a80
fa49
f02a
f04a
052a
045f
0eee
f1ea
0450
0e7a
f6e5
f50e
010b
f97b
fc29
090f
f9fe
f6b4
f498
0f83
f59e
0739
0551
fb33
005d
078a
0fa9
f4e6
084e
f82e
fa5d
064c
f4a1
f470
0597
fa0b
f10c
f538
f8e9
07f0
0de1
f79d
0a19
f62f
0b44
05a8
095b
0aee
f092
f6e0
0bfb
015d
fdff
055a
053d
f906
fefd
0b2c
017b
08a6
fa45
fede
f12b
0678
057e
0ef3
f82e
fb25
0bef
09ec
f408
0535
fb42
f089
f217
ff07
0649
f274
f27a
f2ea
f0fb
f4d5
0577
0c9c
03c1
fcc9
f0dd
096d
fced
0166
0397
00da
0ed6
f4fb
0c56
0aa8
fc51
f054
0c0d
0a2d
0118
f8d2
fe70
0302
fdfc
0545
04bc
ff85
f0a1
efff
044a
f30e
f5c2
fc8e
03c8
f776
0267
f292
00ae
f5f2
03c4
f94c
fb23
0b44
f657
f984
0c39
023f
f927
fc85
0355
0ce0
0c30
fc0e
fc2c
f58f
0be5
009e
fa68
fb14
f257
0548
0733
f936
ffb4
f813
fcc4
0c9b
08b4
fd8a
ffaf
024f
f01b
0bd3
0b11
f1e3
076b
f558
fbcc
032d
f551
f8b2
f90d
fe9e
fed9
0384
ff82
f146
f958
0ded
ff30
f418
0d18
f129
f23d
0292
0f12
fa67
fb28
fea0
0e8a
00cd
f611
0cab
0999
fcb4
036e
f84f
f65f
0ada
0b65
fcfa
0650
0f06
0de5
0e9e
f52a
000b
04b1
0cb4
f28b
f37c
fd73
fe06
fcff
0fd7
f9e1
f0cc
097e
0b91
0b27
0fa6
fe20
0f1f
f904
fbe1
f96a
f9d9
fdb5
02d9
0d28
02ad
f9ff
0d79
0ad3
0361
fd75
05ed
0927
05a9
0cc0
f20b
01dd
f63e
05ca
f793
fc50
0504
ffe1
f2bb
0826
0dba
f2b5
f78f
f34d
f8fd
f86e
0ca0
038b
0b63
faf3
0809
0ade
0023
f17c
fedc
f314
fa0b
02a3
f401
f404
00c7
0b60
f93a
f82c
ffc0
06fe
f188
f821
03de
fad6
f78c
f6a8
fe7c
f0e3
0f86
0362
0f8b
0f1d
06bb
f93d
f986
0b30
0da8
f768
05d1
f3a0
037c
f7df
fbbd
08f3
fb73
0d6f
f15d
f8d5
f6d8
096e
fea6
fe57
f4dd
f9e0
faf0
f397
08f3
01f4
f595
038d
f5c1
fd9c
0da9
0fdd
09c6
04fe
02a9
0ea5
fb6c
fcea
f7d6
f1b8
09bd
01a9
031a
0bed
0e6f
fe38
f509
fc15
0d41
0f35
fac2
0e4a
f3c9
0b7c
0616
0f92
0c81
07ac
fa86
fd78
fba6
0309
0aa6
f07a
fd43
f743
0f47
054b
0a19
070a
091f
070e
fcce
086a
097c
0cea
feeb
f0b7
0744
f97a
f26c
fc08
0254
fdc6
f820
0349
0083
f5c1
0ae6
f8d4
0696
f1b9
f847
0adf
fabd
ff5b
f951
0f56
010b
03d4
f677
0b84
0742
009a
f8bc
fceb
f15c
fef5
049c
fe28
0c4b
0ee8
f6b9
0e97
f3aa
08cb
039a
f1d8
f472
fa17
0c4a
fa76
f78f
0bcd
f84e
0fa4
fb4c
f1a9
0d30
f8b3
f278
0e14
fc3f
f535
f550
0be3
fcfd
003b
f861
f831
efd5
f4cf
f19e
f80b
0308
f32d
01c5
0963
f3de
0882
032d
f89e
08bb
f95a
f7d6
0352
0338
0315
f60d
0d9e
f36b
00e2
0e44
0b26
0f63
00fb
f821
093b
0640
f879
f5c9
0146
f1fc
0b26
0573
f1f6
f736
0a98
ff2d
05bd
fc65
0979
0b6b
0fee
02e2
f065
0c10
0aa4
0c59
f7e9
071e
00e1
fbcf
05cc
0a44
0d26
0440
088e
0604
f67f
09ac
0314
fe94
f5a4
f2c2
f558
02ba
0d8c
f229
09d0
f8a6
09c1
07f0
0da1
fdcf
0395
fecd
0858
f948
fcb0
09d7
fa67
f9bb
0564
0d14
05be
fce4
f4a3
fdb4
f4d2
0f70
0e67
fc91
f097
fb86
0c97
0884
f93c
048e
0937
f1a0
f319
0b63
01de
f262
f9fb
f69e
0256
fab9
0902
f671
f666
0c6d
0773
fd53
fa84
f07d
0592
02d3
08ab
f393
fcf8
0594
fee3
f83c
048f
ff4f
0db5
0295
fb32
ffda
0e3d
f848
f5ee
0372
0c62
0620
0539
0524
f785
05d7
fa90
0764
0732
0abf
00ec
f743
08ba
04a8
fac7
f6ce
fa6d
f82f
ff4f
fae0
03c0
0869
01bc
f523
06e7
0b2b
f292
fb0d
06b3
f2b2
0aa5
f027
f056
0f1b
fc09
09fe
fad9
055d
0c12
fa7f
f1c0
f1d3
f0d0
0622
f1af
03c9
f595
0acf
016a
f1a4
08f1
fcc0
fe40
0baf
fbdd
0d57
0187
fd00
fb71
04c0
f027
fc5d
f722
0533
0499
f4ca
fdee
0bf6
ff5d
fb21
f34d
0ecc
f74a
ff57
fd94
f390
0ef4
0c19
0956
073f
f9e2
0167
0f9f
f4aa
f5dc
0270
0da5
0665
09a6
f60b
f389
f85b
0252
03d9
04cf
f148
fdaf
f9fc
008e
fa89
0d73
0677
fa6b
ff20
0bb0
ffe6
0a65
f66d
f27c
0a69
032c
fc67
f3b0
fa83
0ce8
f9e5
f49a
fde7
0543
ff1f
0919
fefb
064d
05eb
048b
f799
0316
f21d
0633
fa64
fe77
f491
0524
0e02
ffef
fecd
0d45
fcf4
0109
09e9
f61c
f065
fc4f
0225
00de
0dcb
0a61
f6e7
00e7
ff5b
fb0c
f1d2
07da
0055
f3e0
f80a
06b0
00f6
0eb3
0df0
0cf2
091f
f0ef
f2ea
fd5d
fbeb
fef0
f9f1
0651
006e
f676
0a54
f7c6
0619
0bdd
0b87
0096
0fc8
01d6
0003
f401
f67d
0d20
fd48
f93b
faf3
f800
f9ec
075a
fc39
06a9
097a
02b0
07ca
f481
f357
f65e
031c
0e86
fb2f
fec9
03a1
f706
0f16
f278
f1f1
0ae5
f80b
0970
04d1
0d9c
f329
03bb
0461
f394
ffa7
f59b
068f
f0d4
08c1
09f1
f710
0a0b
06bf
022a
027e
f40d
0372
ff26
07a2
f947
0852
0172
0c4c
febe
f826
0f25
f2ee
0cc3
0222
01e8
f01a
fe3e
fcce
002f
fad2
f24b
fbe4
0d13
0f94
0d27
0281
f802
0503
0ced
0f02
098d
f354
f4f5
f9ff
f485
04ad
fd9c
efff
04ce
014a
fb8d
f474
f988
f96f
f5b8
0b1a
fd12
0361
fac3
0f78
f8be
0363
f14f
f77d
0a14
0f08
ff60
f422
0ea1
0045
f3af
00e0
f6df
fc18
0139
fe7b
060c
fa8b
0902
0d42
03ac
f904
068d
0c25
f935
0acd
083c
ff1b
f442
f6b1
f48f
f36b
03c2
fd8d
0e2e
f874
f12b
f792
07b8
fab5
0e31
f480
0ac9
f73a
074c
fa24
fbf5
f296
0ba2
f2d8
07a6
f2d9
0151
f547
f795
0c04
0d6b
fd9c
0165
f57b
f510
01c5
0a1c
0c47
f01c
f34e
0140
faac
0815
f096
f986
fbc9
f5a3
0da8
eff1
f467
f4bd
0c26
f53d
0f4a
0ca1
0b88
fda9
f15a
0dc3
0bc2
f67b
f57b
f4ab
0524
f4bb
0526
fff9
0d4b
fe75
f5d3
f6ac
01f3
08c7
07cd
0095
0fc5
0e0a
f8b4
fd20
f55a
09e3
f49c
0d25
0979
0f1a
fa36
f4f8
0e4d
f36b
0a60
f6d6
04fe
0e7b
0b6d
fce8
058e
0eab
ff22
f9bc
f0fa
f537
f1d9
fdab
00aa
035a
0d12
0b85
feff
f844
fc26
062c
0dab
f738
01b6
fe49
f282
023c
0b21
f94e
f0eb
0881
f487
f79e
0f22
f488
0e51
02b1
fb2c
085c
0735
f930
0c58
f43f
011f
f6d0
fb16
ff78
09ab
fb18
0bf9
0a64
f820
0fa1
04f9
f22d
0dc8
f095
0565
023e
f59c
06e8
f8f4
01ba
08aa
0268
f744
0361
0b5c
05e2
f706
0e62
ff42
0f25
fb45
08ec
0b17
fc09
fb40
f139
02e6
f41b
f528
04c5
0962
00cb
0e63
f38b
f6d6
0d1e
0ad0
fc97
0f63
0804
05b5
f99c
f0a0
03bd
f1c1
ffeb
f035
f156
0209
037a
0e6b
fe62
04bf
fe22
fade
016e
f7ba
01c4
fb2b
01a4
f2ae
0221
f690
0157
081d
feb5
096a
0e23
f4e8
fdd4
fbb2
f2a8
f782
f1f7
0733
fb7c
f007
0be2
0544
fa9f
0904
f269
0cc2
0cd6
09d2
f41d
fa62
fe40
0bb2
076c
0c70
0e57
fb2b
ffc5
f122
0ab1
f9e2
004b
fb98
fe03
f43a
02a3
0377
f2c9
0072
f5cb
f910
f715
018d
fcc3
fcfc
07b7
0150
00a5
0749
05dc
f6b9
0f81
f990
090d
f5c2
0167
04cf
fa16
f342
fc66
0ea6
0a42
f1ce
f2cc
02a4
fc89
03bd
fcd9
0e77
f50c
f28f
f246
f226
0c1a
0e1c
08df
f5fd
0afa
0750
02d1
fe5b
f616
0c39
f123
044a
0d90
060d
f5e9
00f7
0571
f9a3
0ada
f54c
083e
07c0
f615
f62a
0d91
09c0
05fc
0bca
0f91
0770
0131
fcc5
0949
0a38
fbeb
0f07
0523
faee
051b
fae7
f828
f528
ff20
06af
f31e
f73c
09b5
08be
f9d8
0720
0400
093b
fd35
075e
f3cf
f21a
fe46
0f9f
0caf
09ae
fe65
f7c4
f8d2
09d2
03d6
f67b
0332
05d9
0ef0
0831
09d9
0aed
0e24
04d7
0376
050e
fb8d
f9ac
f025
05c7
0923
09aa
f287
0b96
fce2
f5db
fb06
0060
0975
f92d
f174
0702
0239
f82b
083d
ffea
0dcb
0460
f629
fa05
0bb6
0550
09d9
f6bb
faf3
f36d
f419
00ca
fc80
fb0d
0909
f475
fab3
0bf3
09af
090f
0fd5
f727
fb2c
f8eb
fa93
0d50
0373
fffb
029b
fe3c
f442
ffd9
0783
0323
00b1
0d4c
00e2
0bce
0572
f9c7
097f
0d66
f10f
f235
0e42
0e34
0b4d
f4a4
f0b3
06db
0ef2
f85e
f128
0e4b
f831
f871
f44c
01b3
02b3
0117
0a78
f869
f840
f43a
07ce
f2c5
07b0
00e5
f2d5
f4ed
f48a
02fb
f909
0e16
f14a
f3c0
0683
f2e0
fbb1
f752
046f
0330
f0f7
fc44
0c5b
020c
0739
f8bc
0dd8
fb85
0df4
fe35
f87b
0647
fd51
f6d2
0f50
fff6
0a46
03e4
0028
f75d
020f
002e
0ca3
0a68
f6bd
f792
eff2
0ef2
fe79
fb6f
ff41
faa3
0de8
00c5
fa22
f810
f6f7
0909
feae
f5bc
f788
f868
0357
0688
0ac1
062c
fe69
fc69
ff86
00aa
0d65
f455
0fdb
09ba
05eb
f453
0583
f556
fa49
f6da
ff29
f793
fc90
f20e
f612
f4e9
fe1d
0990
0b24
0b9c
fa8f
fe6b
0306
059d
09e9
f742
001d
f488
f8eb
fd7d
f963
f1d4
f593
087b
092a
02ed
f1a6
046f
ffe5
0bd0
0087
fb91
0a78
0112
fb19
f6aa
02c1
0772
0d25
f61a
f074
0392
fd60
04a2
f187
fbdf
fc12
03a0
f807
0f8a
0729
f3ff
0296
0396
fd5a
f6c1
fc76
051d
fce3
fd19
0466
01ed
feba
0ca3
022d
f8e9
fca0
0172
0f05
0b52
04e4
00c2
06ac
f3a5
f463
fe8c
fd5b
0da6
f88b
0b0a
0f22
08ca
0068
0d98
f0ec
031e
fbad
0ffd
f56a
0137
082a
f425
f631
fde0
0cd8
f98f
0d21
f592
fbfd
f216
f90e
06fd
f1e9
f90b
fa98
f94d
0bf0
f28f
fd72
0204
0cad
0709
fcb8
f884
f156
0d1c
f027
f41e
fe68
f4f9
fc96
f584
fc04
01b9
f013
044b
0fa6
0a8b
021c
f108
faae
fa48
fc9f
061c
f0c3
0692
f0ce
084c
0da8
fe29
072a
0174
04d5
f29a
fef8
0474
f2a9
000c
f4bf
ff0f
059f
0e98
0b2c
f68b
fcb7
0203
ff21
fdb5
f7f6
0a7c
f0fb
05af
f592
f287
f9c1
f031
0067
f7d0
f18d
051f
f30e
0e95
ff8c
f68c
0d50
0d2f
07b3
0bb8
f87e
0d9f
f1ac
0bf3
ff6b
0d70
fabb
f77a
0acf
f457
0702
f3cf
fa6b
0e01
fc9e
0ab7
efe0
0b5f
0673
f54e
fced
f1b5
f47b
03c0
fcc2
f352
0fca
097c
f571
049c
0269
facd
0461
f794
f4f5
002e
00bc
017e
f685
0a35
f1c0
f545
f1dd
fd8c
0042
0022
029d
f2ec
051a
0cd0
f96e
04a4
f63f
06f0
06a3
fd8c
06f0
0321
0b28
f236
0f0a
ffdf
f9f9
f1ac
f544
0293
0370
0370
f0da
f9a4
fa75
0f91
0ceb
0042
01ae
0b3f
fd83
fcbb
f918
0e69
0d07
0c93
08b9
fab8
0e98
fead
05eb
0b8e
fcba
fe2f
0e46
f7bb
09cd
f7f3
09be
f819
0662
051f
0873
f511
f460
f381
0631
f3ef
ff65
0f95
f070
0f24
033e
02a2
03c7
f862
fc56
f5eb
0ef3
012e
f2fb
0d04
fe35
f94e
088a
f104
0b12
0e4d
f681
0d35
0134
f2d4
ffbe
09c9
0530
f05e
f946
fb2c
09e3
06ec
0685
0e68
0d03
0e18
f54f
f5cf
03b1
0aaf
0424
06cd
0167
0bec
0bd9
03e2
0674
0c7d
feb0
fd06
fd68
f598
f0d2
fb55
f8cd
0cb7
f3c2
097e
0d66
0f80
fd3b
f0b3
0f0a
0f57
0add
f747
fe39
08e8
073a
f420
fd97
f521
06be
0b33
fb2a
0b8a
fb08
0cf5
facc
0adc
0a44
00c3
f233
fd5f
03dd
05ac
f0bb
01a6
05f5
f328
0c24
f014
05e2
0ef7
f5a9
04fb
fa7a
f067
f9a5
01fb
f317
04ae
f4ce
f932
fe07
07d4
f89d
f6bd
fe38
0f6e
0c20
f5b6
086f
f6c9
03bb
f35f
ffa5
f638
fee5
0c29
f343
f07b
f397
fee5
048f
0805
f954
fde4
fd10
f08e
fb78
fe28
0634
f92d
0e67
f4f7
033f
006d
f6e1
ff37
fe6b
f8f0
f139
017d
f81a
f652
0399
0407
0b73
0ee3
f579
0cd1
003e
0a6f
01ee
fbd1
f638
f295
f5c3
0efd
f098
fd53
0ca4
f870
f54c
f5c3
f2fa
0905
f9ad
fe1a
0f54
f066
00d0
0638
fe40
f463
024b
027c
0dc2
f856
0ed6
f7e0
010e
09e8
fe11
0201
f263
f842
f9af
fa26
0e40
0ee4
f4a4
f17c
0771
0452
0669
0d9e
0e58
faee
fec6
00db
f06c
f842
fc5e
fec5
0aca
0c12
f703
00a2
ff44
03f7
0ea3
f5e0
f1cf
0354
f92c
0122
04b7
0256
fc37
fe20
07c2
0d1e
0daa
0fa2
f832
fa86
05c8
f2c2
f65a
08ea
009d
fa07
0371
ff76
0fb4
01aa
0fd5
02d2
0770
f71f
0786
0661
fba2
f363
04f2
0860
fe65
0647
fdce
f9ae
0c9d
07d4
fb20
fed8
f7e5
f662
fc44
f31b
07b1
f433
f9d3
0c43
fa51
00d4
f4c7
098c
08c4
0fb0
0e7e
fabb
fc6e
0b96
f339
fa3a
f3fb
f57d
0d76
0eb8
01b1
05e1
ff55
fe3e
0e41
f287
02f6
f31a
efd7
f50b
0728
f7de
07c2
0a51
041f
efec
05f6
080d
051b
ff18
f6d1
063b
f6d9
ff43
0778
f02a
026f
005f
0985
f297
f74d
07b4
0820
0493
f105
02c3
093b
05ba
0670
f9e0
0280
0faf
f685
0929
f1e7
fdf0
018d
fdb0
f5c5
0685
face
08be
02d1
0e32
fa61
0efc
fc54
ffd4
f732
0e7c
f090
06e7
0286
050f
00f3
0d94
f803
0a9c
fcb9
ff18
0a5f
030d
f4ff
f43a
0be9
0dea
0214
fe33
f3c7
051b
f981
f7a6
f26c
0af3
fe57
feb2
0387
f2d8
00de
ff45
f244
f371
0fe6
f2c9
f476
f04d
f9b1
f914
fc9a
0e1e
03d7
04b4
0662
fa4e
0cf0
0e85
0257
0bf1
09c0
f9fa
f36b
07a8
0576
038e
f849
0bd1
f13d
0217
f337
06f8
f29f
06b1
00f3
f0bd
fe17
f234
fb3c
fb92
0f0e
0afd
032f
fd04
0624
f8ab
0be8
0d16
00f4
050a
fdd5
f92e
0319
0cae
f650
ffdc
fbd4
f24e
f862
f326
0acc
ff03
0e96
0649
0296
f475
f271
ff57
0d6c
0073
0cc9
fa88
089e
f720
fac4
0a03
0f11
ff6a
0a0c
02c5
00d7
f3df
fad9
ff2d
0e64
f8d0
fd31
f5e7
f8f8
f52a
0a58
0637
fc69
0dab
0ecc
0500
0b3a
0040
f280
fb2d
02a0
f11d
06dc
fb3a
f6ad
fece
0871
f4b6
0744
f92d
f60e
08ae
feb3
eff1
fe3a
f6c8
06da
efd6
0c56
fc0a
fbd7
01b2
f22e
f03d
f2cf
fbf1
fd92
0446
096a
0a62
059e
ffd4
0d5a
0c3f
fccc
f1ee
058e
fa04
f882
01ce
f4b6
06dd
f3bf
fcd0
08ea
f542
0bf1
f070
f2cf
08aa
079d
fc02
f826
f079
f66f
042a
f9ec
f66c
fab4
0551
f551
0ca0
0293
f98e
0cf3
fa6e
f98d
f67f
f449
081c
0e46
fa76
01e4
f7a3
fff8
0c54
06fa
f3e7
f894
04cc
032f
097e
04cc
0499
fb5c
0f53
005e
0ada
08db
fe56
075e
f3b1
f9a3
01a3
f9f4
fae3
076b
0dc7
0495
f85f
f9b4
02c8
0a5e
fd90
0874
fa8b
085a
fc7c
09de
0f60
fda4
f889
00a3
0de6
0243
00a2
f2e9
f55b
0f84
f16f
0981
f9d2
09c7
f4a4
0cfb
fe0c
f038
04bb
f640
04f2
ffe8
0e0a
f34f
fb3f
fb3e
facd
fe25
f085
00d1
fb21
fdac
0c6e
0072
001f
0cb0
0bb0
0bf5
0a25
ff37
096a
0a8e
fa8e
ff37
f8da
028b
f2b8
fb84
069a
0a99
f7b1
fe91
f56c
fbd6
0abf
0fa5
f3b2
0846
0199
f4a0
078d
ffae
00e3
ff2b
07b8
080a
f967
0efd
0ce3
ff08
f1a5
01c7
0951
01d0
04b8
01c7
0ce1
0822
f939
08f7
0c38
fc2c
046c
0934
fe2e
068c
0a0b
0831
f78f
0b97
fe33
0c24
00ae
f84b
f66c
0966
fa3c
fe95
03dc
0fa4
f14b
005a
0e0b
0433
f94b
09ed
0886
01c6
fdc1
0266
0ec4
09cb
0e1a
f80b
f5e5
fd1e
fba7
00cb
fb4a
0dad
0817
fd5a
f6c1
f666
f3c6
0346
035a
0611
fd64
0701
0c55
f64b
04c2
0bf9
fc13
f2c4
fc4d
effd
f5c2
faab
fb10
f37d
0c49
047a
f45c
feb7
fcfd
f829
fe67
f105
f207
fd88
fea3
05bd
065e
fa48
fed7
0d5b
083d
0cea
fec9
f923
0cbb
fade
f804
f378
fab9
0b7b
f459
f56e
fce8
f6ef
0a27
f226
f377
05f6
02b6
0fae
f8d7
0564
05b6
f7aa
f020
0b9c
f2d1
0886
0d9b
fdfb
0f70
f92d
f029
0326
fe3d
f84b
0736
0d51
00b8
04e7
0f0b
0232
0eb3
fb64
f12b
035d
f5e3
0f21
0ebf
fe6a
f995
fe30
0bc9
f09a
0c7c
0773
fd68
ff96
013b
fa30
f8cd
f806
0013
0b98
f0ba
0539
f2f6
fd95
f591
0e51
0f4c
06fb
0e7e
02f2
0af6
fdeb
f0f9
0cf6
f192
fadc
0e2a
f316
f61d
f105
fa73
f577
09b1
f1af
0095
0fbe
f1df
f051
fbe6
07e2
f6f5
0a00
01a6
fcab
f591
f038
fdd6
f3f1
f79c
f50b
053d
095d
0ea1
0b19
0366
f882
f70b
f90a
f33b
fd7e
fe2c
f8b5
0958
05a2
f6d2
0116
0c4e
035e
0c31
f539
0afa
f02c
f2a5
01be
f5b0
f73d
02e3
08d2
f571
0e58
0c50
fefb
fde9
01a6
fff5
0ec4
0f2d
f89a
fb24
02c3
f9d5
f11c
f5ef
011e
0b2d
fae7
f7dd
0d06
0c4d
0313
0a68
097c
0a45
fbcb
f69b
0acd
f649
fd6f
f9cf
f9d3
0cfd
f76c
0d4d
fa0e
0bb6
f69a
0a85
0704
f8c4
fb34
f6e4
f961
fa30
f7d9
f1e7
0a8a
042e
f2fc
f284
f007
fcc6
fb3e
010d
f242
04dd
f259
0485
0e6b
0320
f793
0bd5
f83e
f4cc
06ff
f636
f1a4
0d41
fb6d
08fb
fa86
0318
040d
0553
0127
fb75
f484
05d3
f6b9
f0f6
f882
fec2
f9a0
fa8f
0eb2
0a4e
0913
02ad
0eea
099f
03e0
094d
fbb6
0f6e
f9d3
f455
f614
f8c5
01d0
0268
098c
0e46
f65f
08dd
0f72
0e6e
fd76
0d57
f530
0ad8
0200
f686
0788
f687
f1a5
0a32
0d99
01b3
04e6
ffbe
f717
f7fd
0fb0
09c4
0014
fdb6
09ee
f3be
01be
f537
0330
f097
ffb5
02ca
0024
f8cd
fbd8
f23d
08ca
03c6
fe9c
0283
0c8a
f53d
030f
f473
f040
f815
09a7
029d
0888
f721
06ee
f07a
fdfe
05e1
f4ac
060d
feba
f006
f4fa
ffbb
fdd6
f98b
09e6
0045
0a0f
f7fd
0e1b
f6bf
0ed9
013c
0d60
f13d
0fc0
ffab
03eb
fde1
09ac
0100
0944
f5aa
07cd
f388
0a71
f92e
f198
fe89
f328
0271
f60d
f06a
0cef
ffba
f4b2
04ad
0845
f04e
fcd5
0968
0ea6
f1d2
fe07
f005
f194
fe13
0339
0712
08c7
0f82
fb03
0752
f1df
0cbc
0d5c
f8e3
0afc
034d
f627
fe63
00fb
f013
01c7
f118
095b
067a
f397
f088
0589
062d
0838
fd14
f72e
04bf
f50f
ff98
0359
f074
0d64
05e5
ff2c
08e4
f89d
012a
05a9
08fb
0b5c
0f2c
f4ea
fd98
060f
faf1
0c23
0920
0bb0
0d2c
001c
0822
ff7c
fc57
f396
0cab
081d
083b
f78b
f6a1
013a
06d7
f34a
f14d
f1fb
f245
01ff
0aad
ff4e
f1ea
fc57
f99c
0d05
fbf9
08ec
f5b3
f530
069b
feef
fc2c
09db
f9c7
f9a6
ffbe
ffe4
f05c
f05f
ff34
f289
f8ec
0d2f
0694
07f3
f9a5
f292
f24d
f1c8
ff2d
fdcb
f7d1
ff1b
f462
0363
f6fc
0432
0cc7
001e
0424
06a6
fcaf
03c5
f82d
f3d4
001a
0e26
f891
fdc4
f657
0f87
00ae
0e35
ff9c
01f1
f1af
086a
f0d7
