0236
f4e4
f84b
fde5
09bc
f0d7
ff8d
0c70
f991
f09a
fb23
efb7
0d3a
021f
fde0
029f
f404
f644
ff77
058c
11f2
f56c
0996
ff93
fe90
f255
f6fe
fb8f
037a
f428
fcfa
f334
0a52
0e3d
f463
0b0c
fef0
f844
f8cc
fdc8
0b99
f2d9
fa74
feaf
f3a3
ffd2
f963
0aa3
f687
02e5
f395
f37f
f413
0d9a
fbd5
043a
04c2
058a
f30a
fb81
f779
04ac
0151
f3b3
0cac
f0de
ff8d
04a5
f9e6
0f5e
09e0
f86a
f0fa
036b
f7ea
0c89
fffe
fd77
f8af
f9bc
f508
0493
0d3d
0e26
f342
0f83
0f63
f070
0b68
f05d
fac3
faeb
f58d
0335
0a88
0d3a
06a6
00d2
07e3
fc8f
0464
0e1d
f2fd
f968
0c44
f343
09ee
feb8
0718
fb61
f578
01ac
f9e8
f13c
0221
0260
f4fc
f726
0bd7
0434
f345
f564
06df
04ff
0245
f181
0a0d
f0bd
fe6d
09c5
03e7
f85b
ff48
f553
f595
0737
f050
04d7
f608
fe3c
fc1a
fe3c
f35f
02d9
f17f
03bb
0603
f766
f399
05b4
f4b2
0fdb
0bf8
0841
078a
fac0
fc09
0a83
f468
f973
0f59
06d0
f598
fa4d
f194
0372
0aef
051f
fa2f
09ac
f37d
0a7b
f8fa
f53f
f92b
f131
081b
100a
0b56
f977
0700
0468
f997
0002
12ab
fb41
0aaf
0b82
ff13
ff39
fd1f
0d7e
0d6b
0420
0a92
0b27
0021
f990
019c
f42f
0faa
028b
f7e3
044b
0ac2
0694
0ed4
fd9f
f769
0da8
fed5
f51a
0aff
fee1
f4b8
02bd
0399
0597
0c43
f1b2
f263
02e3
fc19
f7cc
f322
fe6e
083f
f12b
ffbe
0e09
0def
f44f
fe3c
0914
0b09
02ab
f446
074f
fec2
f847
f895
ffec
0eea
fa69
0a92
f7f4
0065
0787
fa8f
f2c1
f08c
f6c3
04b3
0467
0e5a
0860
05e2
f82a
fb9f
ef5a
fbd4
0c2a
073e
0e09
fb1c
f398
efd5
0e38
f60f
f5cb
001b
0224
0c75
fa45
05e5
f9c7
fd7e
fcfc
00f2
fd44
0127
f9a6
0d12
0855
f61b
081f
08ca
f362
ffb6
06a9
0227
f484
f73d
fa9c
05e2
f3bb
0be2
faaf
06e6
0691
0925
07d1
f06f
fcbe
f43f
050e
f5f5
f49b
fc27
eeb3
ffb2
f2df
0e11
008c
f046
0c25
f0fa
028b
04ad
f166
0420
0cff
07f2
0c09
fdab
0157
0e31
0d30
f2b8
f9bd
083d
0d17
fda4
07eb
fdff
04e3
f555
003d
037c
04f4
01a2
0452
f157
f9ae
ffd0
0050
f749
fe1c
fc4f
f605
ff04
f7f4
f152
0ccf
09dc
039d
f412
0047
02a8
f889
00ba
0294
fd3d
0357
f5a5
063b
0380
0b58
f986
0157
f992
0982
f739
06ba
f1a0
06cc
0be3
f5c4
f32a
f1b8
fa04
fbf4
fc67
038f
0bb8
0293
f788
fd9f
f0a0
f450
fd8b
0659
f1fc
0bac
0b7d
fc6d
03e6
0875
f29a
f861
ffa6
f07c
073e
f74c
07fa
f783
0b22
fc30
0058
ff6b
f1d5
f412
f3c9
0308
f41b
fb5a
fab4
034a
03e4
083d
054b
fc65
fe6b
0b8e
0de0
0705
fd96
f120
0064
0266
0aba
fb51
f84f
0dc9
102f
f7c5
f71a
055c
0bb7
0268
07f9
ffc9
f7ee
f389
0d27
02fe
fe4d
01b4
fe35
0273
0cdf
fd9f
0c81
f9c5
0a46
0841
041b
fe50
ffff
f3fe
f9c0
0adf
0453
0a39
f9b7
f53c
0006
ff14
0822
0094
f3e0
0650
021e
0afd
f923
f996
f28b
fe09
f9e6
08d5
0a59
fa72
061d
f1b8
0633
f276
0baa
f582
f57c
fd0e
f215
1131
fff1
f3c3
fc94
0d69
03b0
ffe0
023c
0f1c
fcd6
03e9
0cf5
f45e
f794
fc0f
f6ef
f4df
fae4
03b6
fbf7
0010
f44e
f733
0dca
f13d
f7ba
0c85
f6d5
f4a2
0d7c
f487
00cf
f651
f174
056e
052c
00b0
0ec4
0b58
0144
fca2
05db
f879
f042
fbac
029d
f0ea
f623
f7ec
0c79
f944
00a6
fa4a
f464
fde0
058d
f1fa
f957
f67b
f6f9
fc51
f8de
f4df
ff72
03de
0160
067a
0862
f98b
ff13
f61b
f568
0819
0cbd
f3fa
01c9
0a39
ff13
0782
04aa
fdc9
ff89
096f
0e47
089e
0125
0402
f925
0500
03c3
fa37
f418
04d9
0bea
f1ec
0481
fcc9
04f4
11c6
f64d
0b99
f8ed
f201
06df
0699
fff2
f08e
04e4
f7b1
01dc
00ab
0375
0ef5
f418
032a
0433
fa61
01b1
fbbe
ff3f
f725
03af
030a
ef26
063a
fb2a
f4ae
f45d
0f52
f08c
05cb
0a91
f354
f151
0795
f1b0
f15a
fe28
ef34
05b4
fb38
ff5b
fde5
f7b6
fbd5
f7c8
f985
f91d
0399
