0e28
f2ec
fb5a
f519
047f
0526
0345
fae6
f668
037a
f236
f5db
f7bc
ef9e
02b4
f50c
0aa1
00d9
ff62
f4a4
00b3
017d
0669
0ce7
0479
07a8
054f
0040
fafa
05f6
f59f
fa5b
f146
03e1
f152
0193
fe9a
0ead
ef91
fed3
f05b
0c00
0e58
07a5
fda1
09e5
0402
0032
f66e
002a
0ba9
f017
09a0
fc85
0330
0882
0be8
f049
efb3
031e
f81d
fcd5
005c
f959
f415
0700
f877
00d6
082f
0e77
0e0a
f219
077b
f421
0054
0f9c
05c7
faed
f965
0ab5
0e11
08ee
f311
0eb6
f979
f361
f9ce
0359
fea8
f674
09e6
f3fe
0d6c
f5d1
f1c5
ff93
0721
f19b
fc70
0cc7
f803
fbe0
04f3
fa13
06de
0663
f20a
fc90
ff6f
fce9
05fe
f96e
fed3
031a
06fe
fe82
0e39
fe42
fc7a
0ae2
f254
0420
fcac
f202
03ea
0c44
010b
0d32
027d
050f
fffa
019c
0e4c
0fd3
0d6b
0386
f819
0f0b
fc75
0a33
055d
fc6f
0dc0
fb0b
fdec
f43e
09b8
f239
fc71
0bce
0766
0aac
f83a
0568
08fa
f1ff
fd00
f421
0542
0c1c
fd9e
0f98
0885
0be1
f525
f637
0c40
f429
f3dd
f378
072f
0c9e
fe7f
f1ff
f155
0ab5
0817
0ab8
f084
fb99
f655
0a0f
ff44
f64c
f581
f9c3
0dfb
fbbe
f8e8
08fb
0011
ff17
f0c5
f969
084c
0bf3
00a3
0911
0b44
0fc4
f35d
f66f
f985
0ad9
f5ca
f786
0265
f5d4
f283
0dd4
f0bd
f347
0f06
f40e
03e0
fa80
ffdc
f39b
09e8
0d6a
f906
f0ec
0c0b
f35d
ff9b
0928
0e31
f208
f278
f443
f99f
0c5f
fcef
068a
01da
f229
fceb
ff77
05fc
092e
0dea
046e
f90b
0d74
f69a
0c1f
f4b1
078e
f501
f43f
f27c
05a8
06a3
0af6
0e33
02bd
f227
0a4e
035d
f900
f8c8
00b5
f80c
fcea
012c
0e04
0181
f127
093f
056d
f71e
03a7
031b
0163
0dbe
f619
f2cc
0d19
03bd
0620
f286
f5bb
f4a9
f512
0bf1
fb95
09af
f77c
0418
f2bc
00fc
0e9a
fcea
f979
f8d2
fe50
07de
ff1f
0661
0856
0674
07e5
fa37
08cb
0e35
f555
f547
fc72
0025
0979
0b2a
f030
0b62
f56f
f71e
05db
0623
f7fe
0197
fdfb
074b
f928
f8d6
00b3
0e63
f1d8
fc5e
0df9
00e8
0543
f9ef
009e
fa22
f8e5
0d11
f850
f446
0d5a
0b5d
fc69
f38d
0b47
075a
0d79
fe02
03ee
f462
0ead
fcb6
f691
f223
040d
f3d8
f1b1
0d22
0e30
0945
f379
f6b6
0263
f7c9
0a02
0131
0366
0b0b
0ab1
0b93
0ed0
f9c9
f7fe
fadb
0536
075b
f3b5
0089
0414
086b
080c
f286
0b26
008b
0b19
010d
fa8a
0e57
050a
01b5
0646
fdb5
076c
0c7c
0f86
fed0
06b9
0790
f886
0b46
f49e
f542
0311
fb74
fc73
f3fb
f93c
efe1
0cfe
f5c4
fefa
f64d
f667
f4d1
f562
fa0a
02bd
fab4
fa1a
ff6a
fbb5
f722
01f8
f044
f464
0eda
fdb9
0da7
f066
011f
f55e
0196
f923
009a
0abe
f07c
f1e5
0a7e
fbbb
fb70
0be3
fc1b
0ed1
05cc
f4d0
031d
f2b0
fc81
0418
0df8
0674
0dfd
f1e0
f745
fe18
08c7
fcc6
f271
0789
00a7
0cbc
f54a
04dc
fd95
f0c3
0b56
08d3
f4e6
f938
0a86
09e5
0c27
fd32
f8d9
0dfa
0f5b
0a89
0dbc
0168
ffc5
fa37
0cd4
0cdf
fb12
fe05
fbcf
f85e
0174
f280
f665
052b
05e4
f5c4
f9dd
013b
021c
048e
06ae
0174
0e15
f6cb
023d
f99f
f7a0
f6b5
fccf
fee7
0219
00a6
f753
f535
f46f
fa92
04bb
02e9
09ee
f63b
f0ff
f796
023a
060f
0986
fe01
f59a
f091
0d5b
ffe0
fc75
f54b
f1cc
f91e
0357
08b3
f1bf
0992
f8d8
028a
0a96
fbcb
f85d
0f09
f0ba
f826
f9f4
04eb
f1a1
f34b
f6a4
0a47
f16e
0d82
06a6
fa3d
08ff
f8b1
fa13
ef3e
0ce5
0b6a
f27c
0a8b
ff2f
fabe
eff2
f12b
f506
fade
f755
ff79
faa6
047d
0171
0448
0cb6
0b42
0d97
f089
09fd
0117
09c4
0976
f699
f753
f58f
03f0
0400
f961
0765
0f25
0a97
f6c2
f78b
00ea
fb0b
f9ac
08ab
0891
f184
f124
ff80
fc44
0f55
ffcb
ffd2
fab8
fc77
fe39
fc6e
f66e
0cea
046d
f9fc
f9d8
f42b
0868
f63b
0e6a
f897
f0fc
0563
086f
0d01
fdbe
0e0e
0cec
00f8
f809
077f
038f
fc83
0187
fd44
fa99
fb8d
0bbc
0200
ffbf
f659
f129
f837
0d77
0a83
06ab
f9c1
f877
0669
0686
08b4
04cb
f4d7
f545
02e4
030c
f88f
f9be
0dff
0545
f5db
fb43
ff82
ff1a
fb30
fb33
0460
07e8
0438
0369
0865
0537
0d8c
fa77
0338
09cd
07d2
0ada
0fa6
f085
0503
0e48
fba1
fb6a
f57b
0e56
0bdd
f7d8
f75f
f520
0557
0414
03ac
f52f
09ec
f685
0061
08ac
0e33
f35d
0397
05f5
0797
0313
0a2a
0b51
f544
f15a
059a
0b5e
f10e
f9c2
fc3d
f475
f1a7
0027
f2a1
fb6c
f112
0e5a
f55b
09c8
f892
fa6d
fa55
0c66
f3fe
fd05
098b
0663
f87c
0acd
ef83
fe62
0c8b
02e5
f3e3
ffce
0be3
ff90
f3c5
0c5f
0b73
f2e0
f9ed
083a
f6ee
f506
efad
0169
0558
080a
f1c3
071b
fa79
fb2b
f534
06cf
ef26
0046
fab2
fa35
0cbf
0d16
027c
fbc7
fa56
f6bb
f85b
04b4
0e0b
eed9
f5fc
fae1
f215
0ba1
ff49
f197
0134
f699
f2e3
fde9
f147
f718
fa9a
f064
f2e1
0ca6
fd44
f91a
0820
0d69
0d0b
00b8
0012
f583
03da
0525
f06a
f592
febc
0044
0a55
f2fd
fd52
06a1
02fe
0e19
f657
013f
080a
0d77
00d9
02ce
f131
0756
ef8f
0ab9
017d
01f9
025e
0796
f611
f4f3
016c
003d
0cbf
f20d
ef1a
0d63
ef74
f2ca
fa65
0a5e
f229
0c41
f0f2
0e57
020e
f14f
fe38
f5cc
032b
f79b
02f1
0aa1
0d98
0b7a
efc9
0ed3
0141
fd3e
fb69
0e3d
f456
fcd2
09e4
fc6c
0843
02d7
f783
f5e9
0012
01f3
025b
ff92
f40f
09d5
07f7
fef0
0c69
f0da
efcd
f7b0
0b2c
f05a
fcf2
f706
0645
0b1d
0c26
fd84
f3f9
fe3f
f9d2
f151
0e18
0a34
0633
f062
f5b7
06d7
f502
01b2
02a1
0ab0
efa7
05cf
0d9a
f56d
099c
fb54
0eb4
0d11
fe7f
f44a
06b4
023f
0e36
f509
09b0
02f1
fccf
06a6
0e88
0a73
0a38
f47b
f407
039a
f16e
f14a
f792
0243
f672
069e
f39d
0e27
f317
faac
01f6
0c45
0bf9
f2e6
f7d7
01eb
f512
064f
f5dd
0927
f7f3
f049
0001
063f
fbed
0465
0557
fdc7
0f11
0818
01b6
fb8d
f6b2
058c
0eae
0322
036e
f168
0c1d
09e2
0a2a
0ff3
03f4
08f8
0423
fd96
f745
0fb0
fc72
f61a
0c3a
0499
f758
03f1
0c29
0363
f4d8
f46a
0c13
0cde
0a6f
0c43
0c8a
f2f3
fe9d
0073
0db2
06db
fd25
0e3d
0a66
0957
f6b8
f982
006a
f4cd
f0a0
0e2f
0f24
fbf2
f60e
020d
0208
0cd3
f8c1
faa4
0abd
fa61
f746
0986
f243
f8f3
f9d1
fd0e
fa78
fdf1
0442
0518
fdc2
efb8
f8e9
0833
0367
fb98
f52d
04d3
f769
f563
f27e
fd1b
f515
fde9
0ead
0b6f
0343
f00b
f19e
fa8a
0c4f
ff32
f564
fff9
fd9d
0140
efaa
fc6c
0780
f063
096d
fde4
0f76
0782
f3a8
f78a
fc71
0ac6
f207
0f2b
f1a0
f13a
0e32
fde4
01a6
0c5d
f34a
f9ef
f163
f856
0bdd
0cc4
0d41
0c67
0865
04e3
0bbc
f167
f588
fc16
f365
f707
f87e
0c17
f246
f03e
fbbc
f69a
ff72
f1e8
f3b3
f32c
f925
047e
057f
fbf1
0d6f
f7f2
07bb
ff85
077f
0e8b
ff90
ffbc
0252
f10e
0397
fee1
f9cb
f0d5
08df
f4ef
0425
f68f
f435
0215
ffd1
fe57
0803
f90b
fcea
f463
f52e
fb93
fa8c
0879
0053
0016
095c
0140
fed0
0c2a
0b86
0837
03ff
f379
f2c7
f432
0bb6
0bbd
0d5e
f6d7
09cf
0024
09fd
fcdb
0970
f125
f479
f653
06a3
0bfd
09a0
fb7f
febe
0d65
f8c6
f343
05f4
f0a8
0fb1
f0f0
f980
f0cb
00f3
fab9
ff2c
f083
fc0e
0731
f2ed
f1aa
09d6
07a5
f1b1
f880
fe60
fcc8
0bb0
f3ca
0633
0dbd
fb3f
0a11
f13b
0ee3
fc83
fb66
0e68
0e10
f932
f78f
093a
f943
0c40
047f
03ba
06f9
f745
01f9
f098
fc21
f089
0667
fdba
0061
0199
fdb4
f311
06e0
01c0
f275
0a5c
03f5
0eb8
f207
08d1
0e17
fab8
072d
09c1
0e4a
ffaf
0c5a
f73b
0706
f178
01cf
fba5
fd5c
ffea
ff9d
0b93
f4cb
0b1d
fc26
f92b
0ba5
08b0
f1b7
0d60
f731
0041
0411
0361
f17f
0149
ff74
f81d
f87a
04cd
f1ec
0994
05cf
efbb
025a
f14d
fd4c
f30e
fcaa
04f6
09fe
087d
f3d1
f479
f2ba
0d49
f821
ffc8
fbaa
0979
f85e
f70f
082d
f93e
f6d7
05a5
f0b5
faf1
0a36
0a1c
f4f0
01f3
029f
f5fa
faac
f749
fc48
f8fb
076a
f7cd
09f3
fb2f
f0a8
03d1
0807
fa94
0c75
02cf
fa4a
f523
09c1
0e51
f8d8
f8f8
f19e
05f2
f27e
feb8
075e
0f52
092c
f235
f180
f0a7
0768
f5ca
f063
f2f8
043a
feaa
05f9
f7fb
0d6b
f219
fba3
01a1
f0f4
0601
0bb1
f9ea
00ea
0e98
f211
fb2e
f7ae
037d
03de
0429
f01f
f197
0cd6
090c
f4bd
0ec7
fa4b
045f
fdc1
f265
0e27
fece
f43e
f3ac
f199
0a63
fc9e
fb65
f706
f22a
0b09
ff54
fd10
07c5
09e1
0b0a
f856
f330
feae
0c7f
0ba0
f82d
0874
046b
f6b6
fc0c
0a4d
f7ae
fd5d
f332
faf8
f7e3
0c89
06fd
0df9
f0ab
fc32
fc2a
0419
f1b3
0b39
fbc5
f134
08da
f106
f822
f471
0ac3
02b5
0787
f5d8
0600
04ad
efa0
efea
fe1c
fde2
f2e5
0ef0
0ca3
fda1
ff50
0f2d
0e34
0140
f56e
0e81
0e4a
0322
0980
0f4b
0c93
074c
f303
f0b7
0e6c
f7d8
f841
0755
0653
0369
0a63
07cc
0973
03b7
0b27
fde7
0d09
fe1f
fecf
f6cf
0a3d
0bbb
097e
f00b
f8e3
06c6
f058
045f
0889
068a
fa4f
0abd
f566
f013
feb6
006a
f6ee
02aa
0699
fa6c
02ac
0657
0a76
fe60
04bf
061b
f316
ff28
f9fb
fb5f
fd79
f434
0098
f9c4
0376
0c45
0b7a
0d90
f4f3
feea
0dd7
0117
f211
02d7
f71c
f724
0453
0776
0830
f7c6
f79a
0156
f34f
03ba
f24c
f332
0569
0864
f62f
0ba5
03de
0e23
022f
0273
076f
007a
0514
0733
0d77
f040
05f2
ffa6
ff95
ffff
f0d1
f6a2
f8f2
0ef6
f626
f23f
fa8f
0cc7
0544
02f7
fc4f
f56a
0093
0549
f6df
fd01
fe92
0ab7
03de
032f
fc00
feaf
fad3
fcea
f5d9
fb64
03a4
f815
06dc
ff85
f163
0220
f85f
f599
0cf4
f84c
f1d1
0904
0718
fb7b
0989
f5d2
00c1
f698
032b
0e27
0928
f839
f8be
f5bf
056e
04df
fb5b
0f22
ffb2
079e
f453
0e2c
f8cb
02ce
0a76
f695
ff33
f782
0f95
0481
0c18
0b73
f4aa
0033
ff63
fa6d
0580
fdbb
04a2
f1c3
f621
fe12
ff62
08c0
0fe5
f5c6
fb00
0090
ffe9
0862
0a2a
f6fa
f03a
0683
08a5
f1c2
0197
0b9d
f7b8
0366
f0e9
fbc0
f9b0
f689
f372
092d
fedd
fbb3
f85b
f7ca
07dc
01af
f138
0b3f
0ed5
0b20
f24b
faa5
fe05
f0b8
0d84
0748
f2ba
02a2
f792
04ed
0b8a
fdbc
f131
fd55
0ef9
f076
ff2d
0e5e
f681
00b0
0d17
f723
0e76
0bfb
0aee
05a9
071a
f047
0e34
fa72
0296
f934
f790
08a4
07c7
0121
f971
f6d0
f0e1
0a0b
f07f
008b
0f88
0835
f320
f6b4
04e0
f81a
05b8
fb1b
fceb
09b5
f7cd
0227
fff7
f6c1
f0c3
f59d
028e
f000
fe74
067f
07f4
fb6a
fa74
fba4
f886
f06e
0fe5
03d7
ffc1
fe12
f3cd
0235
f1e5
f3a6
effe
0c4d
ffde
f301
0ac5
f88d
015e
0e1e
08cc
ff73
0ab0
03cf
eff5
083c
f0fc
0399
fc99
0365
0661
0abe
f962
0583
faa1
fd5b
feac
f90f
f96e
f023
f4be
ff2a
08dc
04aa
0d50
01df
fe18
f602
03b3
0420
f51d
f22e
0e44
044e
00cd
0325
0e19
f257
fb1a
0085
fe32
0779
f5a1
fb5c
075c
0238
083d
05b1
f671
fddc
f060
fc23
00c4
0e23
fef8
0c8b
0067
0067
01fc
089a
f564
f8c1
fb6a
f12c
00a6
0e6d
fe9f
0b37
f4f5
0340
fb75
0528
0095
f027
03b8
f06f
ff64
0ba7
0461
f545
f257
f224
f0fe
0315
f8ce
f9f5
f198
f957
ff79
08ac
04b5
fa5a
09c8
05d5
ff18
f4ed
f1e1
fbe1
00d8
0b44
0779
ff9d
fc68
0c1e
06dc
0757
04b0
f5f7
0e8b
f40e
05de
f5ca
0e08
f2d7
f179
fa82
fc1a
086c
f561
f2a6
0b27
f36c
053d
08ba
0d51
0ed0
fb53
0d11
004f
f1cb
f6ab
fb5d
f021
01d0
efb9
fb61
fdd5
fb7e
fa32
fc58
0cc7
f543
f36f
0699
0278
0756
08ea
f8ec
f618
f1c2
0d96
fe28
0e3b
f7b7
0741
f5e2
f9de
fd0b
f10e
fab3
f586
f66b
f8d4
ff28
fa08
eff5
f949
0ab4
fa26
f54e
fc5e
f4e7
f1c6
010f
fbc7
081a
0b6a
f2f5
ff67
07a2
fe09
efff
0965
0843
f40b
0d45
f691
f74c
07d5
0255
f67e
05a8
09fb
f364
0cab
fe96
feb5
fe72
fcd7
f358
00cf
f470
fb3d
04e6
0711
0b59
0375
f522
0053
0d2b
00fb
efb3
fd03
f3a5
f5b8
f47d
04d7
f219
03cf
0c35
f56d
0ed1
fd64
0edb
0595
0dfa
f437
0d69
ffa9
f8d9
0f43
fb75
f1ec
fe85
f35d
f57a
f187
0afa
f1df
f7d8
0a68
f06c
f5fc
f5b6
f6e5
f65f
0804
017d
0754
08da
f88b
03b2
ff72
0429
0370
fdbd
f478
efee
f191
f579
003b
0ba5
fa16
0cc3
f239
079e
f2d2
f73b
07a1
f2d7
0d2f
f8d5
f4e4
f90b
0b08
f028
fbff
0023
f490
0d83
f9a6
02fa
01da
fef4
f214
0c52
0c7a
04f4
fcbd
f8bc
0f1e
f919
091f
f3a4
fc7f
fc58
f88d
0d2d
fdd2
f357
f856
ff58
02a5
ff7d
ffc2
07ac
0b7e
f915
f139
f632
f18d
0806
0086
023a
f503
03a5
03d8
f438
fe4d
f884
f257
f2f4
00fc
f1b1
059b
fb2d
0d19
081e
0e89
f21a
f309
0534
f590
f706
f330
f1d2
f533
0bc7
0510
0007
ffc7
0bbb
fbb1
0026
0e1a
0281
0df9
08d7
f624
0b4a
0560
04a7
07cf
f770
fb9b
016b
fdaa
ff4b
0c4a
ff54
090d
fe1e
0422
0751
0bb0
fca0
f64b
f18a
f15a
fbad
079a
0630
0d35
057e
f0b8
f677
0468
f166
00af
f849
0dee
fc4a
fb71
0284
0df1
0c12
04b3
f9d1
0c8a
f68b
0d8b
08e0
0d15
02fd
0669
f931
fb37
f93a
026e
f8bb
fe2a
f325
0194
f5f3
f952
04fd
0604
f06e
facb
0db6
f4e9
ff5d
f357
04ff
08d2
fe6c
ffc0
fb70
f061
f7ac
07f7
0f57
f865
0f60
04e8
0a37
fda1
0e70
f054
0237
f42f
fea1
072b
0652
fd87
0393
02ad
0651
0542
09b2
0ee2
f4d5
0274
0a40
02b0
fbf5
03b2
f23e
f489
0816
09ea
062c
0e8b
f221
0ab1
0381
fe17
0a9f
021a
06d3
f2e6
0184
03a3
019f
002c
f822
037b
f40a
032f
fda7
0d29
0188
0567
0e26
08dc
fbd8
0886
f15c
f8ca
0d45
0842
f945
021f
fe28
0565
0ab7
f8c8
0a0a
f09d
fb7e
fe21
fcda
f722
f640
f2e3
0a88
f02d
f433
f9e1
f9a9
f815
0037
f547
0e6f
03e6
fe6e
0b58
f5d2
f6dd
f390
f18e
f953
f8a4
0fb3
fc4c
0988
f5a6
f630
feb0
06aa
0927
0d9f
f727
f71e
0fa4
0de7
f103
0b75
fdfd
0849
fc57
f22c
f265
0507
f298
0710
0587
063a
f87f
f1cc
055c
0b88
f5b2
fa22
03b6
0981
f084
fbb8
f033
fa59
f587
04ab
ffeb
0f98
0918
0056
fbf2
fd07
fa8f
f23e
0301
f2bf
0374
f988
0026
0433
f996
005f
079d
0277
0740
0c55
0710
f5b7
f34f
f856
fd8d
091b
fab1
f71a
f906
0423
fcfc
f5af
0f76
022c
fa39
02b1
04f4
fa0a
0cdd
018d
f002
fa9e
fe2c
0197
f771
f87e
00a2
fd37
f18b
0975
f6db
f51b
f808
fd3f
0187
095a
f43f
0149
f788
0f77
f286
0305
0a6f
0f08
0b24
0fb2
f1ce
01f2
f379
0796
f2a5
f229
0fa4
f8ed
f7d4
f16b
0341
f386
f2dd
fa9f
fc5b
f0f6
fc3e
09f9
0e04
f8af
0f44
fdf3
0671
f737
0306
05f1
0f42
0694
f7ec
f95f
f679
043b
f4ac
0615
03a8
07f8
014c
01df
fbaa
fa35
f5ff
f253
f271
fc63
04ce
f910
f62e
0e0d
0f2d
fb26
0bb4
0c93
f583
00b2
f9ee
f4c7
06a7
f0da
ff4f
f2eb
f783
009b
0b96
f42f
02f5
f73d
024b
0bf3
f7bd
fb2c
f007
fa3f
0167
f8dd
0752
0575
f2f6
08bb
0ada
0a97
f695
f2f3
f6f7
f2ae
fc37
fcc8
0027
04fe
07b6
0320
0330
fec3
f843
f213
f13e
fed0
f2de
064f
0e73
0260
fe80
f6b6
02ea
05e3
f331
0787
f0e1
f907
fcda
f064
0e36
f547
fbc2
0141
031e
082c
0921
095e
f434
063e
f441
f9be
0b56
fd2d
fb67
023a
f493
0fab
052a
ff20
0389
f58c
04ba
0da2
0181
0890
0161
072e
fcdc
f77a
0092
0cb4
0ea1
fe76
0a3f
0a3f
f32e
082e
f770
035e
ff1b
fc34
ffaf
0704
09b5
fcae
fd37
0b35
08e7
03db
f6bf
0842
0c2b
fccc
03bb
fe2f
02d2
f18e
02de
f1af
fce4
fa30
f869
fe2a
0ade
0c26
0279
f308
f012
fabb
f13b
fc61
fd0d
fd52
f681
0a03
09e8
0a27
053c
0f4a
f179
04b6
0e64
06f5
0e9f
062d
0c52
0aa6
fa1d
f58d
013f
067b
f3bd
f1f3
f418
00a0
f251
09ca
fdbf
efeb
0889
0439
0b10
f8e0
f7a7
f2a0
0c05
05ee
0013
f36b
06b3
021b
f1b3
fc91
f6b3
f0da
004f
04ed
0ad5
0ad3
0181
f4d3
fc45
0862
040c
f33c
fdfd
f50c
0e30
0d4b
f708
06f1
0fa5
fe17
0066
0044
f840
fc6c
f8f8
0965
0787
fed9
f081
f5ad
087b
0c1a
f986
f126
f604
f1c6
059f
09c3
0892
f94d
03c4
f2f9
f78d
051a
00f7
fe28
f9ff
0791
f5cd
f8e9
0916
08b4
0601
084e
ff9e
f61c
f37e
05ca
f6ce
02a4
fecf
f4fc
0089
0258
007f
024b
084c
0e75
073f
fcb2
053d
0e62
0643
f8eb
f10f
fb14
0dd2
0da6
ff39
0e11
0a71
0bd6
fe17
fcb2
f714
f694
fafd
f93a
0afd
fe5f
077f
05dd
f452
0a6c
fd41
0d8b
fe2a
f7c4
0f01
02f5
0085
fd06
05f3
f0b3
01dd
fde6
faeb
fa1a
06bb
f26c
faac
f21d
ff78
f0b5
038c
f59c
f4d5
f682
0cac
0d56
03c3
0d43
f445
0f1a
f62a
02a0
f05b
f7f1
fa2c
faac
0507
fd6d
faad
03ca
f2d0
f5be
0a84
0e3d
fec0
f730
f04d
0c76
0e38
0e4d
f65b
f977
f622
ff9f
f263
f5d0
074b
fb5c
ff6f
0c01
0da8
089d
0279
07e8
0e0e
f22f
f0b6
fbee
099c
0003
f116
09ff
00ff
fcb6
0202
fe44
02e2
f4fc
f01a
fa05
f12f
01c8
0017
f190
fa91
0c69
0cb0
f369
0da8
0e62
ff17
f99f
fb54
017e
f5fd
087f
f2e6
0c76
fb0e
fa51
f3aa
0dd9
fca0
0ee9
fcce
fd40
0e77
f2c7
f189
023d
050b
0ba9
ffa7
f52b
f089
088f
0935
000e
069a
020a
0c26
08fc
f018
02f5
f53f
0d42
0d17
0ee7
0feb
fd4d
077f
fcee
0eec
0fa3
f351
f647
fa4f
f8d0
0280
f0df
f51a
08db
ff65
0d22
0c88
fa59
05f0
06e1
09cd
f231
0835
fd82
f97e
f85e
f08e
0f39
0c2f
f482
fd49
f4d0
09cd
093e
fdd6
f3ee
0f73
0db2
f4d7
f58f
0bf4
0490
fda7
0c81
f60a
0a9e
04fb
f2ba
0f9a
034c
fd53
f6a6
f247
0275
0b44
fcb4
0446
0c8e
f078
034b
0ea8
faa7
fd87
fb0e
0742
08b2
fd69
f324
f94e
f55e
0f2d
f614
0326
02b4
02c0
09c8
0737
0b29
0bb2
f1c2
0d32
fb1d
0f9f
0802
07d6
059c
07e5
f10d
f4d0
0a13
fb4e
0d20
0c4d
0250
fd8d
01b5
0180
0ada
0317
f8d7
fe51
0f58
f3e6
f32f
f316
f91c
fddd
fc56
0fca
0e8b
efe9
fd94
04fa
0768
fc54
fdc1
03a9
0032
f99a
fa36
06d7
f2d5
0d2e
030d
f596
0b2a
0317
f2ed
fa71
fd44
0ee6
02dd
fd39
f259
04da
f9c4
038f
f726
f6ef
0a8a
fed0
0afc
fa2f
078d
f9c1
07b2
0190
0f0f
fe0f
fef1
0f94
f646
fe3d
fbb7
0a8a
f0c6
f1f2
f7a8
013c
01ac
0181
f562
0555
0bec
fdae
fb50
0318
ff3a
019d
f2fc
f523
09c8
01d6
f70d
ffd5
f4d3
0246
fc72
febc
f0bc
0219
ff2b
f09b
faae
0767
f096
fe82
f153
024b
ff3a
f96e
0a8c
f53e
0fdf
06b4
fb19
021e
056f
0c5e
0426
0fbb
f472
0d55
0508
0e44
fee3
f39c
ff64
f90a
f180
ff5c
0853
f625
0cff
0688
f49e
0cfe
0fef
0110
05c8
0022
09d5
0b9b
f9f3
059a
ff6f
f7c9
f323
efac
042b
f8a0
f4c4
0e1e
0b74
09c6
fd29
07d2
ffd1
f717
f2d9
0343
faf4
01d0
0eac
0be1
071d
faee
091d
0793
06f1
0239
f745
ff13
03bd
f000
061b
05d3
0489
0ac2
041c
00bb
085b
074f
092b
0eac
f779
f0cd
04c5
0240
fa7c
f28e
0738
f747
0cee
065b
f93c
f49f
f8f7
049a
0b44
f571
0e73
ffd5
fbdc
0d97
f64c
0dfb
fdd1
0432
0e42
fee3
f5fe
06de
0902
0650
0484
eff8
0185
fae4
0a48
0606
f59a
0402
fdd8
f173
fb98
0418
01a7
fd95
f6d0
f366
f327
05a3
f24a
09dc
fdcc
02b7
0b76
f51a
012f
fdb6
0a1a
fc06
f920
01e1
fd4b
f55c
0e1f
f55e
f573
f63e
f0c9
02f6
f2c9
0523
fe0c
fb75
037b
03b5
f323
f4a4
f6b5
013d
033f
0d07
fc66
fcb2
05b9
067c
f6f8
f3e1
0174
0f60
06eb
0060
0df9
0935
f4e7
f0fc
f4e6
0de9
0899
f347
0278
0e8a
fc4c
fa63
f9f6
0142
0d9b
faba
0d9e
f6d0
07f3
fb8a
0a58
fdbf
f533
fb1b
f37d
f752
fb94
fd0d
f043
02d7
0f26
0075
f893
0759
fe7b
f3db
ffe2
0382
0cae
fd86
0a6c
f310
f83d
0d5f
fbf2
f1e9
0c14
0568
0cf3
0036
fdec
0469
09e1
0608
f4e4
0550
f244
f37a
0288
06c2
0659
f5d2
0b15
fbc1
0d39
025d
0c0f
071c
05d9
0f10
0290
0dc1
0ab7
0216
fc3e
f0f5
f197
0e28
f87d
ff60
f3a4
0733
f83a
0e87
0e4e
0855
f792
f53d
f299
f3ae
f211
f82c
fc7c
092f
f119
fec5
08bd
f2f2
fdbc
f08f
fac0
f204
fec2
ef45
04f8
0a85
f892
fae0
fb70
fe57
f5a2
f6fb
03f2
0f11
fe28
091e
025e
f5df
0b42
fc45
f729
0e8e
fdc7
fb0c
0e45
02f4
fc5a
0f96
f6a3
0b7d
ff5c
05b3
fe64
07eb
f461
f6f6
0c46
077d
f1de
fb81
f10d
f69f
f484
0ef4
f989
fa65
0506
f4b1
f905
fa2c
01f5
f741
0707
01df
03a2
f4aa
0900
f6bd
0d2e
0b46
0052
f621
f1c6
04e0
f07a
fbb0
f425
ff50
063d
0b3e
f596
061d
0bd3
f886
081d
01bf
fb4d
00bc
f860
0118
f619
f959
0eab
0479
fbe1
fb90
061c
0bbe
0d0b
f878
f26e
f9e8
0ecf
fd40
f1ce
f097
f4bb
0df9
0b98
f3a7
fae2
02a1
f539
fa4c
f5c4
0411
01a1
f881
0d5e
078a
fdca
f1ce
0db2
094f
fdd3
f1cd
0639
fd58
0361
0da8
fd6c
0e5a
fab9
0e4f
fb1f
f4f7
ff8f
f14b
f255
f5dd
f9e7
0682
06f5
f7f7
0793
0c76
062d
f8d2
fb85
f12b
066a
0efa
f0d2
05bf
f840
06bf
f253
f96f
f58d
efe1
fc5b
09c8
0816
f5f1
f14c
05f8
0de6
0ec3
fb05
f31e
f8cf
f4bd
f63a
0eed
fbd2
f64d
fdd5
0568
0a54
f5b4
f8a5
f008
0cd0
fd98
fa45
fdee
f057
f8b3
0895
fa0a
07ee
0a6c
0c14
0121
0842
fbc9
f7cf
04b8
06d9
f95a
f9f8
f581
04e8
f7af
09b9
0671
00e3
f695
0fd2
f071
fcc8
0768
f06a
f7d7
0c17
f4c5
0c45
0794
f852
f776
0a64
0741
0f75
f488
f604
f677
fdef
fabc
fdf0
0305
f01f
08ce
0ce4
fd47
f705
f21d
f8a8
ff94
09a4
f259
0f64
0ab6
f822
fad2
f7d6
07bb
078c
f44e
0015
f69f
fffe
0cbd
f1a4
f4df
0914
0551
0419
f4f9
fab0
0f8f
09d5
0b5a
0d75
022c
f7f4
04fe
f77a
f046
fe14
09ed
f2bf
0990
f619
05dd
fd1f
fe15
f972
f084
061d
0fa1
ff0b
0cb3
f859
030b
0eb0
fd87
f07a
01c7
fd8f
01b7
0893
fa3e
0848
01f3
0485
ff9a
0750
0128
0383
0b6c
ef7a
0e13
fc9e
f5ad
0e01
fe60
0b7b
f9b2
f2fc
05d7
fb9d
0de9
0e0b
0c72
00be
019c
0404
f66e
08cd
0159
09b5
f13b
0192
013b
fc50
fdc7
0725
fd0a
f7ee
0471
02b1
fb46
098f
f476
08c3
08f7
0d54
f952
f9a3
efab
f6c0
fc61
0549
f056
0a14
0e72
046f
fea9
0ab8
f7fb
0316
0ac2
ef8b
f372
0831
0b60
fcfb
0bb4
f02d
0ab5
0f81
ffc2
f27d
f96b
086b
f7d0
04e9
0ea1
0c77
fbdc
fe04
05d7
0128
0a3d
f8c2
ff42
f795
09e0
ff05
0cde
06df
f9a0
097e
fea3
fb22
0263
f3d4
06cf
f4f9
0019
0a30
fbff
fad7
fdef
f6a9
08d7
fa65
f5a3
02cf
06b1
f5c3
0b4f
f599
0c9e
0ab5
0080
0be9
fd5a
f74b
f885
ffd9
0610
031d
02f0
0e41
0b18
fbbc
fa83
f48d
f766
0df0
f80c
f0f3
f11a
026f
070f
0dfe
0c6c
0619
05b6
f269
ff9c
f0fe
fb0a
0d7e
05ea
f76b
f290
f5db
fcb0
06c5
ff0c
0731
03be
0e6c
0d9a
00df
fbee
033d
f2b0
0c0d
063b
0171
0cae
f2c6
fa90
0761
0134
01d6
ff94
f068
0222
0eb4
f565
07f0
008f
f85f
06ed
04d9
f6fc
f8dd
fbbc
03e9
0a7e
f651
ff63
f6e7
f6f1
f873
0c66
06ed
fcba
0058
0ce9
f6cd
ffc9
f898
f9db
0ae0
ff62
070f
055f
f99e
0da0
fa50
0a70
fca8
f9ce
f404
051e
fe0b
f83c
004b
0b8a
0d6f
fe2a
f4e7
0afb
068a
0b1d
f0e4
0568
f0e6
fce0
f32b
0395
0469
fed5
0b4a
f4ca
f2d3
0116
008f
f27e
ff09
f73c
0c28
f398
0491
f40c
fef7
0425
0cd6
0fb2
05ec
f800
0414
00c2
0a17
0f43
fbf3
09c5
ffc5
f76f
0228
01fd
fdde
0a48
0b5f
ffb1
09e4
ff7e
0527
f27b
fe2b
0f5e
0e8d
031a
0ac3
0fc7
082b
f631
075e
f7da
054f
0e00
f873
fd70
05c7
f2b1
062d
faed
01b1
fc8a
ff07
01d5
00b0
f89c
f958
efe7
fe51
0b06
0573
f225
0a4c
f948
09cb
02d5
0adf
ff8d
0c59
051b
0ab6
feff
f81d
f66d
0927
f77d
fa9c
064f
0ef7
04dc
079d
f166
f74d
f732
f0d5
0893
09d1
f630
0dce
0572
f198
0806
0425
f0dd
0975
f089
fe69
ff63
f2b4
0604
fa07
0a71
03b8
f36d
0390
0049
0dba
fd60
ff4e
07c1
0fa0
fdaa
ffe8
fe36
f280
00ff
f080
ffe7
f243
f3cf
fae0
0ae0
fedf
f41f
feb6
0dd1
0b15
0a38
fab6
04a9
0885
f95e
f153
fee2
0d5c
fffe
f038
f006
f102
0b37
fb34
0d7f
0f1c
0f3b
0872
f9e5
0284
fb97
01ca
f01d
f19b
fc0d
fa61
f4bb
06a1
06a9
ff9a
fb28
0719
067d
0b43
0e96
f357
0ecc
f07e
08e0
f80b
0be5
f9ff
f140
f8ad
f1d8
0185
05fb
0757
f4ee
fe68
f32d
f4f0
0cd0
024d
f477
0b89
f29c
f33a
fcc7
0423
f839
f733
f342
0f5f
06db
0cc7
f04e
046b
003d
04e0
0622
0a9e
f912
f5b4
f35d
0c78
efea
0209
06c8
0df2
f9a5
03eb
0a9a
fae9
efda
0c00
f49f
fbdb
f2db
0721
f920
fd48
0537
f3c9
0bed
f099
0c38
0e41
03c4
0bb8
f529
09fe
0977
f3af
0920
0db3
f6df
fef5
f822
07f7
f087
0e5b
04d2
0699
f355
0059
f2c2
0659
0924
f4e3
017e
fa59
07ac
f2c5
fc56
0526
0759
f1f6
f2cf
02e3
f16f
fb28
0e15
0e43
ff72
fe28
0deb
0011
f93f
f13e
004c
f654
f885
09c3
f1f9
0ab5
0b15
f8b7
f433
f368
0855
07e5
0184
00bc
fc79
f5b0
0bf4
f1b7
fba4
0685
f5af
0839
ff39
f27c
03f1
f53c
06ec
05bf
0879
091d
fdbe
fc52
fc38
fb91
f907
0261
f128
09a4
f558
0e58
0802
fddc
f945
fc3a
070d
0a31
f408
f58b
f57a
f066
054c
022d
fb27
f2a7
f41f
06fc
faca
0355
f818
0e5f
0f38
fbcc
0ce6
f33d
0cda
f87d
f83a
0361
093e
f561
f849
f820
0c41
012f
08f0
efe7
fd39
0140
f6b4
018d
f14d
f97e
f53f
f58b
f14f
07ce
fbcc
0e5e
0774
02d9
fbbe
0a6c
ffd9
f503
ffdf
0cfa
fe20
04ca
fc67
07a8
f40b
f822
f9f9
f828
0258
049a
0d06
f5a8
0852
f865
f626
f9f0
feeb
fa1a
f3ef
0455
fdc3
01a1
0dea
01b3
0be9
008f
fc76
035c
fd88
fe3f
efe3
f29b
08ef
efff
055a
ffd3
0d22
f557
055c
f03e
f490
0900
f99d
006d
0e6b
0a93
0f0c
025c
0e9e
fe38
0f31
fbe6
fbb8
f3e3
f3fe
f354
0688
079e
013f
0e85
0792
f6a4
0c17
02d0
f03b
fb5e
0443
02e8
0173
09f9
fca6
f3c2
f442
fe47
fe7c
fd3f
0884
f862
f978
0c5f
fe6f
0b56
f749
f7f6
03e6
093e
fa26
ffe8
042f
0e09
fb9c
0861
fbcc
fc40
fd44
0c8f
0396
03fb
08c7
0d54
ff8b
0525
f369
0596
f189
0d6c
01f1
093d
fed8
f2a0
0a6c
0210
f9bf
039b
0b25
024c
f0c5
fd3e
05f2
faf3
023d
f3ac
fb82
0620
fb9c
0e1b
0b03
f0d8
011b
f478
f449
0f21
ff94
f804
0e30
0e4a
028b
f8c1
0d2d
f3c7
f55b
fb22
fd00
0af4
00c9
07dc
0a29
0dcb
f16f
04cc
0ceb
0fad
0888
0248
001b
f841
0069
0083
f13b
0b50
f976
f69d
f072
f6d5
fa5c
0535
0355
f7a4
043b
f9c9
03d7
046d
011e
efec
ffd9
0441
027f
0ecd
fa1a
046a
08ad
fcd5
ffec
023c
f746
f085
f7d2
05ab
f467
efbe
0a3b
083e
001d
099a
0207
f12c
f2fe
f5c8
f9e0
080f
0ce9
0dd2
f52b
0df2
f97f
f154
f88d
0e94
f5c8
07aa
f7ac
ff00
f2bc
06ed
0d86
0056
f0d1
f1b5
064c
0d51
02f0
00c9
04dc
fc7d
ffdd
0054
fac1
fcc3
01fb
f32c
fb58
f2f4
f5cf
096e
05aa
fa98
fcef
f9ce
fc1d
0a60
f7d4
fbdf
07ce
f092
0003
f593
fe9a
0901
fae0
0a71
0255
fa00
f51c
0dca
fd5a
0cb7
fd52
f29c
f186
0434
f343
0485
fe14
f2d1
f535
f207
f2c5
00cb
f81d
05b6
0cf2
fa6f
f416
fbdd
08fa
f8b6
0b4c
06fa
f8cd
01bb
01ad
0ca8
fedc
fdb1
0af6
019f
f79d
fe5f
07ab
0854
08e5
09eb
f5d9
f75c
feec
f39f
0bd9
f09b
f9e5
07f0
022f
0eeb
0baa
06b6
f45f
fccd
fa0c
f7d0
f573
0ad5
f849
f17d
06dc
f657
0acb
0fd2
f4ea
0ee6
0660
05a4
04bb
0c79
0154
f0a5
fee2
00a3
f230
0076
ffa3
f483
03dd
f9b8
fa43
f89d
f53b
0863
fe4f
f8e0
f78d
0e4c
0ceb
0d30
0846
0ccf
0dab
f229
034d
07e4
f7dc
03a6
fd47
00fc
fef7
0e24
05ee
0b9f
06db
f8ff
f8a3
fa61
f040
fe4d
ff1d
fa14
0f9f
005d
0b14
0c83
f8b9
f7e8
fd47
f1ef
031c
f229
f020
00cd
020d
f966
027b
0f99
f77d
0017
fb78
0569
069b
0729
fe2c
fe09
fd38
03bd
fccc
062f
08af
f582
fd1d
f5f8
f31a
fccd
f804
0ddf
0d89
fc5b
f7a7
f229
0a82
04fb
0469
f933
06b5
f2fc
ffec
03aa
0d3f
eff0
f44f
0350
f568
fbac
094c
0e04
f03a
01e1
0795
0bf4
0c58
fc77
f669
02a8
0dfd
f118
f7c0
01f7
f65d
0a91
fe59
fc09
026c
0f38
f27a
07cd
f416
06f1
0d0f
f04c
f7b3
0c9f
f317
fa08
f870
0988
0387
f279
ff53
0a1d
fdf2
fd7e
f212
f562
05a3
0d86
fea0
0172
0098
0821
0963
f6fc
f8f6
0783
f239
ff40
0a44
0061
fa3b
f03c
0d9c
f954
f50e
09b3
078c
f458
0874
05fa
fdf1
0f45
f96a
0454
fe06
fae9
07a8
fdcd
fce9
04af
06b9
0292
f5b6
faf5
0325
f37f
0502
0fbb
f3a8
075d
f449
02b8
f13e
f8e8
021e
0bef
0595
0dfc
f20f
0496
078f
0646
f095
fd25
f11d
0070
f109
035a
fc5e
0552
fa68
fcfc
080e
f4b9
f9d9
f1a5
f8b3
f8a4
faef
021a
0a53
f24c
f5f5
0274
05bd
f02c
f7c6
018e
0019
fe31
f047
fd89
0e3f
0144
f660
fb8f
0543
fc25
0c0d
f7d8
0cc7
0327
f2ef
f49d
0c3d
f240
08ee
f9c7
0647
fe82
f735
fe3c
0839
0b70
fe95
f12c
0997
f7bc
0230
ff3b
0c84
0a17
04ed
0142
f875
ff7c
004b
f95a
f628
0d7e
f0d3
fad7
0f7b
f64a
0b5e
0567
f048
0663
f9ec
f025
04a4
f844
f8f0
040a
0e0c
07f4
f202
0270
f1c7
0967
06c3
f3f0
f25d
f97f
0daa
f176
0597
fd2d
fc9c
05a6
0392
f999
0140
f3a7
f9c3
0aff
04a7
fd65
f03c
0954
0356
0483
026c
f1d4
0d65
f038
0169
09b9
f0bb
05f3
f54f
02fb
fbda
f3b6
0b10
0c15
f822
f6ee
fa7f
f3f4
f3a0
0a0f
fc59
fe9b
0e90
f979
f0ed
f87a
f8c0
f465
0e62
080a
0859
072e
0c45
09e9
0490
0fb2
028b
f464
f8cb
001e
02bf
f578
fd26
f2e3
f64c
fc3c
031a
f412
0f01
036d
0d0a
0328
05f2
f032
f8bd
0228
05a8
0bbc
f4dd
fc76
f12d
f1ba
fef6
f5c5
0e19
08df
0045
0863
0ce3
fdde
f16e
07b1
0e33
0d6a
0e5f
f26e
09a5
fdbe
f466
fbbe
fbbd
fd25
04c4
fca6
fd2d
f6c0
fcb7
f97f
f767
f43c
0b11
fd3c
f51b
045d
0c1e
0c71
ff69
f5c3
00a3
06a2
faba
ffc6
f6c3
0405
0b99
07d0
f5dd
0037
fc9b
0acf
f831
ffe6
0530
f14c
fa8a
0107
f94d
f2f5
f949
037e
0c22
07e6
ffa5
066f
f2d9
09a3
0570
0b51
06ab
f184
fe8e
01f0
0c5a
07eb
00e4
ff00
0bcb
f132
f699
fe98
0518
0880
fe63
f5f1
f8e0
fdeb
f374
f0be
0c83
098f
0950
f59d
f3bf
0ec3
f791
0a34
f63d
fb37
f74d
f213
0aa9
088d
fe59
03ca
f6d8
01d4
f48c
f695
05b0
03bc
0fd9
074e
fa41
fce8
08ea
fb0a
fdd5
fbe6
f2a9
f505
fc24
f9a4
0c57
fa80
02d5
f192
f6ce
0c59
f06d
065d
0420
0b1e
0d40
0fe6
0f44
f12b
f7a5
0a12
f38c
0825
fc57
0fdc
f818
0446
0f9c
0131
fe53
fe98
f9b7
f1a3
0de1
f3ac
02f9
0dfd
fcdf
f8f9
0cbd
0d01
fccb
f093
f5b8
0c9d
052e
f997
0a85
00d9
0ddf
0a76
f23a
077a
095e
09a0
02f3
01bc
00cc
f3a0
04b3
07f3
05de
0300
f803
ff29
fef7
f20f
f763
029f
f06e
019b
fdc3
0610
0f2b
f37e
029c
0be6
00d1
fb63
0c25
fe14
0fe7
072f
fd9b
01a3
fb26
f227
0eac
09a3
0d42
0d6a
0c3a
f56d
06f9
f515
0e52
08e2
f085
f8f0
008e
082c
fa62
fb59
043d
0def
f985
0de3
f72a
f30e
f861
f656
0cae
01ef
0201
f211
08e7
01bd
0653
fbb0
0c7c
faef
f840
f360
fcbe
007c
f3d5
f6ef
fde4
f5df
0f13
0204
0d97
f5ef
0f20
fb32
0767
0080
05a5
f907
064f
074b
095e
f2fc
f138
089c
0b1f
f7f9
f3b5
0501
f2eb
062a
0435
012f
f857
04e9
00eb
045c
fda8
f7f3
0325
0cd8
0475
0e61
fbd0
0b42
0759
f4b8
04c7
0226
fe05
fb3c
0e5d
05e4
06bc
0f75
03ed
0fd0
fc74
079e
f3ff
0f0a
06d2
f028
f8c7
f524
fa4d
fd8c
f9e2
020d
f2a8
f328
044e
f5ad
0069
f9fe
04f5
f3c6
0ad7
f0db
03f4
0af1
04e4
033b
fd2c
f333
0aba
08a1
faa4
f229
fbce
f12d
066a
f43a
0eb0
0e52
0203
f2c7
f441
025d
fda2
f0fd
fb0f
fdad
0ff3
0b1b
0efc
0a79
f65e
0a21
ff1a
f89c
04c7
ff78
06d9
08f5
f544
07cd
0791
f023
0399
f2dc
f7e6
0754
0ede
0b0d
f4e6
ffc7
f8e4
033d
0f29
015d
0f2a
0ad3
0fc9
f39f
086a
0b90
f6cc
f1d9
f537
019f
f99a
f2d6
058e
fe71
f432
f27f
f89e
05d6
f3ad
09e2
043f
fe3f
02cb
03b3
0911
0cc7
fd79
ff2e
f235
0ee4
0a67
f426
0ba7
f2a3
f664
f3af
faa4
f874
07f3
fd76
09bd
f996
f027
0ba6
0fc4
f60e
0ed7
f728
0769
f94c
0273
0d6c
0eeb
0253
06b0
f9c4
04cc
f506
f785
0efa
0b28
f448
0b94
f58d
0e3e
0abb
09d0
01e4
fe8a
fe13
fc11
f2b2
fa2f
039f
fe5d
0f2e
f59c
fbbd
030e
f532
088d
021c
09c7
06fd
023e
f01c
fa26
0b55
fd86
09e4
fac7
0576
f053
08ee
065b
004a
f8ec
f921
03af
fe08
f254
0dda
fb0e
02d3
f9a5
f385
f2b9
f83e
fad3
f7da
0f37
fd8e
f500
022c
fe66
030c
fd44
038e
fa90
067f
f80d
fd34
f343
0f35
0659
0a37
feeb
03b3
f707
0e6e
00ee
f322
fe7f
0f09
f175
f86a
0ff5
f46e
0c6e
fb5d
0650
0fff
019b
0ebd
f7e6
0193
03e7
f3f1
f789
fc49
f2da
06d8
0fc6
0c91
fb2d
fc88
f6d0
f844
0c77
f380
fb74
fd1c
01b6
f3e1
fc28
029a
f242
fc3d
fc49
05de
f3e7
0416
03da
02f1
0bb6
fef4
0ebf
0466
0b3b
f1d5
f882
fe0f
ff92
f552
05dc
f3a1
0e80
fb16
f91f
f179
f9b0
06f0
0664
09c9
f573
fa0a
f2a7
0e8f
07bb
f259
0c36
f2a4
f06b
00e4
ff4b
fafd
0595
fc8c
09b7
f419
024e
06c2
f015
f87a
f72d
f575
0e91
fbde
0bb5
fe81
02c1
fc47
06e9
058b
04ee
0ca1
0ed6
08a7
0029
0ea1
033b
0fb8
03dc
f489
057f
f90c
0269
f916
ff08
0140
fcbd
f26c
09d6
f809
0336
0ef7
0399
fb67
0999
0f06
07b8
f5c3
04e9
f477
fcd6
f4a2
f1ef
07a5
0767
073f
f371
f84a
f196
fa86
f8ec
08ef
f64e
f39e
f1b5
f12f
0f8a
fe13
f3ee
05a3
fbd6
0bcb
02f0
f4f3
ffd2
f9a9
fe54
06ba
006b
f285
f3c8
035f
0db2
f855
f9e7
fd8d
f491
0988
fb28
0d74
ffde
f9bf
f2f6
f3e5
0ead
fbaa
f490
fe3e
0384
fdd3
0b7f
faa9
0175
f830
f82b
ffce
0dfc
0b19
06f1
05d6
f2a9
fd00
0812
f956
029b
f1f5
fd7a
0856
0bfa
fc2d
0076
fe43
0695
f203
f544
f4ff
01ee
02ff
09f1
09f8
0b56
f5e8
f175
09c1
024d
fc8b
09ac
fd8d
ffd6
f50f
f420
f07f
f21c
023d
f125
f0e4
f700
04ad
038e
0fc8
0709
03de
fd96
0628
0ea2
fff7
0e19
f9f4
f584
fc3c
fbfc
f2a5
0839
0ad7
015e
fff7
0612
07e9
fdd8
0e0b
faa3
f47b
0fae
02bf
0336
ff58
f7d2
0cb6
fb58
0106
fdd4
f3ad
f2b0
fe36
05ac
fc02
0e9f
01fe
f3c5
f3db
f3b3
fad7
fa78
0ede
faa8
fc4e
fd69
f143
fc5d
f65f
f9fe
f65a
ff51
fe5b
0f48
fab3
02ec
0786
f703
fe0d
fb24
f80a
0cc2
f39e
0799
05f1
07ed
f3f0
0bb5
01ea
0ca3
0105
0f99
f0ed
0cbb
ff04
f1ef
f8ac
00ad
05f6
0ae7
0dbd
f848
0b89
03b5
098b
0599
f7ab
0f8d
f059
f662
0a50
0d98
f29e
f9b4
fc3c
f74e
002b
0ddb
08b0
01ca
fe0f
f751
0191
febe
0841
09ae
0527
0685
f267
f875
08f5
f047
f9db
06de
f321
f616
fef2
fc52
f2b6
f2f6
0e61
04fe
f2fb
078f
f81c
f36d
054e
fc41
f2da
074b
f530
f911
fbe4
fa44
fc2c
f988
fc78
017c
0edb
0e8f
0178
0d5c
f00f
047b
f78b
fd44
0cda
fb15
0ffa
0c21
0cf7
0c15
0002
fa38
fc2a
00a0
0343
f29d
00b4
fa93
f6a8
01df
f09e
0623
f37a
090e
071c
f2fd
f453
018b
0d23
02bf
03dc
f3bf
f241
03cc
099e
0bb6
ffb2
fb09
0e20
f2b2
f597
0411
fba6
f90e
08f3
0653
0143
07fa
0e1b
fb4a
fb9b
0e86
f006
f4cd
08cc
050c
0e92
0376
f437
0a1a
feae
0870
0bd9
f469
fa4e
f2c7
0504
f949
f242
01d0
f328
f1aa
ff51
0c9a
0346
f017
09d4
07c3
f304
0aff
099d
0d43
f51c
07d9
03fd
f779
05e4
f0e3
0066
0a44
0849
081d
0fb9
0932
03f6
0192
080c
fa07
0f29
04fd
f010
0ece
032f
05c6
fbe4
f6f1
0938
fd07
fc40
f7a2
f5ab
f8a3
f577
f033
0f04
0ede
ff48
0844
022d
f91d
037e
0114
f53b
f334
f938
f1de
f936
fa25
0379
0278
f727
0998
ff64
0c91
0811
f911
0b0c
0616
f8b2
f6dc
f828
fb95
fdf6
f0e4
f9b5
fa93
0071
05ab
069c
f794
fb1c
089b
000f
fded
0863
04df
f9bd
f246
0f49
f979
fd21
0dda
09bd
0ac4
0f85
f865
06e1
0ce6
fe91
04ca
fcca
0d84
f4d5
0f67
f5a3
0176
021a
074d
f6ca
08a9
0aab
0ee4
0955
ffaa
f7a8
06da
f7d1
f1c8
0c99
fb72
06e8
fcf2
fcaf
0e7f
efee
00ae
f1ba
fa60
f6f6
010e
fcb1
f8d2
0836
05c6
0ea8
f91a
ffd1
08fa
0dd8
025e
fd7f
fb56
f666
f4a6
0f76
0d43
f43b
f068
07a4
efc0
fbbc
f39f
00ca
f7a7
f4fe
0151
f77a
0253
f016
069e
08a6
f367
f3ac
f767
fd39
04de
f73c
0c5d
0b4f
fa45
f11d
feb7
016d
f1d6
f499
f46f
07c7
f128
f4dd
0b68
f3cd
f7d9
0952
085c
0a9c
0b7b
0f8f
06c9
0c5a
f138
05df
0a17
ffe0
02b6
0215
ffc2
f682
04af
f98d
f50f
f2b0
ffa8
f14d
07e9
0333
f342
ff22
08cb
0f60
f1f6
0497
fb86
f7fc
fad3
0609
0f5a
f9b1
066e
0768
0d91
0978
f1e1
05f4
093e
f724
f598
fcdc
0ee9
05f2
0101
f503
0e4c
0a7c
fa74
f9b4
fcb9
031d
0c47
0f5e
0723
fc45
f175
02b6
090d
fa1a
0277
f72b
0a37
fa2f
00c6
f0cc
0b86
0019
f4da
0a74
00e3
02f2
f128
f297
f043
0ad1
05cd
f3ee
fbd3
0b39
fa24
f995
0098
0f19
f281
f8fb
0709
f2f1
0bfc
0373
0802
0ac5
0acf
076d
fe60
0b2f
0b00
f0e2
f0d1
f00b
0d54
f312
0d4e
f065
0398
f73f
f2d5
f026
0aea
0c4f
0e68
09d9
00d2
0b5b
f835
fe53
0d96
f620
0817
fa56
fa4b
0747
ff2e
0eb4
f184
0983
f706
0b88
f88d
0dfd
f28f
0a65
0f99
ffd3
08fb
0f89
0896
0bd5
f76c
0af6
0138
0fd0
f4fa
f78e
04ec
f17e
f617
0bb6
fb31
f298
0434
f2c5
04a5
f8d7
fb9f
067f
f7be
f91e
0231
0636
f572
0a1b
f6d8
0005
0a99
010a
f6e9
f85e
f834
0cef
0647
0704
0106
0aa0
098b
fc45
fa70
f4da
f5a2
fe2d
077b
f526
f85a
f7b4
0280
f6c6
fc09
013a
fdd2
04e6
fbc8
ff92
fada
0d11
0b21
0837
04c9
0536
067c
07ad
f6d2
06f1
f703
f0d6
0581
efb9
fd80
f246
ff53
ff1a
07fd
0dde
fb25
f07b
f0dc
0238
ff07
00d0
0250
030e
0551
0eaa
f95c
ff05
0900
ff68
0f13
f40b
fdd1
0084
005c
07a3
0da2
f7df
0913
009e
007a
fbb7
f514
0323
09d0
f0d7
09ef
f7f6
0ef6
f16d
f004
08c5
0dc4
fac9
019f
0353
f11c
f104
01bd
f20b
0747
fdc2
f161
fcba
f821
070d
02e7
f0c6
f548
0e23
feb7
093d
f339
f213
f76c
0783
f27b
f51a
f00f
fcea
0c86
f5b2
09c8
f0e8
0e63
f428
0ea7
0ecb
f68c
fd70
f354
0799
f7e0
066a
ff7a
0b5b
f8b6
f662
fc78
f814
02d0
f4e2
fcf7
0ace
fc9d
0040
0cd3
052c
0979
f430
0a00
f5fc
f51a
ffc7
fac6
0ade
fa6a
f6f5
fd01
f937
0e20
feb5
0fd1
0ae9
088f
0b95
f90f
0034
0c0d
f7bd
fb2c
09c1
fb08
0059
08b3
024a
0823
0cf1
034e
0363
f4a4
081c
0888
fdc8
06b1
f53a
0528
0485
0e13
fd85
fb94
02f8
fd44
faf1
04c5
f26d
0526
f372
fb2c
f7e9
f099
051d
f7df
ff60
fc8e
f34c
f49e
0fb9
0913
0dc6
0a79
f746
f237
0a4b
f6b1
f5ee
0341
0662
094a
0b92
0641
0aae
f5fc
fc21
f579
03bd
0b93
082b
0464
f326
09ee
01bd
fff7
0bf9
0c98
f371
ff65
0ec1
03ba
0077
08cd
0c8d
f679
0c81
0a69
0653
0bda
010e
08c3
f914
0e99
efcb
fb8d
01eb
0e9a
085a
0009
01c9
0df3
049e
0f9e
fd10
f90c
0f20
040c
f3f0
f2d8
f139
035a
0ce0
0673
0574
0684
0488
f93c
068f
0777
fd38
f96f
f89d
f163
f052
0c31
f590
fe4e
f4e4
0af8
01bd
09a8
073a
08ab
f8d0
00df
0e9d
0b28
079f
029c
0a5b
0d6b
f0a3
0e87
024d
f9c5
0b34
fe3c
09da
fc64
fcb9
09c1
028b
f884
065b
f233
0745
0533
09b9
04f5
01a6
0c4a
f9e5
0131
f51b
fad4
0140
074e
fec9
0e57
f428
0c17
f357
0686
0213
f991
f6bf
fec3
0931
0c69
ff4c
0b9d
fb9a
f58f
fe68
f74e
044f
ff6a
f062
fccc
033c
0672
fdcf
04c9
0930
0960
0bdb
08f6
f6ee
fcf1
fb12
fe6b
0090
0395
0de1
f183
0b2c
00f0
0030
01ce
084f
faf4
fe8f
fd28
0511
0e94
feab
0d0a
f20c
0127
fe2d
fa49
f491
f928
0990
f6b6
f69a
0c38
fb4c
0361
fabd
fb74
f2a1
f80d
0a2d
fa4a
fc35
0b8a
0b31
f151
f9ea
ff37
027d
fb49
008f
0ef5
0014
f324
fafb
00ae
0046
f2c2
0d1b
0b3a
0ce8
0511
0f9f
053b
fd2b
fe2a
f8b1
05c2
f03c
0912
fe82
0fb2
030f
fab9
f1fb
fb33
fd1d
09c4
f770
f7f3
0d52
0021
0e3b
f1da
fd31
f0b3
f442
f0b5
067d
f3ff
f59c
fbf4
fefd
fdcb
f8e1
0ccd
0186
fd55
f866
f565
f33e
fe4a
0b2d
0f11
feef
0737
0e88
f402
fd51
fcf9
00dd
0ac5
0ee6
f63c
0072
f10f
0c79
0f5b
fc48
fb24
0c21
fa8f
06e5
f068
0e5e
0b86
f46e
fd77
f854
0270
05bc
f657
fa51
f1e4
f69b
f907
f0cb
0bf4
008e
f526
063c
f443
f6ba
f453
f1c4
fd7c
0396
0642
f8ff
fa60
0116
f9a6
0e3e
0792
fdd7
0215
043d
f0e7
f702
f8d8
fa61
084f
09d6
fe77
f0eb
0b10
fe2d
fcda
f5ce
f822
f5bf
fb37
0706
0259
f6c3
02d7
f32a
f515
0ea8
0aff
fe7e
fa1e
0084
0dcc
0f98
ff5a
0a13
0855
0d19
034b
0606
fe27
f540
f598
f0ba
08b0
f6f5
f13c
0ec2
fd9d
0b79
0ef3
0183
fe38
018e
0495
f9fe
fbad
09c5
fdab
fec2
f6bd
fadb
0533
f701
0d6f
06a4
f178
0283
0617
00e9
f381
0435
0914
0151
0860
f481
fd6b
0773
07f1
eff5
f9f9
00a7
f080
0a71
f652
01ab
f682
f1d4
0855
fcf7
fc71
f67f
f473
efaa
0df4
f440
f333
eff9
00de
f14e
0195
f9ce
f606
fd9f
fc67
056c
fcdf
f0b5
fbf2
fee3
f8f1
fd2f
0bf3
0662
f35d
081d
0bf4
f65a
00d2
093b
04c1
fbb8
0054
09db
0657
ff65
fa44
f88c
0350
f0b8
08ef
0660
f80e
0887
fc36
f323
fdde
0315
f409
f54f
030d
f622
fabf
0360
fa26
0833
0c18
f308
0820
0b60
0549
07e3
098e
f4c0
00ba
040c
0baa
0073
0d13
fd63
0c2e
020a
030e
f96c
07b4
057c
04d0
0b69
0517
fe12
fa76
fbba
05d7
0fcf
099f
f075
f917
f16c
0caf
ffd2
0ab8
f391
04b5
09fc
09dd
fb4b
f305
fd09
f4b6
01fa
0401
facc
0490
fe3b
0d99
f03a
f13a
fb8d
fce5
0b63
0bd3
f4b8
fa46
f8d3
f06f
f02f
fdeb
f22e
fa0e
fcff
07d8
0172
02b3
0061
f6a5
f608
01b4
fe8f
f78a
012a
f3b9
fdf9
0aa6
0e93
f3ce
0c7d
015a
f937
0126
f871
0e0c
fb35
ff0e
0ca9
0358
f817
00fb
0bab
03a4
f236
070a
0ee7
f8cc
fd9f
0d14
f037
f6bc
00e4
070d
0962
08ed
0404
0d88
f887
f119
f1b2
fc3d
f1fb
0d25
0d80
f94d
0b39
0aa2
fdbf
0405
0a49
0398
f881
0298
ffb4
fe0f
f62c
097c
fa7a
07da
0a81
062c
f621
0dc2
0f6c
f34e
f394
fc3d
076e
0002
0a77
04b2
078c
046f
040f
05b3
f5ef
057b
0cfa
0ad0
f42b
fc20
023b
06e0
0372
f0c5
f981
f0ad
fb57
05e0
0246
042b
f1e1
fea5
fbf7
0a9f
0af0
fbd6
f260
fae6
ffbd
f29a
0ca4
00df
0207
fa84
fe9f
0d7f
fc42
fd02
f11f
0168
facc
07a8
f0d0
0267
0058
f37a
fa2a
f58b
0b47
0fbc
0316
09c1
f839
0282
06be
fa02
04ac
0e00
0d5d
0406
f565
07a0
0a60
f33d
0b3d
0c76
f0d4
012f
0764
fc17
047c
fe8b
089d
0939
0ae0
006a
fc27
feaf
0014
04d6
f48f
f2c0
09d4
0aa2
fef8
fb9a
0c44
07e0
0aca
02fd
0060
f76a
0595
0b36
f407
0738
ffc9
09cd
007b
f299
0bfe
f8d4
f894
f300
f8aa
046f
011f
0766
0699
ffbb
0d3e
f166
fe2b
f0b9
f1ab
f779
f72f
0626
f658
fe2d
0510
f66a
0114
000c
0450
f5a6
0c80
fc68
08ab
f652
0d44
f6d0
f942
f1ac
fce9
f1bd
f3d4
ffe3
05db
0d78
f8d9
fc47
fc97
0d1d
f937
01f2
0619
015c
0693
f2b1
f5b4
0966
fd7a
f71b
fd0e
fa79
079e
f2a9
0677
066a
0367
f70d
05f1
029d
fea0
0cf3
f8c8
fac2
0d75
f897
09fc
ef6e
fd2b
02c1
0d75
0fbb
01b6
052d
f758
0f30
0164
ff03
04b6
fc6a
080c
f33d
0811
ff0b
f776
f99f
0420
0991
f0e7
f739
0bec
f49a
f257
f67b
08ef
00ff
0187
0e44
f76d
f676
0a3f
fc53
f007
004b
0daa
fb50
0dc3
f9d5
fb80
f5bb
f796
0d28
f7fd
f530
efbd
fd8a
fcea
f7d3
06e8
0bcc
f7f9
f8ed
0c99
06e6
f81d
fafc
0140
04e8
0590
02e3
079f
0a9a
ffe3
0e24
f8a8
0ea9
030d
0aaf
f69a
0798
0406
0ac0
fb60
f27e
ff9e
fa48
0060
ffb7
f6a1
0ec7
f2ad
f1d4
08c2
0378
f7e0
fdeb
fecb
f32a
0ee9
ff8d
0783
0c15
fdb2
0c55
085a
fcd4
07fe
0efb
f42a
fc2a
f19f
fece
f789
01b2
f274
0a0f
f00e
f3ba
fc24
061e
f023
0d28
0abd
04d8
009c
f589
f22e
09fd
f351
01ec
0d2a
087d
fd64
f4c0
fc94
0845
fcbb
0141
0b3d
0d75
f4b1
fdcf
f2dd
f8f8
0581
fcc1
0660
0d6d
f1cb
fc20
f1ac
05e3
f633
0513
014b
00e1
f47d
f752
0f51
fcb0
0e3b
f679
04c3
0f17
0f25
fd65
0a62
f25b
08c4
03d7
00c9
0990
0b87
0ef3
0624
08a8
020c
0e00
0129
f594
0b9e
f812
f83e
f0e4
f7ad
f8c7
f450
f019
fdce
f628
fc65
0d9c
0564
06cd
fbee
f4f6
fd0b
0b24
0c14
04ee
0c2c
05e1
01c6
fd9b
fb42
f498
f23a
fe7e
f59c
0f5b
0b67
f6e1
0a9a
008d
02a1
fa7c
f656
f93a
fd9e
0093
0964
0e9c
fd54
ff8a
0257
0c35
fde6
09b1
02f5
0dcc
05fd
f3a3
f3ec
f3bf
0052
fb0d
0657
fc63
f99a
f9bc
f5d8
0287
f16d
0d57
0396
f2c1
0eab
0e0e
0afc
f705
061d
0267
f00e
00fd
0590
0872
ff69
09f8
04df
063f
01b7
040a
01ca
0146
f6ff
0028
fc01
057e
f47c
0b32
f334
068a
fab0
0594
0c78
0dd5
0f17
fa44
0583
0e04
0fbf
0516
f237
0310
f47d
fea3
0d65
0bc3
051a
0ee3
084c
0a84
f53d
f6ed
0178
0ad3
fa4a
f2c5
050b
0f93
0332
0349
02bb
f3c1
0def
05b7
fc76
002d
07f1
02b6
0292
0175
088e
014f
fad2
071e
04b9
f3ff
047e
0157
0834
f70c
0fb6
f493
fa06
f630
0426
f46c
f565
0572
0f81
0084
fb8d
f24d
0be0
f96b
0d4d
0280
0de5
fc56
ff8e
f454
fc84
faab
0a6d
08b2
f6b2
f6ea
f13d
f881
0dcb
f297
f91e
037c
00b0
04e2
035f
0588
f481
f8ca
0c32
f512
0a56
058f
f478
f5df
04ee
098b
0e20
068f
063f
09c9
0b62
05f1
07a0
ff56
f0f0
0742
04fd
f829
02d9
f59a
f162
f7d3
0df8
f164
0483
fd7f
f758
fa89
0a28
0cca
0dd2
f94b
0a21
f5ba
00b4
0d52
0e45
f3ac
051e
f33a
08c8
09c9
06ba
f922
f4df
f0ac
0532
efe5
f179
f656
fa86
fabc
f410
042c
0501
f1be
06d8
00d2
ff06
f891
0935
0afe
07e6
05a9
0ed7
03ce
f916
0ac2
f566
01c0
0710
0b5e
0ebc
0c43
0d77
0d53
002c
fdd4
f33a
fe96
fdb4
0beb
0803
fbb1
f1ac
0574
02eb
ffcb
0605
f822
f220
0f03
0bf0
f658
096e
f597
059a
0c02
fc97
ff86
ef59
fec4
0a41
fb74
08f2
0e8e
f938
0c70
f5a0
0696
fdd0
06e8
f68e
09e3
021b
0b92
eff0
f65c
00e9
057b
ffbb
061f
f5a2
0033
037e
f17e
f19f
0d89
01ca
fd72
074a
f98d
f159
fd5b
0591
0606
0a92
0241
096a
0867
02db
0ab5
fe2f
f844
0572
f1a2
f968
012f
f0d5
00bc
0738
f927
f726
f077
08b4
01d9
f47c
f97d
fbaa
00cf
f6cc
08d0
03b4
005d
f465
efa5
fffc
0d52
fe9f
fd5b
f88b
025b
f63b
0185
0657
fe45
fb49
ffb0
f81d
fd48
fd97
0252
0cb2
f9a7
fe20
0369
03c7
fde8
0461
f669
fc7b
fa25
0881
fb5b
fb9c
07e1
fbbb
05ef
0ea3
f77a
f1ed
fb66
f1f4
fe91
f7ab
eff9
f5bc
0d77
0d42
0c4f
0e72
f5bd
fad3
0c06
f105
0123
f0d5
0647
f493
02be
0f7a
04bb
fa21
0863
fca6
02dc
03ba
0a36
05ec
f7d8
f1ad
fbf8
016e
f7f5
ff2a
f71f
f335
f576
fee4
03ad
083a
054d
fa71
0932
f7ee
0b67
0dd9
0a64
fef6
efd0
0553
f380
fd41
f263
f344
f05f
02c6
f48d
04c9
f4eb
f132
f88c
fd73
0bc5
f634
07ee
0e63
0011
0c61
f6de
f1e8
0b87
ff3d
f512
fe5b
f0c9
0e93
fbe4
0cc5
f63f
f92a
fefb
f79c
04d4
005b
f3a9
fa2f
f00a
fac1
0b60
fc2a
f839
f78b
f997
0e91
faaf
f3f2
f8c2
f665
f671
0e50
f845
f8eb
0265
08b6
f1fe
033e
f23f
f8d3
fb84
fc70
fb3a
f2c0
fcdf
0915
f20c
0bef
0901
0ccb
0415
02c0
f217
fe2f
f9d8
f613
0a95
f445
0ca1
03eb
fcfd
0e41
0eaa
0cda
fc74
0130
eedd
f6f5
03b3
f0a9
0c65
fd0d
025f
06a6
f7a8
0b52
f96c
06d2
feaf
01a1
ff4b
f69e
f671
0c16
f803
03ab
f370
036d
fa2f
f41e
05ae
04ab
fe12
0516
0d29
04f9
fa94
0310
ff6c
0355
f224
08f7
f7c7
06b1
f037
fa18
0896
f15a
013d
f8b7
053c
f139
f26c
0da0
0410
fcc4
f0fc
062c
0474
f933
0981
048c
043c
09d5
04e8
fd32
0343
0145
f914
f810
f481
f268
04de
0f23
059b
0563
ff67
f9b9
ff24
f482
062d
f838
06b5
07be
f0f2
f88e
0a90
f348
0076
fa31
0835
fe3f
f2f3
f1e4
0f3d
f056
fc3e
f3df
0e36
0a1e
fd1b
0384
0a36
f900
06a4
fe7c
f637
0776
f291
f4f1
f6db
0993
0f71
f9b4
0f1f
efde
0764
0d6a
f464
0681
fa54
fba4
0ba1
f6a0
fcf7
f0b6
0857
ef6b
fd03
f9f4
f047
0299
0839
f14c
0800
f8bb
f76d
f23e
fbb6
0cc7
f9ea
fae1
0497
fca3
f918
fc14
0b44
00b0
092f
f665
0183
fd4a
f164
f3b6
0f05
0a72
f95b
04a6
060b
f0a1
fc27
fc61
ff48
009b
07b8
f1d8
f73b
f8ab
0423
01b0
fe63
08c2
0d68
03c3
0662
f810
0e79
f835
0e2f
f26f
f903
f40c
fc59
026a
fa4f
083a
0c9c
fe26
f053
feb7
0a06
fc39
0f0f
02d3
047e
f0e8
fd14
07aa
f28c
0d28
01ab
f556
f38b
fdc9
fd82
07ff
fefc
f0b0
0b84
0476
fa53
fc97
0d6f
f5b9
0927
0c9c
08f2
009b
f936
0e1b
0635
0801
0dd5
0623
f2ef
f73a
0da0
f20a
0d5c
068d
ff62
f3d9
0305
f060
02aa
0f4e
0297
0293
0b3d
f7bc
075b
fd76
fc62
0674
0702
f04b
f50d
09fb
fbf0
0c65
f8fb
0c66
f063
f3be
f0ed
fd65
0ee1
078c
0aa6
f02b
01e7
046e
fd15
f390
f357
f9b9
fe6a
f571
f481
0f4a
0626
fa55
f7bf
05f6
0e6d
ffb9
fef6
fdec
03dd
02e0
fa75
f833
f38c
f89a
f86d
0b29
0307
fb0c
f0d1
f784
fc47
f254
0f98
f1c6
06a2
fb51
0687
f287
f066
05fe
ef6f
f410
0544
0d67
0312
0b4f
0cae
f761
ff97
f183
f099
06f1
0637
0c6a
01d8
0c1b
fafb
f497
f998
f28c
f82f
f24a
fb6f
0761
fcca
01cd
0a56
0649
0132
f0f1
f772
f598
fe1d
0050
0233
f9ee
fcde
f27e
f5f2
0b4a
0d8c
feb6
0905
027e
fbce
0415
f283
086f
f8fa
fe0b
fcae
0120
0754
ffb0
f5aa
090c
f848
fdc3
0f90
fcd7
f9a8
025b
0ce4
f570
0e9d
09e5
f751
0bdf
0f86
f93f
f93c
f635
025d
f3f1
ff66
0b06
095a
0a3d
0ac8
f7cb
fb2a
069f
0f75
f4be
f544
f79d
0536
fe6d
efe7
ff0d
0c88
f49c
0885
ff3c
0863
02f9
09e7
fe54
fc66
075d
043f
f9a8
f9a1
09a2
0b65
fa2e
0cb6
08b6
0e8c
06f6
06fb
084b
0456
ffc8
097a
0d07
f776
f612
effe
0d40
0535
08be
0bac
f901
0376
0497
f0d0
0bc5
007c
fca9
f1c6
004f
0514
07a7
f17e
f5de
f339
fe94
00a1
04a8
0268
0ef0
0ed8
00f3
f360
09ad
07c1
ffcc
fb8d
fea1
07b4
f90b
053e
0f0f
f7df
fa95
08cb
0b8e
0dd7
0950
f529
0087
fb68
f847
0f93
f341
fc02
f767
fdc9
01f9
0aca
ffa1
fc0c
f7f2
fcee
ff10
f9c8
06de
fc54
f6f7
f37f
0458
fd6b
f908
0055
08bf
f4c0
f4d3
0c87
f873
fdb4
0776
0f12
0b09
f68c
09fe
ff35
f869
f0f9
0dea
0c48
f83b
0eb0
06b6
f0ba
00e8
fd1b
fecb
0aeb
f541
0515
f291
0857
fea1
04b5
fd3e
0901
0463
0540
0240
08cf
084e
f803
fc84
f00d
fce1
ff4a
f3cb
f9a0
0902
0589
f7d2
f9a0
056c
fbcb
fa0e
f327
0581
0cfb
fb04
fc9b
fb10
09b9
08cf
0dc0
096b
00e6
043a
ff74
ffbc
0efa
fae8
061e
f57e
0c47
eff1
f9d6
f829
0162
f1e1
0950
02f1
015b
0d7c
f528
fb17
07a3
f4e8
f07f
0b97
05e9
05a4
fda1
081b
f210
02c1
f652
f7a7
fd69
ff71
0cce
0366
f265
f35a
f585
f697
0f73
0673
f51e
f568
fe70
fe7f
0bfc
055a
f36e
0200
f33e
0b66
f1dc
fd48
04b5
ff89
09dc
fc8c
05f3
097e
0bdb
072b
f3a9
0e91
fa01
0295
09c1
0c46
03e3
06e1
0e76
f599
f528
fa61
0e31
f50a
fa9a
fff8
0add
0168
0878
fe6d
0afc
f4de
f522
f4be
03df
f6cf
fd0e
f4ad
0ed7
f1cc
f242
f95c
fcdd
f674
f115
04b2
f707
fd76
00d4
00c1
0dec
0dd1
fce4
0846
ff8a
f1e5
f2eb
efae
0e64
f260
08f0
f77f
0252
fa1f
019b
0e36
ff8a
f0e9
efcd
07e1
f074
fadd
fd07
06a7
f738
fe81
0948
fa93
ef5c
040e
fb26
02b4
ef55
f1d5
ef3e
ffc0
f087
eff6
f3f8
0bf1
08eb
0ded
f18b
0220
0575
03ce
f999
f4f5
ffce
f32e
07f4
f98c
f5dd
f02a
0a30
0061
f5d5
0654
0606
f8c6
08b9
0141
04b2
f21f
f811
f83b
f6d7
0ca4
0ecf
022c
f413
f28b
ef19
0117
f14d
012d
09d2
092e
0470
07aa
f799
09d1
0f60
09e9
f34f
0587
fe02
f170
fc17
0efa
f05e
ee9a
01ae
0cd5
f3c5
09f4
f37c
0b71
0e22
fe81
f90a
f795
f0df
f708
0a38
065d
0f97
f158
0167
05d6
fd79
f342
fdee
f154
f4bf
0ec7
0b9c
0383
f037
f51e
0042
0237
f0e8
02bd
f4c7
f872
054e
fb3b
06ce
fc06
0ee0
04fa
f9aa
09af
fdd4
fb34
0933
03e9
f54a
fe2c
0654
f755
fe12
f6a8
fc46
05f6
f81a
07c7
fcb7
0ed4
f4a8
f236
fff0
010a
0ea5
f799
092d
06cf
fd8f
0160
0b35
f333
0052
f279
0167
05c3
f730
f201
f7e4
fd7b
07ec
04bf
0e84
0507
004a
f63e
ff8c
f031
f694
0391
0455
ff4a
ef19
0c12
f492
023b
f7e4
f074
f046
0ce3
f8af
f0d8
f108
0e34
fd22
f5f4
f7b8
fe5c
0b73
f4d0
07a8
053b
f0b2
0aa2
f9f4
056e
05ea
0cef
05b4
0f0b
f35f
062b
0283
f12c
fbcb
f356
f2e5
f816
f30d
f399
fdeb
09f7
07e2
f7dd
05d6
fbef
0c4a
06e4
04b0
fec3
fc75
0f1d
0c00
0c45
f1a2
009d
f68d
f9ac
f8ad
0359
f334
fa78
0faa
f093
f67b
0753
f08f
ff43
0cae
0eca
f64b
0b49
f909
0806
014a
fdd5
f3b5
f947
f324
f1b3
0c90
ff83
f6a6
0274
fd29
f9c0
092c
fb7b
f5af
0802
f5c6
084a
ff2b
08be
fab4
08ee
f2cb
fdd9
f8af
0676
f423
f853
035a
0015
fbac
0607
f982
fccf
fbe7
063e
fcd5
037b
fd1e
f5c1
0924
f705
0b18
0c6e
0a23
fced
0ccd
061b
f437
002a
fea7
0369
0b4f
0830
fb7e
0996
0a77
0311
f541
fabf
f2e4
020b
f0a9
00c8
fc70
010f
f297
fb66
faef
f101
096e
f82f
02ee
00a9
f9ba
0271
fb34
025b
0c87
0291
fab5
fadb
0d44
0d8e
fd5c
0ea7
f69f
fbac
0c3c
0e07
0197
f695
f4a4
f882
f276
0133
08d3
f460
038f
f712
ef88
f4b2
0569
07a4
ff66
f9bf
f9a1
f61d
f51b
08fb
0f7a
080e
0739
f9e7
0758
faab
0cd9
f155
fe5c
feb2
037d
f902
0e00
f21a
0dd7
01c1
f78a
047a
fefb
f8eb
0ee7
02ea
0ec6
f195
f52c
fa39
035a
f90c
f3e8
f43c
f88f
013d
fb04
ff7e
f4e0
0271
fb9d
efe8
025f
0ea4
041c
fa90
089c
064f
03f6
036d
f5e1
f2a8
092d
ef83
fc2f
fe20
f424
04b4
08c5
f26a
029b
f9fb
08d8
0d99
0070
fad5
fa70
ef78
f319
0871
06ca
0393
0a91
faf6
0f00
03bf
ff19
fbef
02b5
0e54
fe89
0a7a
fce8
0b24
fcd2
09ab
0158
f57a
f433
0092
fd5a
f67b
07f7
f59f
0505
f76c
ffc0
fde6
02be
0d51
fb39
0841
020b
f736
07e6
03f7
fdd0
f5ef
0e3e
0928
0b15
064f
0e07
0862
07db
f21c
f811
0e05
0002
0bf8
fae5
fa99
f9ec
f38b
0a3a
0369
fa8a
fb87
0661
fa01
f86b
f95c
045a
f2a3
0305
0338
07b1
0850
fe9e
00a7
f775
04c2
0ea4
06ad
0086
f470
02a0
0a18
f7b8
ef8a
fe28
0497
0751
ff18
efd6
f27c
f4b0
f584
fc09
0803
fc76
0f0f
0afb
0e67
fc6e
0a4c
ff81
0d8c
03e6
0907
02b2
f2f6
08eb
f24c
fbd9
000b
0994
0eb4
f768
fcb5
fc0d
f9fb
f5d3
0d2a
0c1c
f00b
002c
0653
f508
f0d8
09a2
f8ad
0108
063b
f8e7
f54d
f4b9
f62d
0095
0c2d
0263
0054
fa06
0044
fcf8
03fa
f0db
f9e8
0be6
f909
0bdf
0b01
0607
0a72
fc85
f825
f01d
0a9f
fa9a
0c26
ff09
fea1
0ccd
ffdf
0317
fe98
0b4f
f93f
fbf5
f9b0
0df3
f1b9
fa81
fe06
0a16
0d53
090f
f47d
f429
f1a6
027f
f374
f2ec
f46a
f347
f132
fcee
fc06
f5d7
0108
0549
ff5c
f233
f6fa
ffa3
03c1
02a6
f1b4
074b
099c
0253
0fc8
0436
f553
ff86
f311
f276
01c9
03bc
0033
f4f8
fac9
07b5
f1fc
ff7e
f43e
f27d
0355
0630
f9d0
0a32
fbac
0952
fbfc
086d
f7e8
056b
0a5d
0591
06a7
09e5
00b8
0448
fa52
fb0e
0c64
f06e
0f96
ff28
016c
fdef
fcc9
fed4
f523
f55e
f81d
f41b
f25e
0b4b
f57d
f80b
f7bc
095d
047c
0863
0868
fbe0
ff42
faba
0ee7
f069
00ba
0c58
003e
04c5
0516
f576
00a3
0586
f0ef
0a98
0e9e
fc16
057e
f761
f4e5
0d9a
02b1
025c
0a0f
0d76
fd82
fb19
0521
f49b
f100
f92a
f59c
f2f9
fd16
0a12
f646
f887
0332
000a
0a7a
0d3b
fe58
f608
072e
f7b2
003e
fa6a
f2ff
0f41
fa78
01fe
0baf
0111
0573
0475
0544
02d9
0944
0801
0190
f5e5
f5b4
08b9
027a
f5bb
0667
f76d
fb18
f6ee
062e
fb5f
f120
fd84
028c
fdf7
f5c3
f48a
0b6c
f870
0062
04ef
f5e9
08fe
0885
0afe
0462
fb4d
0b8b
fe4c
0bf2
f47c
01d0
fe37
086b
0403
083e
0619
f57b
f05d
f29b
f226
f114
f1c7
0636
0643
efe5
f952
07ff
0b32
f65b
006a
fbff
f23c
0329
0045
097f
00e7
f02b
f00f
0cd7
f615
f3ba
0c9b
fb2b
01ed
011b
07df
0e17
fe61
070a
0b07
f8c1
0de4
f1ef
0ec0
064b
f514
fd78
0e0d
0627
0e77
f7e9
f66e
0942
fbcb
0745
08b5
f49e
fe81
f40c
0846
0a8c
0b40
fb32
07ee
f6ec
fc5f
0c92
f603
f654
f760
f0e8
ff10
f9b0
00e7
f4ea
0e6f
08e4
047c
06fd
ffcf
fe24
04f3
08e5
f200
0c2e
0090
f1d8
fcb2
058f
0b7a
f2e5
0b34
fd2d
042a
047b
f51c
fda8
f75e
fc2b
0b1a
f4e5
fc06
0439
fa67
ff72
f3b4
f04a
082f
074a
fa9f
f95f
0cda
03a5
006e
f630
fa43
ff5a
f0f5
04ed
0e0d
0d5f
fe3a
f00a
0f50
f8c7
0c27
0af5
0552
0820
f81e
f9da
0f09
f3f0
fee0
f632
ff87
f7a6
f5f7
fde0
f562
ff8e
0eec
f6f0
05f6
0356
f717
005a
fa8a
0a26
f659
0ae3
fe79
0e30
0be0
f7fa
fb07
f418
fdd8
0135
0acd
0dfe
fd62
f15e
05a9
f658
0f88
f6c4
08e1
0d78
fd96
fdcf
f1f8
0b47
0aef
0868
fda9
fef1
f1cf
faa0
f1d6
fd8e
f1e9
0f91
f7e0
056c
fdca
fd29
fd11
f836
f042
0541
0631
f0d1
0b98
0262
0293
092d
0c0e
f478
0b36
f932
01d8
0fab
0bee
fd1d
0501
0c96
f3d8
021d
031f
f3c2
079e
0ebe
f460
0eb0
ffd4
0fab
f47f
f7a4
f466
01bf
f479
fa3b
0e78
09ff
03b8
fa19
fc93
0713
f409
f930
0700
f2a6
0566
0028
088b
0464
fbec
0f4a
f015
0be1
0d22
f164
fc89
ff6a
0d15
0a7e
fb76
f3e9
0ed0
09b7
f1ab
f9e2
035c
0140
03b2
fb34
0b78
f711
f7a0
f071
0edb
0817
f305
fdb8
fb6c
0a6d
f9ef
0685
f3a0
0632
f7bc
0576
fb83
fd72
0c97
0ac6
f008
fd86
ff2c
f322
0903
fc53
f10c
0805
f313
034f
0a02
f02e
0b9e
f921
fcd7
0242
f90b
f35d
02d3
fde2
08c8
fcc1
f764
0c2d
083a
f9cb
0a0d
0d46
f173
0f39
f3b6
0ebc
febd
ff43
01e0
f180
0d1c
fc09
098f
0d4d
0bd6
0647
0ba6
0be1
fa88
0973
0daa
f42e
0e52
f93f
f3f8
0f2a
f66b
055d
0924
022f
ff75
04a0
0182
0840
fcb0
f6fc
0919
fde5
02f5
f700
f1eb
fbcd
0987
0012
f34e
fdb4
f943
f64a
03a4
031a
00f2
f53d
00e4
f630
04dd
f7fa
05e7
05a3
f196
ffe5
fc82
fbf1
0774
027e
f3b4
0506
fb1c
fb10
0ef9
0bdd
0966
06e4
0c5b
f11e
02d3
f344
0ed3
0ad6
09e6
f36f
f5ed
f4a5
f596
fc1b
f82c
f6a1
01f9
047c
0787
0643
f820
ff34
fb68
0f83
f88e
f6cc
f304
0c6a
f1a9
fde7
0e7d
0e40
0e59
f6d1
fbfa
0693
05e0
0aed
0bee
f4d6
0b43
0f61
fbef
f8e2
0708
f12e
026d
f4c7
0ba4
0e97
026a
fbe3
f145
fa46
fb4c
fdc9
0add
f26e
03f1
f2a8
fa2a
f27c
f75d
fe25
f900
f141
09e8
0c5b
013f
0fb5
f749
0af2
f0a8
f71d
f032
0d84
08b4
0b59
f1f8
f3bd
f27a
0554
0d2a
f603
fe71
f41d
f348
024b
ff2a
0f55
f6c0
0b60
0a35
f599
0eb2
f90d
0c89
0179
f5e6
fa1f
02a4
0e92
f9d8
f7b3
0f82
0ea5
08ac
080f
01cd
efda
044c
f8c7
f8a4
0b27
046b
0df1
f21f
0382
f6b2
f7a6
0415
f226
ff81
fdb7
0743
f5c5
f1f2
f85a
031e
07e2
f3d5
f984
0797
f6f4
fc94
0684
f103
0851
00ee
fa91
fe37
f4c3
ff40
0751
f3ef
044d
fdbf
0876
f49b
f888
014e
0f46
f060
07e2
0503
0782
feae
0efb
02c9
fbfb
0d27
0156
f655
f9be
fc08
f14d
0036
ff2b
0bb6
ffb5
0d81
0000
f31a
fa82
f62a
efe9
08bb
f608
fb72
04ce
ffc5
0d5e
f8eb
09de
f5d1
0bd0
0d73
fc02
0ce4
0bf0
f680
019c
0877
01f8
f02b
0ed7
0773
05cc
023e
091d
f4a9
f945
0d0a
0127
0d86
036c
0ec2
066d
fa0f
fe3d
f2b9
f5a9
05ce
fe0c
f6be
fc07
0782
0b6e
ffe8
03d1
06f9
f860
01d7
f2ac
f821
f569
fd1e
09dd
f37a
0488
06f2
0790
f193
f6f2
f54b
f92b
0868
f138
feee
064a
f440
fff0
03a9
0a88
f7e7
067a
f158
f3d2
09ad
f441
fd10
f849
0004
0db2
f1ca
fd50
0b2b
0d2a
fe2d
0d21
014c
049d
f1a7
0e47
f009
f270
f058
08d5
00e0
f3a0
fa4c
0a00
f06a
026c
08c9
f75c
0e6e
ffbb
f9cf
0ee6
f3d4
fac9
0042
f9a3
f6b6
f220
049e
f3e5
f27f
f46a
0b57
f508
0bf2
01ff
0561
05a7
f269
f539
0f98
0d9a
ff30
096f
f8e7
f4a7
f94e
0032
0d50
00f4
fa87
fbe6
0995
f506
fccd
04df
09b4
fabf
05fc
0d01
fbfc
027c
f43b
fd24
f45a
02a4
f173
00fc
f986
0721
002a
08ed
0490
0f1e
f6e6
0fcf
fe01
0958
f2b3
f0a5
026b
080b
fd0e
f0e9
f395
02b0
fd55
0a64
f63b
f18f
f9ba
f14a
0e81
08fd
f22a
f055
f4e3
075f
feed
f7fb
0c0b
0f0d
f84d
fb98
0441
0e04
fa49
f5df
0983
f1ea
06d0
fee4
0690
0a84
093b
0cf7
0b45
040c
f1f6
0326
f4bc
0ebb
0d57
0d2b
0c6c
0838
03b4
0605
0cbd
fbb7
0a07
09b5
0729
0b0e
0c07
ff0d
0d06
f8d4
faa9
046b
fef4
f5c7
fd34
023f
0028
067b
ff98
03d2
fdb7
0df5
f86b
07ef
fa7b
042a
fd2a
08b6
0502
f0fe
0d95
fb40
0cfb
fc35
08d1
090c
00b0
f59e
066b
0958
0a82
faeb
f76b
fae0
f79e
0250
fd26
fe13
0680
f0c7
0ef8
f790
ff15
f325
088f
0064
fe0d
0656
04ca
09f9
0222
f89a
fc4a
0f97
0f60
0430
f028
0902
0719
00e3
f5e7
00ed
f123
0b93
f27f
fbeb
0897
f2b9
0170
051d
0610
f649
f6c3
01ec
f9aa
0ea4
f5d1
f528
0eae
f0c0
f383
0b8f
02d9
f3e7
090d
03d0
fbba
0da0
04bf
fa23
f846
02d4
fd8c
0569
f4fe
f70d
04ac
0c8b
f8a8
f93a
f3a8
f2fa
fe06
0f52
0406
f4c5
fb7d
f4e9
fb24
0c4e
0213
0fb9
0eca
fcaf
f188
fc6b
f727
0668
f481
f474
f590
05bb
0f54
f9fa
fbf6
04ca
f9fe
0014
003e
fedb
02f2
0696
f7d9
0f5b
f25e
f907
0932
ff30
f830
f1b3
0153
f9f7
f8e6
f6b4
f060
fcc1
07a5
0352
0c2a
01a7
fb1c
0364
fb5e
f6bd
0938
00be
f2f4
f55f
f50a
f517
f196
f36f
fb0e
fb5a
0ad4
0fae
0dca
0080
f744
053c
0692
f0a7
0c73
09b9
f1c2
f96e
fa23
f306
0b6f
09e8
fe14
0827
074a
06c9
0c0e
0477
096f
0718
03f6
f6c4
0d85
f8a6
0ded
0009
f188
fafe
0332
01c5
feec
0f53
0e9f
f364
03ce
03b6
0199
f21a
02f7
01d2
fc44
f6d5
029f
f773
f160
f09c
0d4f
0203
f264
080c
f6af
fe96
0ceb
06b9
f188
f85c
f193
f876
f6aa
0e25
f151
03c5
f10d
0847
fe64
0347
0ae7
ff79
0c8f
f284
f88a
0a68
0a67
09a4
f579
04a7
f06e
fae6
0e9a
f3c3
ff7b
f43b
0db4
f284
0e05
01d1
0e13
034d
0d1e
f504
f070
0a97
f0bb
0273
0677
f386
0578
f130
0d8e
0222
fecb
fccd
f53c
f3e0
ffeb
fab2
0009
f992
0f55
0b74
f4f2
f0d5
0fbb
fa11
0707
023e
05e4
0bc1
0baf
026c
069f
fade
f0b1
0c01
06e4
0eff
09d4
0f0b
f28b
05dc
f80e
0d8a
fb43
f721
fd1a
fed2
f978
f3cb
f4d9
0974
0288
035c
062f
072b
f9d7
fa6b
f0c2
0a22
ffc1
f08d
08a0
fd5c
f740
f96b
f6af
fcd2
f5d6
f609
0762
fd4c
fbb2
fdd5
fc0e
035f
0589
0958
0c1c
0498
fd38
fbb3
f00c
0253
0cff
f977
0cf8
0a09
f80b
f333
f9d7
02a5
09b4
fc60
fdb9
0df7
f61e
0243
0362
f23c
0c6e
0144
059b
0412
f07e
fcc5
f3cc
0c2d
0b5a
fb65
0f71
005a
f204
f48a
f970
082a
ff37
f31e
fbf9
f709
085c
fa04
0f28
0c81
f31d
f1cd
04fa
0e4a
f404
0eb0
0f9d
0565
075d
0ebc
02b5
fd6f
f821
0c3a
0ae9
f2de
f46a
f096
fc42
ff80
f38f
0bf9
f5f9
0c70
080a
0a55
f894
f74a
f716
f6be
03a2
f222
02d9
0a83
f6aa
fa7f
fad8
0303
0d8e
0191
f5cf
f450
f930
0a5c
0b27
0ec5
f51c
f3cd
014d
0243
0084
f1cd
048a
fe4b
f9aa
0349
01c4
040e
0d58
0ac2
f185
0041
0f1d
f745
fd0d
fe41
0f6e
f57a
f12a
0642
f8a8
fe07
021f
f11b
f245
f6ed
f436
049e
f394
042f
0876
f95b
fde6
f099
f6bc
f1e3
0aa6
00c9
f566
f05d
0a10
0a09
0ee5
f18f
08e5
001c
f53a
fc60
f7a5
fc4d
f8e1
f821
0a9b
f518
f63d
f82f
0de3
f9c4
fc36
f2c0
f00d
f256
0400
fd3e
0f15
f11b
06d5
021c
05e3
f532
0eb7
feb9
f7bf
f80c
f9cc
012b
fc46
0f6a
f990
0c80
f178
f39b
0f5e
0744
06e7
0dd4
08be
f51f
0c31
065e
fadf
05fd
05b9
f909
efc9
f4c7
05b4
f95b
064a
08da
f7ae
f1e0
0e77
fbda
0cc6
04a0
f7e4
f307
f3d1
0374
f12d
0664
fb8a
0fc4
0b24
fd5a
ff8a
0108
0a99
0a4f
f786
faa0
fa6c
0c9a
f6b1
0430
f8ea
f298
ff75
0928
052c
fc08
0d9d
0079
0cd3
fae3
f53a
08e8
fcf2
0cbf
f82e
09aa
05c6
0399
fa5d
f090
fc27
f596
fb64
f6e0
04fd
0568
0bc9
045b
fe62
0a3d
0136
f046
f7dd
fa13
f666
f1d6
f5cb
fa65
f857
0887
f57c
0bb4
0e7f
f707
f716
fb69
0507
02d0
070c
0d8a
f793
fa95
f7a7
fbf8
0741
068f
f808
0a6f
0026
03f4
f66f
0553
fc80
05b6
041f
fc82
f907
fbea
012a
f98d
0509
01fc
fd5c
0f09
0b41
f0e1
f773
0d00
fb0d
0d20
f53b
0be4
fdd4
0318
0043
0cee
f55f
0205
f127
0162
f08c
0b10
0963
0a10
ff05
041b
f045
f668
0781
fad6
f638
f14d
f436
f53b
0674
09c2
f064
0510
0750
0911
05d9
f239
0684
03c3
f6e4
f780
fb3b
f1b8
f382
f118
ffae
0abf
082d
fc67
0684
05b4
04c8
0299
fbb0
0b30
0dd1
0728
0b21
f09b
0724
00e4
f121
fc1a
0721
f1cb
f9f0
0a25
f005
0d42
ff7a
f30d
f2e3
0ae7
0b88
09fc
02d8
f311
0d89
fb18
f916
0e8c
fbdc
fab1
f51b
fccf
f650
fce7
0ee7
0726
01f6
035a
f5e7
f0f7
ff64
047a
0f47
073c
0c8b
0e47
fb42
f8b7
fe69
f939
fbcd
fb05
0aa0
ff05
09e1
f24b
facf
076c
f172
f8f7
f6a4
0b0f
fc54
0db7
05f8
fc7b
03ee
0295
05cb
fbf2
0210
0e81
fbce
019a
0240
0f78
0a1d
ffe0
f22a
fcee
f4ee
073d
fbc4
0911
0cb4
0af8
0856
fa0c
fa6f
0961
0e4d
048c
ffdc
f772
0f0e
0134
fa24
eff5
f4a2
03a8
093b
ffdd
f2c8
efea
fd5f
0e97
0c4b
f257
fc31
f304
f34c
fbf0
0eaf
f408
ff80
fe8a
f693
f0e1
f854
01ae
071c
0822
f7e1
0852
f5d7
0970
f809
0c6b
f891
0e4f
03be
0c3f
0156
0cc1
07ad
07c3
f15c
f999
f0c3
f005
0656
013a
effe
082c
f0f8
fa73
f2fa
0863
f4a2
0e56
fc56
0339
0e6b
07e0
f1c4
0e24
00e7
049e
f99b
01d8
0335
f21f
fa14
0caf
014c
fb07
0491
f3aa
0169
06f5
00e1
f87f
0b4b
0b1b
0849
067e
094f
f1f3
0868
0245
fced
f064
0b27
0ae0
0237
0193
fb8b
0b69
01d2
0aae
f087
f3c8
f8e4
07a7
fb6f
ffd9
03ad
0b87
095b
079c
0a7e
0cbe
0e93
f69b
f5a1
f586
046a
f164
06ae
ef83
fb8c
06d3
0d1a
0531
f4e2
fcab
004c
03a5
01be
06d8
0079
0084
0d85
0cc4
052c
0cdf
0614
0bd1
0b47
0096
068e
066c
01b7
0219
f227
fd54
f859
fa5d
00fd
0785
0808
f507
0768
022b
f546
fad2
f043
f7d0
f95c
0aa4
f6f4
f8e7
f693
f681
fd2b
00b9
f397
f1cb
045a
02f1
f1ec
f9dd
f87f
07f7
09fd
ffdb
fddf
0747
0ab7
01a2
0e4d
0cfe
04ee
02e6
fb84
f9de
f98a
f2c9
f7d1
fef7
f675
f9e5
03d6
0256
0748
0af6
06ff
01e9
fe46
f708
0081
09f0
f366
04e1
f794
f217
fee9
f97a
0b74
0c5f
ff78
0195
0234
0ec5
f579
f689
0d11
06ba
f388
030b
f23c
0bc4
0478
01f2
02e9
012b
fa0e
077d
082d
066e
03c6
06df
f9cb
f221
0ecc
f2d8
f4c4
0d9a
0d05
f1f5
0cf8
0ed7
096f
faa5
f7df
f750
094e
fa04
00ff
f972
0f97
f96d
0a41
0a9a
071d
fa73
03e2
f18e
08fb
0c40
f6da
f6d4
f2a5
0680
f8ad
f30f
01c1
f4f9
02b8
0d69
f0f0
03de
fabb
0fdb
f666
f354
f715
0f7d
0d90
0c7d
f9d5
f213
0103
0a9a
ff74
f87f
f724
fffe
fbee
ef91
fd58
002e
f97c
f847
f197
0b5a
032a
0081
089a
0609
f893
fcfe
f738
f31f
fecc
f107
0e5d
0037
0a3e
f0f8
058b
098e
0b70
0813
f2b7
04f0
f19a
04d0
0181
05aa
f91a
086d
fdee
f34b
f193
026a
ffb1
0403
0d57
03ad
01cc
f45a
097d
f428
0084
09f6
f7cf
043e
082b
f5dc
f693
ef1b
f5c2
045b
f778
f582
f137
0399
fb1e
0183
064a
0692
f52c
f977
0e5b
f442
f960
09f3
04bb
04b0
02f0
09cb
fa47
f03e
f2d0
f44f
ff83
0ab4
fd68
01c1
0e1d
f8eb
fc97
0cd5
f764
fb6d
f3d6
06d9
f0c1
0a2c
08f5
f58d
f085
0a53
fc2e
0705
0c76
0591
0714
fa1a
0138
fc52
04aa
0ad6
f122
f968
f9f9
f4b8
f2cd
08f7
052c
0bec
0aa0
0b7b
f7ee
016f
0a57
fd1c
efcf
0aee
014f
eff1
0b45
0d1d
0bbc
033b
fe4e
073d
0ccc
fcd6
0dc5
fb31
ffc1
0afe
f96f
fde1
f85f
f970
0c8e
0be0
f256
0696
027f
fadd
0c08
f4e2
0d59
057f
f18a
f396
f87b
f0d9
fc19
f909
02ad
f567
090d
0485
f829
0d18
fb5d
0526
f6bf
0901
fc01
fa60
0489
00c9
f7cb
fd09
f23e
0e0d
f1dc
0be8
06b0
0e57
f31d
0676
007f
f42a
0b50
f720
ffbe
09a0
fedf
0b5d
f5b0
f36d
fa08
f9aa
05bd
09d4
fafd
002c
ff4e
0d63
0e73
0ba3
f631
015c
fe24
f715
f74c
0bdf
f258
f862
fa1a
0da4
01d4
023f
fc86
feb3
ff20
f34a
f8b4
03ee
005d
f506
079a
f841
0984
f636
f7eb
f535
0f03
f858
fa6f
f78e
0d11
ffc6
f44a
09d3
0e14
07dc
f977
0081
0085
fc85
f31f
082a
f2ab
f0cf
0c42
f52e
0d74
0dba
0a0c
f19a
0e45
0238
0432
f446
fb67
071d
0d22
f5f3
fb2a
09db
f9c3
0720
0820
f03e
fcfd
f4da
fabd
f03b
f6b4
0020
0926
0b0a
0803
f578
fdf0
08a1
0347
fe9a
05d0
085e
fddf
f73b
f7dd
f4d1
0d64
f4a1
0a22
f9d0
f4b9
048a
f872
082a
08fe
f328
0d43
f36c
0563
0c34
f0dc
f732
01f5
f827
fc72
002e
0c28
0b95
0309
0c17
06e5
f574
f471
09ae
0fc6
f657
0b8e
fbcb
0e2f
0b87
02c8
fb0a
0c43
f33f
faa5
f81e
f1bb
f220
0c55
04fd
fa2e
f274
0876
f2e4
fd80
f103
0c49
0325
f107
01bc
0eea
018d
f35c
0ce7
fc04
f732
0ac3
09b3
ff5e
fe73
0c5c
efe3
05c2
f679
fb26
fb5c
f9c0
ff4a
02d9
0892
f847
f325
fe73
fdfe
0344
04a2
0256
fc66
0ad8
f07a
09b0
faf8
059e
f71f
fd13
f276
fe4a
fc48
0ca6
f79e
0d26
f462
f4df
f261
0b1c
0293
0ac1
f0fc
076c
00a7
fc41
f183
088b
fe19
017d
f997
fc8a
fc70
02f7
ffbf
0f55
efb7
0dee
03fd
f5cc
f4c6
efc2
f3b5
f86c
0142
f39d
085f
0e9d
fdd7
037d
f66f
f91f
055f
0ad0
f541
09e1
f356
f23b
f308
f67d
fece
0759
0d01
f760
f969
0364
0432
07cd
0258
0e78
fb31
083e
0dcd
095e
042a
f2e9
f59b
f8b5
facf
064a
05f0
0e50
fec8
00ad
f2fc
06a4
0ae0
f0a3
f25d
0f2a
09cd
f92a
fbd9
f28a
010f
03aa
0eaf
0d3b
053b
08d2
0bf1
0794
f6f0
0379
0222
0b67
fdaf
fd76
f481
0ddd
0de7
0a6a
fd0c
f6a3
0164
01f9
f799
01a8
f7b5
f72c
f067
f961
f420
087a
0bf8
fd61
fe85
0bcf
fb0b
0a9b
fd60
f6f4
0588
f87b
fd9b
fd33
01c9
069e
f9fa
02f1
04ae
f159
ff13
f027
026d
f414
0600
f1f4
0ad9
05c3
098f
0c0f
025a
004b
03b3
0c21
fc37
07da
fc70
059a
f5de
06c5
fe18
f65d
fe55
0cb5
f442
f81f
06e4
056b
fe13
0b08
f9d1
0b79
0ea6
f2be
fa52
f27f
096e
fb0f
0178
ff6b
ff69
06fd
0b77
f041
ff8b
f08b
0d43
0418
f0ae
f136
f083
0255
f9bf
0b1c
0419
f340
f9ae
0cbf
f494
0753
088c
00ea
0eb6
0dae
0198
f141
fed7
fd33
0d8d
f3f1
f18a
f645
f678
031e
fa39
0199
0dbc
f9f4
0587
f117
ffb8
0767
0a0c
0c5b
f28c
fc93
f3b3
03a6
fb90
fef7
09c5
03d1
0f53
f578
fef2
0d42
f067
f267
0469
000c
f0d4
f9f6
05d0
f3af
0ddb
f9d6
0532
fe98
0007
0527
02d2
f9ec
f01b
f1de
06d9
ffdb
ff38
013a
01bf
efb5
0825
0649
fe53
0943
0032
ffd4
eee4
f145
073e
f9cc
0eb7
fa2a
0c73
f0d9
f466
0535
ffed
0cc7
fc8f
f0ea
0b07
045d
efd4
fd25
0360
f20f
0394
fc9b
f78f
0735
f655
0148
0b79
fbfc
f18b
f50b
f978
f697
fd5f
05b4
ffa0
096a
05bd
092b
0040
f191
f5f2
f752
fcd5
0616
f0b6
0acb
0185
0648
f35b
0c41
f170
0f9f
fbda
f51a
027b
f6ae
f865
f651
f92d
0883
fe91
f297
f672
f7d0
0067
f902
fb6a
f2cc
f593
fc39
fd2d
f7df
ff65
0bce
013f
f405
0e3a
f8d4
fa9d
0ddb
0193
f5ff
fba7
fbe6
fe03
fca2
0616
084c
fa70
fd07
f093
0a48
fe76
09e1
0dc3
0a91
fd4b
0350
009e
f94e
0428
0770
028c
f559
f984
0c2b
09d1
f3cd
02ed
fd96
fcf1
f55b
f02c
f450
f964
0ba9
013d
f843
fa09
f4fe
fbb2
f3ea
0ef9
0301
f323
ffcb
fbd3
f0bc
fe68
fdad
0af7
f85e
f989
0acf
03a8
f294
f930
f993
f508
05ff
f086
0ba3
02f5
f71f
03af
f042
fcd7
f877
0ecd
01d0
0338
fca3
0208
fbe0
0e9e
0613
0254
018e
0e23
f816
0ec9
f492
fd90
07d9
01f3
07fe
0779
ef62
ef7d
f5e8
052d
f999
0cbb
ffa7
fecf
0572
ff2e
ff19
fe0c
f4ce
f91c
fdc2
f6be
0907
0d1e
f5a2
0ccb
f6d8
fae4
f1d0
0d92
0c1f
fa0b
f8fc
0106
fe4e
0fd1
0839
0183
fa9c
fb2f
08f8
0a9a
0c39
f941
f5cf
0c82
0f55
03da
00d2
f8f1
f652
06e9
02a0
fa14
0842
0e89
09f4
fabe
04a7
0e5a
f942
f653
0e9c
f15b
0e04
036b
fa4a
0c29
0497
0c8c
0dad
fdd1
01d7
0431
06a0
f66f
fa70
fa27
f831
00ac
0deb
07ef
f988
0a46
f7cb
f203
05f9
0c26
fe90
fc34
f218
fb7a
f302
0192
060c
03c4
0577
0174
fb8e
0299
05ac
0067
0d53
fb7a
fccb
036d
0576
fbc3
f4d0
04f6
02aa
0a78
f5bb
f088
042a
0251
f1e5
fbea
047d
054f
009c
f3e2
f06a
f785
0287
fb5d
0c83
0c42
0dd1
0d4b
0465
097b
f3c6
fa12
ffaf
050b
0322
06cb
fb68
f045
0470
0dbb
f791
0b68
fb3a
f475
fb36
0142
f78c
09bc
f2b4
f2c4
f4f5
0a7b
0a22
001b
ff8a
0643
080a
fd12
f2f1
f805
0d28
f512
fdba
03f1
f25f
02f6
f3e3
fa9b
01e7
026a
f111
f992
f769
0f05
09f7
0b98
017d
0880
01f2
00e2
f8bd
067d
0df1
f834
0b9b
f6bd
f7ef
0d02
010b
f480
02ce
f553
f696
0b45
f6cc
f2c1
f3dd
f85a
04bb
f948
0121
f992
efa8
04d7
fae2
f628
011f
fde2
0e3b
f800
f9cd
082b
0726
fb75
f6b9
fb70
f016
0293
0c5e
0538
ffb1
f135
0c69
f7dd
0013
f0ea
084a
f609
0a37
0739
07fc
f5b4
efed
030e
fb93
f253
f51b
faa8
09fc
f292
f6c6
03c8
0d5d
fed8
f747
0269
f1f2
fbcc
06c0
fa07
ffdc
01ed
f437
f1a0
f1ba
09c1
fccd
0052
f532
f5b3
f5b1
0318
eeac
0cfd
f42c
f5f0
0c3d
efbb
f3cf
f0ce
fa3e
f8e7
fd5d
094c
0c95
f9c6
0c07
f93e
06e8
0887
f5f1
06ae
f73f
03d2
ef11
0bdc
0a82
0459
0002
f185
f73a
f457
f1f0
f001
faa5
fa99
0738
ff03
07af
fb2c
05cb
fe4e
f4e9
041c
07cc
07d0
f051
0d71
0925
056b
f75a
fcba
00b7
06dc
f8a0
0fba
f002
f81f
f378
0c9f
f98a
0e68
0cdf
0233
06ef
066c
07e7
f196
f1c4
fffe
f157
faeb
07d4
f14f
06b9
fda1
07d6
08de
0c90
08db
f3f7
09ce
fe64
f9cc
f5c0
f68d
0c89
07f8
fef9
0911
02d5
038e
0bb7
0a4b
09db
f63d
fc3a
0859
f54d
f878
f2d3
fbf5
fc6a
f132
f195
0b07
0162
0d5f
fdbf
0c45
f03a
fdb2
f74b
0ebc
f8bd
053e
f79b
0353
0314
0910
0a77
041a
f5ef
f7f1
089e
f846
001c
fbb9
f45a
fca8
f25d
044d
eff3
f24a
031e
f015
f534
fff3
f955
0ca9
04c3
f9a0
f0ca
0940
ef26
f8c6
f6a5
f5ae
0957
0e30
f0f9
056d
f5ca
f9b9
0180
0a5a
09ac
f85d
f56b
0026
f612
0b54
fb6a
fd71
0407
08cc
0879
0107
ff7c
0ae0
f6c3
0ce4
f2c8
fd1d
0e35
0d03
0bce
0e92
f18a
00c2
f0ed
f03d
f70f
043b
0316
f545
f4cf
03e0
0a7f
03a9
f849
f193
f9c0
fcd6
0ebc
fc3f
fb16
fc66
fc72
065a
0387
0257
0da0
0c8d
0e3d
fb87
f904
0458
f59c
063b
027d
06f3
f420
f118
0cae
f7fd
fa35
fc66
01ca
fb4e
fcd5
fadd
ef89
fca7
fbf0
fc96
04b3
f71c
0e2d
02b2
f843
f1a8
0c4a
f607
0909
f6d6
f327
fb5d
0103
f9fc
0e82
0812
03bd
f888
030a
ef97
080e
093f
0238
093d
f8cd
f7fe
04e2
0eb5
07a0
f893
01c9
0dc7
f903
000f
06e6
f7d6
f6a7
05bc
0a0f
0561
f03c
fe77
08ce
0835
f343
fb64
f5b9
fd3f
079c
0236
0719
0c36
073f
f5d7
fc3c
0310
fd9c
00c4
fff0
f7f1
eed9
0ecf
f03b
067c
ef78
0e8d
0da4
099e
0db8
0662
ef32
f1b9
032a
ef9e
f1eb
0a9e
0590
f978
f676
f638
0100
f88d
f1bd
076f
fd45
f8c5
fec0
febb
0edd
0383
0d38
083a
f01b
0051
f0de
0d3e
0633
fd55
019f
fa62
f5f3
0767
05ee
0ce8
f5c3
01d4
0ae0
04bf
f083
feeb
fb15
f5dc
054b
0dd3
0199
033a
09b0
fd4e
06a5
fbd3
fc97
0575
f57d
033e
f7db
0419
fb30
0906
fa04
fa47
002a
f60a
f849
fd30
fb1d
f66f
f2f5
f966
0705
0877
f72b
f2ff
f83b
fdad
031a
0608
0282
0318
f93b
fdbc
f52f
0819
fd11
fd43
f169
08a8
0e8b
04e8
0db7
0dca
0e86
0299
f0c5
064f
fb68
ffff
0832
0c2b
fa03
0aea
0869
03fa
fb29
fee7
f09a
0570
0365
f447
0b4e
011d
066a
03e3
fe72
0776
0d5f
ef68
0de9
f422
f745
f2a1
0ea7
f83f
fe05
f9bd
03b4
020c
048b
f5f1
eff7
087b
ffe8
f798
07a9
ef28
f2ec
0e8d
0ac1
0c64
07d3
ff28
fe39
0ad9
f083
0046
0236
0042
f2e2
fc8f
ffe4
0bce
f252
fe45
f81b
04cf
fbce
f7b9
f57b
04f8
00ea
f8f8
f9ae
05fc
f096
0210
fe8e
0252
01bd
0b3b
0f37
f3ae
04b9
fe59
02b5
f639
f11f
f432
f69a
0c37
09dc
0e8a
fd93
f8d3
0d6f
0a4d
07d9
0045
0ef2
01e7
ffed
f8c1
0c97
0ded
0b03
041a
09c6
f014
f736
fc13
ef77
fd0a
fd5c
06fe
0d49
0cd8
f7ac
0d48
0782
ffe9
03c7
feb9
f084
0b8d
06d7
0c27
fb1d
f748
f204
f4fc
f29c
fdbf
0c9e
024e
f0fe
fb0b
fea5
01a0
f774
0622
029f
fb41
f8eb
f06c
00a7
ff2d
f8a9
07b4
fcc9
09bd
0cac
f0be
f509
0803
f9e5
0cf1
0f1a
fafb
0b84
f70f
0f4f
ffd7
fb97
09dd
f777
f2c5
0d3e
088a
ff73
006b
f632
f6c7
efd1
0252
06de
0605
f168
ffbb
fa11
0342
f00c
f2c5
0a63
fa9e
fc9f
f467
f351
089c
0bd7
042c
fed9
0e57
0589
f3a4
0476
03ba
f441
02cb
0d50
ffe7
f57c
0616
f9c1
0a79
f8ee
078a
0335
fab0
0446
0465
0356
f576
fa0e
f01b
f0eb
f764
f24e
f8ca
094b
01ec
f0f4
0c08
084f
0a4c
f584
f3d0
0ea8
07ce
0f9e
08d4
03ab
02a6
efb3
f865
fa38
f6e3
f030
fcd0
fcee
ef50
0d25
fc5c
0764
f616
05df
efed
f03c
017c
fcad
0e50
0e26
0594
06c2
0ea3
f3f7
f713
f007
0129
ff9a
f7ac
0c86
f25b
fc81
0af9
fa8b
02a6
0341
f212
069b
0aae
0566
0e49
f477
0aec
f4d5
0ef2
f501
f02d
f74b
0bae
007f
f266
fa16
fddd
f862
f342
fba7
0ddc
0a52
f9c8
0146
0207
0662
0215
f90c
0f20
f361
08d7
0c30
ff05
0d50
0374
0426
f524
00d9
0144
0163
0377
0e76
059b
0e75
f48e
0701
06ea
fdfe
0eb3
0eee
f1c0
fd29
f37b
00e2
f68e
0183
f0c2
f35a
fb2d
fd79
f41e
0dc8
0805
f22e
f422
00f2
fc8b
fd8d
0408
0d44
f2a3
fc7b
030b
0eb9
f20a
fd7b
0c33
038b
fd6e
0fc6
f23b
fcf3
f032
f733
0e17
0462
047d
f2b3
038f
fe4f
07c5
0738
fc08
f8fd
0215
f83d
fb29
f76e
fefc
0c9e
0ce1
fc45
f665
029c
fe63
fe1f
0189
f9f0
f5e8
0d27
0515
fbcd
fc0e
0102
09d7
f9a8
fd77
f0ef
0463
ffec
f2c3
0f7b
feea
f15e
fc68
0d25
fda7
05ab
0f6b
f0c3
0192
0682
f632
020b
ff9d
09e5
f102
0899
f5ed
f758
fdf8
0448
0c3b
f516
0c56
f59b
01d2
f014
f873
fa1a
f186
0c83
f9ab
fd96
0994
0062
f3ef
f392
fec5
05c7
fbe9
0492
fce1
015e
f61e
05cf
0b2d
f273
0337
0a67
f8c1
f0f6
fbcc
fb43
0dbc
fe0e
0d6c
fe63
faac
fde7
f2e3
0386
fde1
fac3
f837
f203
0542
f853
0e40
f9c5
02e7
fe7c
fc24
fd27
09e4
f81c
0b1f
fbb2
045c
f1c8
f57c
ffe8
0869
090c
f2f8
0a74
f022
f438
f5f7
03c7
0ae7
0896
f480
0be1
064e
0a8a
f565
0de2
034f
fb27
023d
fb79
0063
fd12
f1dc
fb76
f2d4
0ebc
073d
0c37
0264
0ece
f529
fc0e
f98e
0b75
f864
ff02
f88a
04ef
fa98
f168
0f98
0170
07d0
0b95
f9e4
041d
0ee5
ffd7
0c78
0ab2
08c7
f79d
f022
096c
ff0c
fda9
fd55
03cc
0811
0e4b
015d
f727
0450
fed7
fb53
096c
f2db
fd23
006e
0213
0927
f6aa
f7fe
f874
0ee9
0e13
f3a7
ff97
0686
0afc
f1a3
0b00
f3d8
0f6c
f709
fc79
0f80
0525
f56f
f1ae
fdc5
fd75
f12e
0e62
07b3
fb01
f7b9
fd6e
0a8d
0c0b
fd1f
0db4
f11c
f6b7
f0c2
092f
f766
0d21
fbb7
f4ea
fe0f
f338
0b57
0a6a
0029
0b36
0fe2
077f
0b04
f2b0
fb90
f967
0170
f87b
0d76
f578
fdd2
08ab
f3b7
f030
0628
06bf
ff9d
f66a
f03c
f358
0fc4
fee4
fe4a
f26f
099f
05f8
f4b2
f56c
f817
fe02
0c20
048b
0a94
f84f
f5e0
0813
fdfa
fc8f
078c
fc9e
014b
fadd
ff8c
0e0d
fe92
faa7
048f
f1a0
f2b8
07cf
0db6
fa4d
f6c8
fbd6
fbe5
0c72
fe2e
f66f
fffa
0796
fd1b
09f3
fcc8
ff82
0479
f203
f934
f6e5
f846
07db
f315
0bda
04e7
08d3
f508
f96e
0516
0a8a
0513
0df7
f75d
fab6
0ee4
f45d
0585
0ec8
0083
fbd7
f355
fbb2
fa3f
0d40
ffa6
f72b
0469
fcfe
f9e5
04e8
fff8
0e8f
03a9
fee7
06e9
09d2
0f60
019a
0dbf
f13f
f451
0f35
f391
04ef
f4cb
037b
f3aa
f287
085f
f79d
0f15
0d4b
f3d3
f5f8
0c0e
0f5c
f75f
febf
fb7e
f203
0d9b
ffee
f7bb
0387
f701
0141
fec4
0a20
0daa
f7e7
f84a
fbcf
f93f
07c8
04f3
fa55
f147
0db2
f90c
0059
f6d6
0f16
0cb0
08cf
f49e
f8a1
0fbb
0c29
0cd3
0d74
077d
fb84
07eb
fc24
073b
f0ce
0abb
f2ce
0402
07f4
fa69
fb76
f96d
f29c
fbcb
0cf9
ffa9
fbec
f4b0
0650
f801
0f00
f972
fa8c
f013
0923
f06d
0ccb
0292
fe60
f831
0057
07ac
0443
f761
f151
f009
02c5
0eb3
0225
0387
f599
f7c5
0b83
fbe4
0a80
f324
f042
f0a0
0d49
fb78
0434
02ff
f52c
0c2d
0126
f11e
fb66
fb19
0f08
f5ca
f86e
0ec8
f28c
f573
0e91
051a
fa6d
fbde
091b
0b57
07d7
f134
fc1c
f01e
f8ee
f11a
0199
f2f5
0ee4
0b9d
0f8e
f063
0b65
f6cf
0bb0
f86d
0958
06d0
fa67
f2f7
fd36
fa06
fc1e
f7bd
015b
0f90
072c
f576
0c6f
0c01
f30d
01bd
0b9c
f6cf
0144
0117
f2b1
f475
0088
0b3e
0962
0970
0e48
fc79
022d
07c1
f2f9
f3b7
0179
08e3
0b23
f97b
f40a
fe0d
0978
fabf
0992
0b14
03af
f825
fe24
fe7a
f137
06a9
0d41
fc01
0f77
fd19
054c
04e3
fbc1
f0cd
f7dc
086c
f4e2
0a97
f8d3
0874
f3df
038c
f2e6
08b4
06df
0d67
0c55
f6bc
fb5a
f41e
f5b1
0617
057e
0978
fa41
0815
f8da
09b9
fd6a
091b
fa0f
f505
ffdd
021f
0114
0eb1
f87f
fe00
f031
040b
fd7b
0f55
fa95
0382
f78e
04cc
fdf4
016f
f7e3
fabf
0df2
0594
f673
0786
f308
0f8a
f331
fc94
ff02
0d9e
01b6
097f
039b
ffca
0a8c
0c49
080d
f452
0426
0394
0e35
039c
04d0
0619
0156
0bfa
010a
00e9
01c1
fcb3
01c0
faf5
099c
0862
f015
ff97
0f14
043c
f475
f26b
f8ed
f9fd
f272
fd41
0dcc
f6a0
f879
0b13
fe48
0bc7
0276
04bf
f4aa
0b31
011f
0a95
fa0c
0068
f4f1
fac5
003c
fbb1
0dcf
021e
00bb
f6fc
f00e
0aeb
fea1
f571
f4d2
f4cf
fe5d
0fdb
0aef
005d
0a3b
ff6e
0d95
056b
effb
f8a3
0c54
f086
f6bc
f8bd
02ca
f7a1
0222
fdaf
f18e
f6fe
0111
fb2c
0aac
fbe5
f266
f6d4
0bad
01f1
f600
0779
00ba
f13f
f617
f1fd
0888
f641
f7cb
04cf
fe99
0074
0052
0ad6
08c2
f2ff
f106
f23e
02c8
f306
fb92
002d
fe71
f14b
0760
0cb9
05f5
0bcf
fd1f
0d69
f4ad
0be2
0c29
f0c5
0008
0a4a
020f
0a6b
f70f
fb86
f164
05da
0345
f4fd
0c5a
0ed8
0d25
f549
0344
fd59
0f88
fab7
f3a3
f3ad
f770
fa47
f59b
0506
00da
f54d
fd56
f5e4
05a1
f77a
0f15
024d
0588
f32d
f0c6
fc3c
fb05
f5f4
0c2a
0ece
f7ec
f89b
07e3
075f
f8b6
f838
07b7
f071
0db8
fe9f
05fc
f01f
fc66
0251
f7cd
01ad
f60c
f921
f911
080c
f37e
0ffb
0830
f798
0768
f23a
f3ac
fe53
f10e
fc98
09b7
f313
f3e9
fe16
f75e
fede
0cc3
0491
f4dd
fd1f
f9c4
0f35
0b1d
f5d1
06aa
f8aa
f2e1
035d
0f83
f7ab
0a63
08ce
0fa4
0a2a
f16d
0699
09f7
0a10
0453
02f2
0ed3
0371
fdfc
f34b
f070
067c
01ec
0a83
f7f8
f4ac
fcad
f493
031b
f461
f038
f9e9
03d0
08d5
f6fe
f551
0a8c
0f5d
fa93
f71e
f757
07a6
f764
0bb8
fa2a
0565
f940
0243
f8c6
fa9b
009b
fc4b
041c
0e05
f317
0a99
f1b9
f734
08e3
0dca
0444
05e5
fad5
f5c0
09ff
fd66
0235
01f7
f372
f5a9
f59a
f1e2
09e5
ff6b
f626
fb38
0a19
f4db
fec6
f378
0637
f2c2
feae
f193
0eee
06f0
fd96
0571
0066
03f4
f6e2
f9ff
0bd2
f865
085c
f82d
f868
f962
f586
0797
fcf4
0f97
0c97
fbd6
f49b
f3bb
0816
f94c
f884
fead
0dd9
0d1a
0d06
f4dc
09f2
f7dd
f151
f7b3
0efe
f91d
faa3
f290
08c3
fe57
f8e7
08cd
0f16
0868
0d3d
f166
f9aa
0e80
f797
0585
f73b
f40a
f08c
f0eb
f7f5
f6ee
ff35
fc46
f8ff
f66e
f51f
f59a
f3a7
f7d7
0736
0709
0ce4
0a12
02b6
02cd
f5dd
037a
0b4c
f7f3
0c5d
fa84
0de8
fdea
fd49
0f1a
f034
f346
02fc
09c1
f633
0933
0b05
0710
f615
fff8
0a28
f49e
fd74
f964
0600
efff
0283
f238
0e0f
002d
0eb0
09fd
024d
0682
fb2b
f28e
0f5e
fa4e
0edf
04b2
00d3
0e14
fceb
0345
f2aa
05b9
00a5
f37d
080b
f690
f90e
fdc3
f680
fb23
0c0c
0273
f57c
f7a7
0035
0b6c
02bb
fe43
09ea
fd87
0640
f679
f100
f439
0a87
07ad
f62c
0a2f
088d
0418
f89e
0d34
0068
01e6
f06b
0985
f441
0890
f434
fe71
0b29
f7b7
0819
f259
0057
0a92
07e1
0c42
f195
f7c3
0102
0f14
0413
f821
fb70
f181
040f
07ee
f243
f0aa
09de
f4b3
0cea
fa55
0133
f9f1
03e4
fdf0
f8cb
0a2f
f5c5
0452
0ba0
ff0f
f074
f917
06ea
f567
0a65
f320
fced
fae7
0262
0492
f64c
07cb
00f6
0701
fbe4
fa15
f55e
0f63
064d
0faa
0ad6
fa1a
fcbf
056e
fbf1
04ff
f099
f892
0c21
fb99
0cde
fe25
f6ea
0e9f
f430
fc1f
0812
f169
f82e
fa07
0cbe
03cd
f0f8
f03f
f4e4
fbbc
02ca
0a17
0b91
f91a
08ef
02da
0198
0601
0e40
0152
f7a1
f932
0875
07dc
0c0b
0de6
f984
f601
0e73
f93d
0cb8
0ca9
07c7
fac9
0bc6
04fb
ffd6
0e82
f433
fbcb
f9fe
03a9
f364
0783
f439
02a3
fc0c
feda
f825
0961
f877
efb1
0f1d
f0d4
f9a3
f145
096a
fd87
f048
f3cf
094f
064b
f80d
f48d
05fe
f48e
fc85
fa2a
06d6
041d
0d5a
fcb4
f48a
f034
ff0f
f69f
f93a
041d
f6c5
ef32
05df
f38a
0f27
facb
f04b
0a3f
f7e3
0a52
f9ce
f7ee
0c3a
fbed
f5c0
03da
f15f
fd12
f6cb
fa9e
0144
0dab
f2f7
fc92
09cc
fb51
044d
f779
02ef
f4a8
0f06
f876
0b06
07fe
0e49
fa7d
01d6
fff3
f6d3
f0b2
0cd2
f1d6
06e1
0e50
fd3b
09c7
0e25
0053
fd28
0752
f39d
f573
06f6
067c
04cf
0389
0ae5
f358
0dd5
018b
0c8f
efb8
f2ae
ffd6
f6c8
ff3b
0553
00a0
054c
01f3
025b
fcc2
020a
fe0d
0f53
0688
014a
f99e
00a5
f726
f258
efe5
f44b
0e4d
f9f3
f648
040a
f28b
f3f3
fc76
06a2
f3de
09d7
04fd
f8ac
01e5
0ade
033c
ffb0
05aa
f409
0691
f5e8
0203
08c3
f7d6
06b2
fc0c
02bf
fdba
fe26
f4ef
fb85
0f41
fb2f
0a0f
f806
f17f
0f7b
f2de
075f
fce7
0690
f93b
f886
0c9b
0aca
f694
fbb5
f527
f59b
fae2
0c0e
0c99
fb39
07b0
f943
09d5
0e4e
f93e
0be6
f79d
079b
fdfd
01b4
08c0
fbc5
fdb2
0e56
0abf
f5c5
fbea
fea3
03df
0771
fb0f
fe2d
0739
fb52
01c9
f865
014e
fc83
f4e9
0e37
0043
0ab4
0024
04ab
fcae
fe06
fb8b
f0a4
0ce8
f7f5
044e
0322
fba5
fac4
f29e
fcde
0cf5
fe19
f645
f496
0cbd
f29e
f56e
0433
f516
0263
0566
0115
0950
fbb2
0ac3
f3da
0e75
000d
ef60
0df5
f1ad
f766
f4ce
03be
07cc
03c3
03b7
fe04
f00f
02c9
06ef
f563
0822
f8f9
08a1
0d90
fead
0df4
093d
f833
f4f5
0b81
f83b
f539
f6c6
0853
fc0a
00e4
0744
f2fe
000d
0f51
f571
fe4d
0117
07a7
f54e
0546
0384
062e
ef25
f421
f626
0a8e
07da
f28e
f181
fade
06a9
f4f0
0a97
f78a
f2b8
fd12
f39c
fc22
f13a
09a4
02df
fb2b
037b
0a77
02c6
05ac
0ecb
f3bc
fe16
0a9f
f108
f4f6
0408
f16a
06b7
f20e
08e5
0fbf
0d51
f453
f228
f9e6
f6f9
f4f3
0608
0863
ff99
0990
0be4
f6ec
fd8c
fd9e
f4da
fb6b
0abd
0729
f0ac
f94e
0e2f
f0ac
feae
fe0e
0bba
fbab
f891
04de
04d8
efba
f61b
f4be
f9db
f364
f76c
0f15
02bf
f2bc
0dfd
0bef
0f63
f1df
04f5
f43c
f4b0
f074
f2c9
f69b
0d1d
fc26
fe71
f3f5
0bdd
0a43
fd64
0e01
f4fe
0650
0a21
0c97
07da
0d1e
062f
0eaa
0a86
0a49
ffa2
fa27
0b59
fa6e
f829
0aa7
f13d
0441
fbb3
fea6
f140
0a26
0bd0
f0fd
0a1d
0406
038d
f08c
effe
00a5
efab
05fe
0f55
0b49
0985
00f9
04d0
081f
05f4
fb25
f9c8
055f
f4d8
ff53
0396
03d6
f9f8
f851
fdc1
fc48
0978
efdd
0c3a
f765
f8ea
f329
f39c
0c3f
fc9f
067b
0ae6
f7a4
0dfa
f22f
08eb
f485
0bea
0dd9
0591
02a4
0bbd
0e49
0326
f476
0b7f
0bec
f6fe
0629
0acc
f70d
f046
fe1a
0ea3
0bf2
0bd0
fb6c
f0cd
08d4
0ed3
f895
fcad
f192
0c5b
f812
0f36
029f
0804
f749
f479
ff4e
0868
0b9d
0ec8
035b
0542
ff81
f04f
0aab
fac3
09f7
0e55
f65f
0f87
06fd
0a33
057b
f702
07f5
f8a5
0a8b
fe06
0c46
f33f
090d
f4fe
fa54
efe7
0e3b
f0f5
f665
f1ac
f5ca
f3c2
05a3
f3a3
0d3e
0d6d
fd07
0153
04fa
0cf6
fc84
f6ab
f9e7
0211
f8a9
f461
0409
f830
0403
0a17
0544
ff19
07b7
f976
f315
0767
f719
f1d0
f3a7
020f
fbf1
f88f
039d
057b
fbfe
f47d
f199
0b5b
09de
0c90
f355
f20c
0f24
0006
f163
039c
009d
0b1f
fcdc
fb72
fa42
0928
0b67
02cb
f141
f9eb
fcfc
0dae
0a45
07d4
f604
f08e
029b
005d
030d
04fc
ff39
0d41
0209
02eb
0356
075b
051c
0934
0a3b
0aeb
f837
00a8
0ab7
fee0
01b9
0852
fa91
0603
f407
0bdd
045f
fb14
f43e
01fb
0a61
fe70
f027
01d0
fc9a
ff51
fcee
fddb
f0fa
f750
f8a2
fbe6
02b2
0914
f03f
0c63
0425
f680
051b
0cb8
f970
0448
fe36
f672
09e2
f4d3
0844
f722
f1fc
03d4
0cc6
01d8
f1c1
f088
08c7
f6c9
0828
fe83
f3d3
f11a
0879
ff3b
f36d
0e2c
f6eb
0505
ff17
ff29
027d
fab3
fd4c
08c6
0e3a
0702
0472
f0f8
fca3
06a9
03b3
f940
053e
fac7
0c43
f954
fabb
fba5
00af
062d
feb4
f12e
f08f
f57b
08c9
0b92
0b89
f42e
0611
0f0b
fe22
02df
ff4c
0f39
068f
f6bd
013a
ef67
f5fb
0ac4
fba6
0f2c
08bf
ffa9
fd97
03e9
fa19
f99c
f1bd
0b1a
f499
ff9b
0c52
0e05
0b85
f05a
faea
0389
f74c
fe29
f933
0599
064a
07de
f275
0304
0924
049d
f820
fd19
060c
07be
0ca2
fe62
f231
0777
fc0b
f7d4
0b1c
0422
f5fa
f015
0ddf
f156
0241
03b2
062a
f3be
f792
fac1
03c9
ef75
f826
ffae
ff5e
f72f
fd04
0aa8
f8b7
066d
0185
0e1c
f07a
f996
f457
efc4
0c7f
f809
f35e
f9dd
05ea
0839
004b
03a4
099b
f368
ef8e
f1a8
fbbc
0e01
fe0a
0756
fd7f
0428
0d29
fb2b
fb91
efe5
fecc
f1db
06ff
08f1
f98e
fb4f
0574
f1f7
f3fe
0708
0eaa
f584
0007
0dfc
0577
0a68
f21b
f313
0a01
0dfd
0841
019f
f9d6
f8c1
063a
098f
f0fe
fdbe
0a90
fc5f
fedf
0da0
f63d
f2cf
f09d
fc16
094b
f26c
0955
f0b7
03e0
f335
018e
0e0e
fe5c
f992
0175
0ba7
03f6
ff77
09e9
f01b
054d
fbb9
f72d
0ee5
fe95
0ad1
ef9c
0cec
0a0e
0dfb
0b25
0785
007b
0b5f
094c
f512
0674
0de1
f4ce
fc96
025f
f89f
f6c7
f2ce
064f
f240
f01d
06a6
f867
f588
f71a
0666
fe62
f4df
f1fb
0bfd
02ac
efe6
ff75
f737
f7e9
f57c
f624
fc24
0c53
f6a3
f34f
091b
0040
0cd5
01fa
f269
0b2f
0482
0342
08f6
02f7
f20b
08aa
0849
fc57
f4d0
fb21
070c
ff44
f3a4
07b3
fbcc
fb8b
0a5f
0359
06a8
042c
f4d2
038b
044d
05a4
fd5d
080f
f05a
0ef6
f4d6
0001
076d
0af4
0b18
f1b0
0018
fc73
f001
fb0e
06b8
020c
fe57
f646
04d4
099b
094e
f281
f14a
f258
05f7
f7b9
03e4
f623
0ad4
f53f
03fe
f183
fdf3
fc5e
090b
f997
0d7d
0c38
fe00
0d73
fc7d
0efd
fba6
fc3e
04a7
0088
0e72
0d41
0f13
f442
08c1
097a
fdef
05b0
0613
f185
f103
fef1
fb9d
f601
fbf5
0cfc
fb5d
fe74
0289
fd92
ff7d
0c3e
08e2
0338
f1e7
fa03
f67e
f456
f05e
0cd3
fd8d
f9c3
0d2e
024c
0184
06e9
febd
0890
f778
0c92
0091
f9c9
fec6
0269
f3ef
ff82
0dc0
f2d8
f054
fb49
fd9a
fc14
0fbf
0d49
0e17
0cf0
f7c5
f73b
fdcb
0202
fe8b
01ac
fa4d
fc00
0486
efb4
06d7
024d
f60d
0e85
023a
0575
0553
0e55
0dbf
f53f
fe59
efd5
fed9
f599
0851
f23c
0fac
0674
f486
035d
f578
0e84
0ee1
fcfe
f5a4
0869
f7d0
029a
09dd
f6b1
f789
f1c6
fda1
f215
f0aa
fe4e
f688
f3d5
0c30
04a0
fb5e
08d7
f008
f71c
f3d7
0a50
fc82
0805
fe0e
fad2
08a7
0f91
f7ad
0d55
029f
fdce
0f0c
0361
0f58
fd9f
fa5c
0848
f18d
f4c1
f233
f93f
f5a9
0de7
00c5
07b0
f9b8
09ef
0218
fb20
ffbb
0767
0aa8
020e
fdba
f56c
f285
f3d7
06c8
0e1b
fdd1
ff37
f9b9
f89d
ff16
fb77
f3bf
fbb6
0a37
efe9
ef56
083b
0e8a
0dda
f1c5
05c3
07ac
08b3
ff91
ff6a
072e
fd4e
f6aa
05ab
f3ab
ff27
fb49
f0fb
0edc
0e14
09d1
0d50
01eb
0dfc
04d0
f5c9
f884
0eeb
0538
ff00
041b
ff30
f41b
003d
f937
f93d
08f6
0f13
fb1b
f90e
0aa9
ee68
faa4
f645
feb9
07da
f3e8
f073
f498
f020
f161
f61f
077e
026a
004a
fa31
fe8e
0db5
0f61
f5e6
0e51
03fa
fe1e
0157
f47a
f544
f7b3
f3c8
fb29
f978
fb45
07db
f3fe
f9d2
03b8
03fc
f895
0d2f
0445
f61f
07b4
fa3c
0caa
f631
0154
ff5f
0c4d
f811
f7ae
f3c2
0264
fa50
020f
0656
00d4
0439
f9a3
f6ca
fbe1
0da9
f23e
0331
0000
f00d
0d31
0d66
f502
0e0b
f815
f9be
0185
034e
f79b
097a
0976
0919
f4e8
f267
001c
0fa7
031e
fa10
0466
0142
f6f7
f353
f166
f7d5
02b7
fdcb
038e
fd16
035c
ffba
07cf
f3d1
fdde
056b
fbbd
eff3
0c20
05f1
f58f
fcf8
0484
0308
f576
0401
fb9c
efbd
fe82
fdac
095e
0681
f049
f12f
0d2a
feef
0ab5
f593
0ef9
fc52
f4a8
0005
f287
00f9
f0a8
02fc
0f25
f088
01a3
0ddc
0f7a
03ed
f6d6
0d5b
008a
083e
02af
0de7
0fd0
0a3c
0d4a
f567
f791
0a9a
0010
071e
f993
fa26
09c1
fa3c
0825
0a01
0aa3
0250
fae0
0909
f737
f435
0e01
f0c1
ff23
0c9e
f5c3
ff4b
f02c
f1f2
efae
f83b
08d7
0d13
f506
f777
f8a0
f2e0
fbfb
0d11
fc60
ffeb
0a63
fb8f
0d65
f968
0558
062b
089f
f9de
0e7f
0e0b
f801
ff19
fea3
f4a4
0132
0d2a
f4c8
f586
f8c0
fed2
fc28
0cdc
07ef
f99d
0395
f99d
fdce
08f2
fe7e
f099
fbf0
0468
0e63
0a41
fc0e
fcdb
079b
0bd6
f44e
f412
0162
0975
022c
fdab
f18e
f8df
04ad
fd86
0738
00e0
fa3d
fea1
0847
f4c6
fbb6
0fb7
f382
f710
f79a
f8d8
0716
060e
f769
0a49
fc3f
0711
f4ae
0269
f747
ff4f
0367
f193
fab2
f94e
ff8d
04b8
f437
fe79
07fe
f01d
0334
f150
0333
0836
f91c
fb97
f017
f779
089c
f4f0
fc91
feb0
0de7
05d6
f681
0066
0a52
f178
ffbb
0f8d
efdd
effb
f0a0
0ac6
009c
f602
f532
f8b0
f50a
fa4f
0e29
f86c
f45f
007a
fa40
003e
f15a
0f38
f3f1
0ded
023a
0d24
fdfd
065f
f1c5
0dda
f5c0
f1c4
0f6c
06b4
f4ce
fa89
02da
0384
02c3
f8f1
f9d1
0934
0004
0c66
f54d
011f
f124
fa6a
f78b
f8c0
efc2
f06a
efcb
0d16
052f
feec
0ed5
fe5e
095d
fef9
fe3d
05a1
09a4
fd8e
f6ef
fc87
f57f
021e
0974
f537
f311
0266
0ecf
f810
081a
f760
0ab4
f2aa
fade
f7cd
fd3d
0e62
fcdf
fd82
0df1
f867
f19c
051f
f8f8
f58a
06d4
08fa
03dc
0583
f914
f67e
00ba
f49e
f6c4
0033
f098
f05b
fdd0
0e74
f40c
07e6
0b96
0e5a
06bf
fa2d
0e44
04e7
fb3c
f55a
00d4
f6c0
05d1
0e6b
efd8
0ec0
0f2f
0daf
0b94
fb7b
f049
02cd
fd62
07f9
0b54
ff32
0295
f9a8
0b53
f7a9
090e
f365
044c
fbf8
f2fa
0c99
00dc
0048
0e55
fdb4
fe6b
0860
01b5
0cbd
0f69
f9bb
0f3a
f429
014a
f11d
f2ef
fcf4
fd9e
fb99
09aa
04de
f58d
027e
08ed
fdea
f599
fc69
06d2
0547
044d
f1f1
f8b3
f704
00a4
0f5c
0f5d
08cd
fd46
0846
0265
f421
ffda
051b
0b1a
0539
0616
f6ff
f582
0e36
f352
0307
04bf
f65e
0ad4
035a
f8da
07e7
fdef
01ac
fe06
f6a7
04a5
ff49
fec3
0914
085e
0346
02d8
0c2a
0d26
f26c
fbcd
0f80
fe2f
f2b5
0c8a
0f2c
f138
079f
0e42
03b0
0080
f494
fa96
f68f
089c
fc18
f2bb
fed5
f98a
efb4
f63b
f8ec
f353
f80f
0a43
f6bf
0bc9
02b5
0d56
f928
0282
fe5c
09bf
ff3e
0b70
f4ee
0f0b
0008
000f
08c2
f9a2
fc84
0375
ff59
fcdc
0ceb
0797
0cbc
0231
f835
f4b5
f7d4
011b
f4ed
f351
0b2f
f109
0770
fc9b
f348
05d4
0133
f1c0
fa9c
fc8f
06f8
f64b
fbe0
ffb1
04ea
09bc
f09c
0445
010e
0d20
0303
0769
0bcd
013f
f2cc
f7de
0ded
f9be
f327
f7bf
ff84
0f4d
0b71
f6da
0f34
0538
1071
0ba9
0dd4
f32f
ef48
f0a1
0b07
04f7
f22f
0887
0416
feed
fe18
fe04
f41a
0947
f040
0bc2
01e0
f637
f775
0dcc
0770
056a
07e9
f02e
f549
0a49
0d98
0f6a
f4bc
f669
fbe4
fb52
f68a
024a
0384
0996
f434
f01d
f545
fd79
0bee
f649
fdad
f99d
f7c5
0846
fab8
fb99
fd20
f806
0528
0785
06c5
010e
f495
f309
f0f0
f80f
f83e
033b
faa3
fd8d
0dde
f895
0dad
ff68
efb0
05ce
f5ff
01af
f4ac
f823
ff53
04f5
faa1
0756
0654
01da
f48e
fad9
f519
0cfa
f6c3
f6d1
f241
0093
f726
0101
fbef
0b28
0211
0015
fd29
0bea
f2fd
fac5
f976
feff
efbf
044e
feea
0608
f8c6
0b02
fd6c
f7b4
f8e3
0729
ff2c
04a4
fda4
0ad3
02bf
09e5
fb8c
04a9
fd83
effc
027c
f339
0b5b
0bb5
f9cf
f2fc
f6a9
f3c8
03d5
0e08
04a6
0eb3
0586
090b
f471
f750
0f7e
f41d
0d2d
08fc
f255
0de1
ffb3
046e
046f
0b9a
0ec4
0130
f748
02da
fab0
01ea
f1c4
fe66
044d
fe42
fbba
f0d6
f524
091f
f061
0b91
009f
fa30
0819
f152
0e35
f7c4
0828
0187
0284
02cb
0bb1
07b8
fb9b
fb74
00fc
07f2
fdeb
ff39
0dc3
06cd
f90b
f93d
f245
f4fd
ef7d
f1fa
0c66
07c6
0f5e
fb4f
f6da
fd55
0aba
f938
fa2f
f076
f614
fb2d
f08a
0df7
fff9
fd7a
f941
0096
0cad
fd1c
f100
0d12
fa71
f2f1
f903
f266
fe2b
0049
f4cb
07c4
fc93
f24f
0ae0
08ce
0c3c
0633
0692
0de4
fd62
fcd6
0d4e
f82b
01c2
f14e
032a
f6ed
fcc6
fcfb
f401
0c65
0b1b
faa5
f844
f746
0d3b
0876
0dd3
f7e9
fe76
fa85
fd31
f224
f41b
eff0
05fb
07cb
0c8e
049a
f730
0429
0725
045f
f3f0
f164
00ed
f1d0
fbfb
0525
0512
0160
fc89
f2cd
fe02
0d87
ef4e
ff7d
00b3
0a4b
0c50
050d
05b4
0a53
f5e3
08e9
f3f0
fd04
f2c6
fa08
fcac
0462
0828
07b8
f8c5
0f39
02c2
075e
029d
0c90
00c6
0c3e
0ef7
f5af
f25a
0989
fb11
0518
fae1
05b6
0450
f549
06be
0b3d
f8ef
f8d5
066f
f2b6
07db
09e8
f547
fbd3
ff6e
0e75
f324
0e67
0eb6
089a
0ace
f984
0ddc
f96b
0cb5
095e
f125
0601
fe6e
ffae
fca9
f428
f8e4
fe3f
fa1c
05ce
fd47
03c9
f02c
0e87
0962
0609
0ad3
0b70
0b8f
f6bb
f07a
fc84
068c
f696
ff15
f0d5
07e4
fead
f0ba
0d85
071b
0a5f
f602
008f
08b3
0f3d
f16d
fc36
0cdf
f7b6
0ce4
086c
075e
f6ee
fda4
f98d
041f
f747
0431
0524
ff22
efc8
fdc6
0f01
00d1
01e1
f696
05c2
06cb
08df
0b9d
f6e6
f181
f4a1
0124
0ecf
f50a
f8c2
0e99
f8d9
082c
ff14
06d6
05d1
f87a
06de
05d5
0efa
0b74
07e0
0a70
fcfd
f2ee
f0b0
fdf4
01de
f043
052e
f643
f70d
f150
0b9f
f738
f28a
0b93
0cde
01ef
fcd7
0093
0e4a
f450
0524
03df
ff4e
f881
fab9
fe9c
0b8d
fe6d
f442
f648
f8fa
f292
fd41
09cd
f6ea
fbc7
09bd
f251
f1df
f067
f043
0e99
fda5
0969
f38b
fe79
f9a7
fe49
f14e
fa8a
f4b8
f1f4
f3f6
0457
fa6b
f8fa
f9a2
0681
fa36
f4b6
f627
0870
f066
fab3
0401
f322
034b
fcd0
0d8d
0777
f5ba
0b53
0c81
0b12
088d
045b
0c56
f217
f462
06cb
f9dd
facb
fc3b
01c9
0334
fda0
f622
0a20
0dc8
04fc
f44c
07e5
0a81
faf2
f715
031c
f50d
f37f
0ac3
f421
05bd
06e1
f65c
f242
f053
f8e8
01f1
fccd
01fd
eff2
ffc6
021e
0c44
f054
048a
f8c3
f0dd
f9c5
0234
0d74
f2c9
f9e1
0e93
fe8a
fa7f
fe2b
09f2
0d30
f7af
0569
fe35
0188
f160
0811
0668
f6a2
04cd
0775
0843
f911
f07b
ef67
fdf9
f207
fa41
fe3b
01ec
ff8d
f4c5
f6d1
f8a6
06e5
00b0
0a88
f20e
0814
f7d6
0ee5
0ec1
f696
0039
0f34
f48b
fa62
fd7b
f60d
fda1
0b19
0913
0891
0666
f53a
0cf1
f2c8
eff1
0c7c
f584
f9eb
fac0
eea1
0bb6
0b3c
0e22
f821
0060
0709
ff89
f4ae
0510
f948
f87e
f615
fa8b
0f0c
f3c1
0021
f3ae
0776
f024
0023
04f5
096d
0952
f736
fc57
05d1
fe58
ff2d
fcdd
00b3
0edb
fa03
f099
0db5
0d26
f38c
f9ce
fc9c
f74b
05ee
f27a
00dc
0dc2
f57a
f0c2
face
0da1
062e
f605
f4df
f0c9
0669
f580
f356
fcb7
0ea1
ff0d
0aba
072e
f753
03d0
0f5a
ff3b
0ac2
05f0
057b
f7b0
f034
f90e
f7d9
f0e8
f0c1
fa2f
fb97
0ad7
0be3
02b0
f7a0
f8f6
fd91
0c1e
f737
0836
fb1e
069b
0a63
0a78
f6d1
f036
0dd6
f3e0
f7cd
0402
0a10
0094
ffac
f9f7
053d
0a75
fa1f
09d9
f296
0bdd
f5d6
0812
0627
088c
0bcf
f413
f45b
070b
f17f
eed0
0b43
0453
f2d8
f3f2
04fe
f541
01dc
0fe8
026d
0b55
086f
fae1
f9ba
f9b8
0ea7
009e
0daf
f35b
f706
f85c
fd6a
f160
ffab
020a
f37a
0752
f4de
fdd9
0824
fc98
06a6
0c2e
f0f3
0013
0429
0920
0fac
0095
0cd1
f8f6
0c9c
0e93
f1b2
fd34
f2b3
f4ae
ef0a
f276
f8a2
fcfc
01f5
02e4
fd1e
fbae
0d44
0ae3
ef61
0bf6
fe61
01d1
0843
f937
029e
f5db
f104
07f5
f33f
fc8c
03b9
f095
f7c2
f0f0
0466
0658
f7a4
0b09
0a5d
f78d
08d3
fdb7
fff6
fc71
06a5
f6f9
072e
0e10
0ca6
0b48
03f3
02d2
0c1b
f958
f55f
f47b
0da3
fbe3
0c83
0e42
f406
f8f5
0965
fbff
0a93
024e
f1f9
0ca6
fb51
00a1
fd52
0713
fbf6
0925
0d52
03bf
f52d
08f2
f47e
f350
f79a
0436
f9c5
0c94
ff6f
f5fa
088f
0bac
f4d8
f79d
f536
03ca
ffd8
0d35
f45f
fea9
0708
04a3
0806
0cfa
f299
fe4d
0709
0154
f487
0dc7
0781
0b65
f3ce
f26b
efa7
002f
fb8b
f9d2
f981
f398
0619
f47a
f067
ff82
0b56
0587
049c
077c
064c
08b2
f739
042c
09ed
0a2c
0cba
01e5
015b
055e
fab5
04e1
f72d
076e
ff65
063b
03f8
03f7
f737
f50e
02f9
feaf
f139
0b00
02fb
f747
0145
fcb8
00c2
f720
f84f
0203
f75a
0d93
07d9
0b35
f714
0c2e
f5e8
05fe
fb5f
f5f5
0433
091b
0277
06fb
f133
0c6e
0f3d
0770
0702
0606
0184
07b7
061a
fa4e
fe0e
013a
002e
f79d
fcde
fe24
09aa
0b89
0861
0a1d
febb
ff70
01df
01a6
f6e6
0283
09f4
0999
0b10
fad1
04bd
044a
f209
010f
038e
fc19
f9ca
fe82
09dc
fe7b
0c0b
fd0c
fab1
0d47
f824
f554
f489
f5b7
f326
0b9e
0a76
f20b
f5b7
01ac
f172
efa8
0703
0770
0955
0927
fc8a
0799
f070
0286
fb79
f24a
f42b
f4c8
06c8
075e
fdb2
0803
f640
fd2e
ffa8
fbc4
03c2
fb30
fe3e
fd14
f03a
f9d5
0b2c
f493
0567
f3e8
0698
06d2
0bc7
0a07
f735
09c3
efa5
fa52
fd4a
f7b2
0ddb
f98d
055f
fdd6
0815
fcd4
f550
ef88
f7e9
ffc5
efed
0b78
f8d3
f0e7
f2cb
fab2
f948
09f7
0bbb
f730
f442
0b11
f856
f88a
0ea2
09e1
0b7b
0701
0071
04b5
02f5
f12a
f07c
0d20
f30f
0ef4
02a5
020f
09f4
0e01
08e5
ff58
f241
068d
048f
0d1e
f7c0
0e00
0c1d
fd20
fd05
fe60
fd45
f095
f36c
01a5
0b19
0a5b
0979
0f1d
0a05
fffd
fc36
0125
fb0d
f91b
f3a0
f264
03f4
fe13
09bf
f515
0643
0f06
095a
f62a
f766
ffcf
0b7d
0405
fd89
0151
f553
0833
f375
017a
0be9
0547
05c1
feee
0d22
0987
0876
0a90
0114
0b8d
0372
0651
f762
fd70
014e
f6d6
fc75
0d12
f9c7
f21a
0aa4
f8d1
f432
ffd6
079c
f414
fb3b
0b01
0c22
f6ad
fba1
f511
0cee
fcca
0f46
08c7
f551
0865
f511
0f23
0713
09da
0002
0b61
fe62
f190
05e3
0901
0eba
f9c2
0345
0ad0
ff01
0551
f49c
0a8c
f3ab
0829
0a2d
0a65
062d
f9cb
0d28
f9f8
fb2b
061f
06de
f882
038b
f568
0122
fd78
0c83
ef58
0286
04f1
f593
feec
fd27
fca9
f2a1
035f
05df
f750
f9db
fe66
0a96
fdb3
f5a7
ff45
07b7
0f5d
fffa
0fec
fba7
0da4
f7d2
03e3
f371
fa70
055a
0b39
f7b3
0a92
fd77
f127
03f7
07cc
fdcb
fa9a
f421
0570
f961
0082
089b
07f3
ff9a
0406
f9ca
038b
fa33
f5d0
0389
efdf
f95c
0116
0220
0115
03bc
ef47
018f
05e9
0d02
f455
f05b
f6d6
fbec
f3a6
03bc
f0aa
f3c8
0235
ef90
f2ac
f742
f63f
02fb
f32a
f6dd
0e86
09be
fd32
f425
0b77
0bd0
07cb
ffbd
0b21
f8db
f7f9
0e3c
f107
f81a
0858
0d29
0bbc
003a
0efa
f406
0e05
08d8
fe3f
feee
f6bd
07eb
030e
0e33
f8f2
fd33
0a32
f4b6
08bc
f94a
f861
f911
f459
0537
fe01
f70c
0d00
f932
fa4d
058a
f46c
014d
0657
fa50
07b2
fdf2
0a13
0525
0879
f05a
ff2b
f836
0e1e
02bf
ff59
02cd
fd76
f4f4
f302
ffdd
f3d7
07d7
03b0
f1ba
0df5
0e0f
f8c6
0ed7
fdd3
f718
03b0
0db9
0763
f40b
f28d
01b8
fe85
0d67
f577
0a92
0392
f2fc
f26c
0560
f24c
04ef
00bf
0d00
ef72
0b77
f57a
f171
0b34
0765
02ba
fd64
fcfd
0bdb
0497
06b5
f395
039f
f375
ff56
f0cf
07dd
ffb2
091b
f0bf
fd65
051b
f38d
f548
0f73
09a3
0077
09c9
0310
05cf
0920
09c7
006c
049e
0eec
f9b1
f7fd
075f
eee5
0737
01bb
efba
fb2a
f091
fcbe
ef6c
0bec
0049
07fb
fbfa
f589
f0e9
fe4b
fc21
084e
053b
0891
0ac0
00af
f45e
0633
024b
0210
f936
0074
0e5a
02ac
ef58
f7ef
f30d
fe43
043e
0eac
0954
ff74
0398
f132
0a3a
f7fb
f5f6
0b11
f5d0
0633
0506
f1a2
f838
fca1
fe25
fb1e
0710
0198
ef7e
f9db
f5e8
0a18
f16f
05d6
0b92
ff2d
0d8b
0182
f5c0
f449
ef62
ffb7
efbb
f573
09eb
fff4
fce9
fd0a
0b18
01da
f57f
0150
f62c
096a
0d70
0afa
0913
09b9
f7a1
fdd3
0e6f
f0b5
f8f4
febd
f819
0389
ff46
f825
05f4
02a9
f5fb
03a6
fd0d
00bc
fa9f
f09c
09b4
0f14
0e70
00bb
fc00
03b0
0257
f203
04d7
0e1a
03e8
f6df
f895
0db4
0849
0259
07f4
fefd
023d
0d64
0411
0b98
f10d
f1d6
f91a
f532
fe1c
0473
04c2
fe19
0041
0572
f045
f473
fbef
0861
fe39
fe0a
f263
06e2
f8e9
0565
0e2d
fe5e
f6ac
fd12
03c9
00ab
0a32
f742
fd6a
f108
ff44
f385
f9ff
08f0
f12a
f11f
f130
0833
093e
f834
fa6b
f304
f295
02e0
f6c0
0a8d
f192
0135
f414
09b2
063a
f21e
f914
030a
fd3f
0e05
0eca
030f
f1bb
0419
098a
0c62
f6fc
02a0
06dc
f7b5
090e
04d6
0847
0eb3
ef7e
027e
0e29
04d2
f9a7
fc4c
034c
fe8e
0465
0f67
fa42
f951
f690
02e5
f7d7
0f00
ff04
0315
0bd8
05e7
f71f
f7d2
ff38
f608
0cee
04eb
0963
0efe
f434
fa75
f319
08dc
0b13
f88e
0372
feb8
0bd0
fc50
f7ab
0847
0087
feaa
fb31
fc17
07b3
041f
0d49
f55a
01c1
fafa
0b1b
0251
fa97
07ec
ff12
f2e1
f0c2
f5d9
f08d
0f64
0b3a
effc
f338
0d93
0d59
0c4b
fbf0
04c9
f098
f1f4
02ec
030b
0442
049d
0cd6
0e90
0c89
0276
0bd1
03ae
fbdf
0850
08ea
0cb8
f6da
05fa
094b
ffc3
040c
f093
0034
0739
f742
fac6
ff3b
027d
f236
0bd2
0a9f
f27f
f487
fa86
ff84
02fc
f653
0da3
fe28
feaf
0774
fd15
0127
0b15
09eb
0085
f293
0bfc
fee1
faeb
f789
0b92
fcce
f176
0b90
f91f
0820
08c0
efe2
0924
021c
0039
ffc8
fc25
f2c9
06cc
071a
0e48
0693
0a59
f489
0bd9
081e
f227
0e22
0b25
ff9e
fa1b
0b01
0435
0f42
f0f1
073b
ffac
0454
f738
0b31
f6b9
0b72
08d3
09e0
026e
0a6c
f60c
08e2
023d
07f0
03a2
f76f
f2c1
0a0d
08f0
0794
0472
fd0f
fa4f
f777
0374
f4a9
0acf
0beb
fec3
f203
f6ef
f82a
0eff
f7bd
0abf
fa38
fd70
f452
fd15
f4e9
0d32
fb36
f795
fc35
f882
fa59
facd
099d
03f3
fd98
f274
0ae3
046b
0003
04a6
00ce
fafa
f9e0
0ac8
0331
06d9
00c0
0116
fe98
f2e8
f83b
f149
0f26
079e
f23f
0059
0181
f650
fcff
0710
f466
0110
f174
037c
069d
f0d7
fb90
fee7
0112
f5d9
fe87
0f8e
0010
05fe
fed9
0725
f3a2
0c50
0997
fdb7
0361
0f36
f3a8
f7fe
f0d0
f6e9
ff8b
086e
ffc1
0ba9
f1df
f429
fd11
0b42
f99a
fc1f
fb75
04e7
02b5
f202
09a8
07e5
0dfd
f088
fb27
0595
0c86
f477
0b03
0f32
0bd0
0ee8
f5a1
f87d
fe41
fdc6
057f
f982
0b97
0766
07e6
0695
07b7
0fbe
029e
048e
0d79
fd2d
0062
f21c
01ce
f7f0
04ae
ff4f
0776
038e
f7b4
0d99
0d96
f1b4
f8ea
f29b
00d3
071d
0d79
f272
f523
0655
fd94
0084
0344
0768
f466
082b
0e40
fb9a
06b1
fcf9
f799
fcfa
0c1f
fe8f
0f0f
0f4c
0bae
f680
f8d7
f2e7
f240
fa2f
0b1e
0854
05e3
043e
f3dd
0e0a
093d
0bcc
0346
f794
0dc4
0798
07ec
02b4
0692
f4d1
f675
05bc
0017
fdf9
075e
f401
fa5d
07b1
f678
09ac
0e34
f263
02a9
fde2
0723
0d22
0c19
f185
00d2
0c22
0134
00b6
fb7b
f533
01b9
f632
f32b
0892
f470
fb32
fd4c
f47b
0fb5
0c71
0745
fe80
0780
0c02
f49c
f3d2
028f
f910
ff07
0ec0
f35d
f70b
f4e5
0468
069c
08f6
fef1
074d
f601
016f
090c
0b20
0048
03bb
fc51
07aa
09fb
ff77
fbab
0ae0
f55c
025d
f643
0cdc
0b1d
f40e
07e1
f94b
0859
0730
f7bd
fe12
065b
f010
0128
03f1
f4cb
f0fb
f582
07dd
f0f0
fdd2
fd71
f2af
f857
f462
0b1c
08c8
05cf
0607
06bb
f829
f5e0
05f3
ff09
035e
fe71
f6f7
f512
f3a5
fd01
073d
054f
fba6
0548
f3b2
f238
0a40
f42b
ffbe
fc8e
038c
0fa6
0184
f9d6
f8f4
0964
0599
f22f
06c4
0721
0958
f8ea
02de
fadc
09ae
fa24
f0ee
066e
f0ba
f840
06d6
0213
f8a3
0cf6
0ae4
0781
0ea2
f76e
0c9c
093d
f228
f3fd
efac
0764
f104
f784
036a
00ac
f0d7
03d1
fbdd
fbf3
0492
f07c
00a0
f5a0
f638
f2ad
f16c
009b
0df4
f0a7
f860
ffac
fc54
f347
ff4b
fec0
fb17
efd5
f97e
f79e
008b
faf8
050c
0885
0bca
0bf1
02fa
f79a
0e92
fc9e
fdea
045f
05cc
f4fa
fc29
0f3b
fe38
0675
ef9a
00ac
0c5f
04fa
0b28
ff2b
0b14
fed6
fbe6
f6a5
0edc
03b0
05de
fcc6
020a
0b34
0341
0b3d
0bd0
f7ff
0512
faa7
0d31
0cc1
fc72
06db
f9d8
fbda
042f
f0bb
0423
0f77
0536
009c
fb3d
f8cd
06c3
0ce7
fb98
0ec6
03e5
05ec
eff1
f67b
f369
fb7f
fa99
06c3
0b5f
05f1
06a2
0a2b
f358
05aa
f28d
0d20
fd7b
ff67
f402
f965
f845
fe3a
0636
f142
0b77
f20e
f49d
0040
086a
fce3
f0e5
ff82
fcf6
f8b3
f04f
0e74
0d07
0c48
0118
0209
fc61
0d8a
082c
f1a2
0256
01b1
f6e6
04fa
f900
04aa
f093
0201
f375
f811
f10b
f1a5
014a
063e
f9b0
0b6f
f279
f66d
f881
fb3c
0f00
f012
f6a1
ffbb
00df
fe14
fae2
f42b
f416
030a
0630
0b2d
04cd
062c
ff88
0ce6
01bd
0fae
f3b6
f1d9
f7f1
05fe
0971
07d0
ffb3
fa3d
f8ad
ff68
0715
060d
0cba
f597
f28b
f24e
0945
0901
fdb4
f470
f76d
f07c
fc95
ff85
0dde
0747
ff93
f32f
0aa4
05ec
f4cb
0b67
067d
0919
005f
fd5e
f462
f708
f2f0
00e9
0dab
f02f
0b48
09be
0ae6
f1ff
0e7a
0282
0d0c
0bba
0b92
fa45
0a96
03cb
fb71
f5a3
0e94
0490
067c
00de
f48e
0343
081f
ff45
f102
fe6d
f906
fbec
0c07
042a
0bc1
04fe
0bfd
0e06
097e
09f1
f81a
f4ef
05a2
f88a
0a04
04ab
f54e
0805
f3bc
f507
031c
f063
01d6
fdf6
0b2e
fe55
fab6
ff47
f2b2
f0fe
0297
0d1b
fe20
08de
f227
f836
f1fa
f474
fea3
0748
05df
f877
028c
f277
f2a8
0b99
f374
0914
f935
0768
f72a
0218
0bb2
07f0
f5f5
f6b6
fcaf
0de1
012d
f3d9
fcf4
fca4
0b6f
0094
0dbb
0112
0a35
f984
0804
f44e
079e
f815
f2fa
0551
f3a2
085e
f652
fdaa
f16e
f5d6
0980
f353
0461
012a
f465
f6ae
068e
02fa
0b0b
fd00
0625
f814
0ac6
02b3
074c
0777
f565
0640
f7e4
f809
f2bf
f5ef
02a1
0086
0cbf
f6d0
0036
0d28
00ac
f335
f796
0a23
f409
0348
f83d
0b29
f679
f997
0938
035c
faf9
f9ca
08c6
0a89
f7ba
f7ad
fcf1
ffed
f779
0754
03d9
fc9e
f770
fe9e
082c
048c
0cc0
077a
f28f
03ec
f489
fce6
0f4a
04d2
f08a
fa65
0417
fd2a
0b0b
ffbf
0944
fb96
0bfa
0dcf
f5be
0eb3
0182
0ed9
0470
f9a5
04f8
056e
f1dc
f7a2
f6e3
ff70
0d5f
034e
f484
0cf1
0695
079b
0c1d
06f2
f2eb
f87e
05bf
f9c1
f339
08d0
f08d
ffd2
fede
fa8b
f5e3
f06a
038c
047f
f8fa
f2e8
0ba2
032a
f786
f2fc
0984
fae6
fe90
f27f
fef5
fb4b
0430
f997
f2ae
0964
0bd8
f478
f5bb
0c76
f747
f6f8
03d0
f543
f8cc
ff43
0886
050d
faf7
f509
04da
f22a
07e5
f6b9
0680
0124
fcbd
03cc
03dd
fab2
0a17
07ae
0c91
0d74
f36d
facc
0c34
0bbb
f548
f2c4
01e3
0e36
f829
f60e
f71f
fac8
f909
0363
09a8
0acc
fc52
05d9
fd0c
0532
f252
fbf9
fb55
feea
fe47
f7d1
0683
f48f
f52e
0765
042b
efa0
f938
06c8
f3a3
0083
f55e
f854
000e
0468
f955
f8b4
05cd
fdab
fb5e
f61c
ffc0
f93a
06db
066e
0dc6
f237
f11f
ff42
f0b6
f7a0
0e98
07e3
069c
fb55
f9fe
0aa6
08b5
0806
fcbd
0f67
0c49
f98d
f465
ffdd
fd7e
09b5
eff6
f1b9
09dd
0554
f79d
0393
f101
f23c
0e93
05ad
faed
0f3c
0e16
06a5
0327
fb52
f8bd
f28b
08ae
076d
f357
0762
0212
f2da
0ce4
fe0e
f770
f896
f4e1
f096
f479
0fd5
0ed9
0974
03d5
0ee5
fd15
f7a8
0fc7
f552
f157
f35b
01f5
0729
0b4e
082d
0041
0e0f
f27f
fa26
0bf4
f737
04e4
0c01
fcd0
0417
0983
f5cb
fed8
040b
090f
f616
ffd4
02c6
0556
f4c4
f642
076c
f38e
f5bb
fad4
0820
f8ca
fd9e
fc8b
04cd
f7a9
f7ae
0769
f40f
0f28
f313
07e9
f033
0c38
0e37
f72a
02af
02cc
f660
006f
fa72
0099
f135
08e3
0d49
f1f0
0ef2
fce1
efbd
f8df
0136
ff54
f6f6
0c4d
f511
fb80
0a4b
0b2e
0a9c
f9b9
0732
0fa8
f9b2
feae
fb53
f892
f6dc
fc21
0733
f9a1
ff88
0eba
f872
f256
029a
fd2b
07ec
f441
f376
f0b3
0bbc
f9e0
00d6
fda3
0a93
089b
ff7f
fde0
055a
f10e
f215
f594
0e5c
0c90
0127
f3cd
f7b0
02aa
ff06
00dc
fcf2
0065
f57f
000c
eff0
ff43
01df
fd77
fb61
0e68
093e
fdb7
03f7
ff9a
0e64
fb4b
05dd
0763
f5ba
0de3
f3f3
f762
f0f7
0f68
0afc
f56b
f723
0e1f
f823
0a39
0144
fe94
fe48
0b07
0bd0
f027
01ad
0279
0761
f86a
081c
f719
ff2a
fbb6
f304
f5ed
f16e
ffe2
fa70
0f5b
f8e8
feac
0fa2
fb1b
0e2e
f356
f455
f24b
0777
0caf
f2bd
07fb
0b9e
f61c
fa29
089e
f808
03e9
0f4f
f284
f475
01de
0dc6
037f
0e92
033d
f6c1
07a0
f077
f43e
0787
f23c
0f34
063c
fee8
f3dc
0437
faca
f389
fe3c
fd6a
fbb4
f804
f823
fc13
fe2e
0514
049a
024f
f0b8
0cf8
0be8
f780
f0fc
fd67
f6dd
f4c5
07df
f629
025a
03f2
0e86
08c9
0733
f979
0e1b
f023
0087
0542
f922
f838
0347
f9f3
f8e7
fe53
fed4
fd6b
ffca
efa8
f756
f3c0
0b28
f257
fcab
002c
f85f
f743
f42f
f91d
0bdd
f8e1
f604
f41c
0f11
ffe6
f6bb
0a07
0f8f
0c83
f2d8
0403
f856
fcbe
0385
f996
f7cd
0505
f883
0ea6
0438
0ced
0ca6
f4b7
f27c
fa5a
0700
01ed
052e
f36f
0e5d
0620
0d3b
04bf
0b4b
f713
fa7e
ee9e
0860
0cc4
f2ca
0482
001e
02cb
0f8b
0fc6
f776
f82a
f872
fe29
0c01
f18b
f035
f342
003f
f8cc
0f01
0832
0f80
fcec
f5dd
028b
0ea7
01a0
0198
f791
0ef9
f14d
018f
f39c
fa48
f002
0bac
fd66
ffdd
f024
0072
fe4d
fdf1
f772
0d15
074e
fad2
0b4a
fcce
0bb2
f600
0acf
0c42
02b7
f8d5
0a63
f7e2
0670
f9e1
045e
f673
f550
01ba
02c0
048e
fdfe
fad9
f4ac
043a
ff6e
f072
f3bb
f30d
f07a
feb5
0361
f538
f98b
08aa
0305
0c15
0961
040e
0e30
f5de
0a2e
f526
0859
0b32
f93c
f70e
0a9c
f120
f6ad
0f67
0b41
0e04
0a62
fcfe
0957
ffb3
0241
f543
f58b
f684
02af
f78d
f91d
078f
01da
001c
042b
0bb8
0d3a
0291
f7a1
ff04
ffcf
0e76
054d
f67d
f1fc
0302
0e4a
0ca2
f2f5
f9c8
0a15
0f4b
f540
0879
015f
f6fb
ffb3
f3e9
060e
f874
fd82
0902
00de
0a79
0136
0c1a
03ed
f5fe
0cd9
fe93
09e3
ef0a
0c32
ff87
f793
fe32
fe76
f114
0adc
09cd
03c8
f564
0106
0841
f68a
f1df
f9a6
f239
0bfd
f613
fb9e
fb61
fb4b
f725
03c9
0b1d
ff1b
0633
feb8
0875
0ead
f540
efa8
07a1
0696
0ec8
0ef0
06af
f948
f041
f086
065d
fa09
0054
ef76
0d10
f585
07cb
f003
fc6e
f9af
f2c2
0ac6
054f
0ea4
f70c
fa0c
0bcd
f066
0681
f4eb
0351
0e1e
fadf
033b
f920
0424
0470
0899
f249
f0c1
f99a
f0d6
04a6
08e0
0f16
fd17
f774
f6ca
066a
03de
0254
f21d
f46f
fa87
039c
019b
f115
fe1d
fde4
0efa
000c
04dc
f23a
fc2a
f285
0987
ff6a
0724
f065
ee5a
f0dd
0753
f060
fd5d
f024
f0a0
feb1
fb36
0d5b
f5e4
04f1
06d8
080d
fe3f
0448
00e8
037f
0413
0aeb
f16b
02da
0cf3
0618
09c3
0186
f44b
fb9f
005a
f129
ff2d
01ea
0749
0497
0c1c
f708
f2d7
f197
0a7c
fe2d
007e
0486
04ef
0d67
03cb
f121
f510
0a58
0293
0a85
056f
ff6c
f24e
081c
042f
fb0b
0606
fa97
0fb4
efa8
0b80
0be0
f497
0092
0cf4
0193
fec1
ef98
030a
fc41
0be2
032a
003b
ffc4
fbee
f99a
070e
023f
fc39
ffe2
fb63
f969
f6fa
f11f
0350
061b
0c1b
0f9a
f34f
0572
0e45
0deb
fa3b
f1ca
09ad
ff1a
f518
f61a
0187
0b40
fc30
f5d6
0d99
f82c
f84a
0f46
fcb7
f4b1
f670
0b3b
0210
0e3b
0475
eef6
f51d
f525
02d6
0766
0247
0596
efb2
f470
0121
f784
fef8
09b3
0d4e
0de0
0d4a
0b12
f24e
0907
0907
0388
f58a
fbe3
f273
f24a
f89b
0e9d
f219
07b3
f66d
060a
0aba
fcb3
f819
02b2
0334
fe36
f7c5
fa0a
002f
f354
0905
f443
f40c
fae6
fb4e
05c0
f292
0570
0927
f468
0b62
0a8b
05c3
ef99
f649
fd5e
f69e
07cd
02bf
083c
f66f
fa77
f215
f1c6
f41b
0878
f114
fe5d
f87d
f92c
0f65
0765
0334
fcd9
f85c
f169
f946
fb65
0449
06c0
f7b9
0b16
f4aa
f58e
f949
0218
f847
fa92
f100
0be2
05c7
fb79
0024
0e83
f60c
f585
f929
0140
0518
0908
0eef
f92a
f7b5
f96b
02be
ee31
f3d5
eeb0
f735
0e9c
088c
09d4
f029
f80e
f1d2
0f4d
f204
f430
0450
fff4
0670
01a9
f7da
0e9f
0846
f8d2
0b69
051a
f0ef
09a6
0247
ffdb
ff9a
0016
fda9
f96c
0323
03e7
0a00
04cc
06d3
0d50
f0e6
0ec7
08e4
06b5
0ac2
f3e9
fd90
0998
077e
05f5
fca3
0aa8
0413
fd91
023c
025c
fc2f
f2f1
0756
f25c
0990
06a3
f2b6
099b
0d3e
f251
0eac
0460
f813
0af1
f1ed
f2d3
f6e5
0b6e
04b9
09e8
f4e2
0836
00fe
08b3
f264
f86c
0a24
f2d9
ffe7
f4f9
fd53
0cd1
f742
0e91
f337
f1ed
0e13
fe19
fa45
0526
f028
0317
0f59
f22d
0f65
0c42
05a8
0ecf
0adf
094d
f2dc
fa03
074b
f5f9
01fb
03cf
00e5
f339
0ae6
f5fc
0bae
0570
085f
f1b9
f397
0c02
fa66
0c44
f7f6
f590
f5b2
0022
0d9a
efef
feca
f5bb
f582
045a
f086
f2f9
0540
ff2e
0b2d
f617
fb21
07f8
05be
01a6
f0b1
f741
f8c8
068b
fb3d
05f3
fef8
fd9f
f378
07a4
f85a
0af5
f00e
0022
0278
0171
feeb
0c64
ff72
fd78
fe82
f0ef
0404
ff6b
fa5e
03d8
07a2
0c2c
00d5
fe5b
06ce
096e
f149
0b24
f45a
0af6
0007
f097
0cf3
05a0
0f1e
0106
01e6
ff86
089e
0949
ff1a
f006
ef36
0976
f5c4
0497
0a72
f15d
efaa
040d
018c
f5c0
f509
0cdb
f10d
fe6c
0a4d
f36d
078c
f91f
02f3
fecf
0673
0cd4
ef72
f056
f3ee
0cd6
0b3c
efc4
f9dc
f278
f166
fd9e
004a
0903
fe4d
0667
f151
fa72
f624
02ca
0cb4
049a
0d08
0c31
ff19
f0d7
0d66
0095
073f
098b
028a
096e
f477
fd01
095d
f90d
fccf
fba7
05e5
f1e5
0bf8
08b1
fb07
012a
0994
04d2
f61a
fd69
f4a7
0750
fb16
faeb
0be3
0468
072c
0190
f93a
fe1b
f8b5
fe64
0572
0645
00b9
0c91
fc7f
051a
03eb
03f6
0250
0e69
04d0
09c9
0353
0051
0321
0476
f81b
feea
f23e
0b62
0c44
0309
fe73
024a
ff24
040a
f06e
0863
000b
07d5
f3d5
f551
01a7
0cad
042a
078e
01ff
0baa
0453
03d9
0733
0e9a
f7ad
0377
fecb
0e10
fd1e
101a
f76f
fb69
09d3
ef04
f2e7
0a5c
0146
0d8f
fac1
0978
feb1
fb45
08ce
0877
0ad5
008e
07e1
05de
f29d
0867
084f
f411
fd8d
efe9
f347
08fa
f21f
fb81
0e6e
f21d
fa05
f329
0f2c
f768
0363
f190
f3be
0708
f178
fa2a
ffe5
fb04
ff95
f7d6
f09b
f436
0dd9
fe43
0a89
fb82
f012
0d20
0309
04d9
0b57
00eb
0fad
09f3
011a
0488
f212
f9ed
f125
0c56
0649
05a0
0f52
0652
0139
0dc0
fb50
005d
fa5b
f348
f416
02a7
0a00
0ece
069f
07c9
0070
02a9
0e9f
f873
fd21
09c4
0ca6
0287
f583
f44c
0520
0e99
ffe0
fb6e
097d
f060
0af5
0bb5
fa7d
f954
fc22
ffa6
f74c
f799
0b43
0749
ffec
ff08
f422
0e4a
0427
fe8b
0e37
02bc
f11b
0ab4
0824
f3f7
05ef
0972
f718
0266
f9a6
f364
0c43
0de8
f08e
f6ef
039a
020a
0ac4
0b2a
016f
f269
054e
09c0
0298
0221
0218
f9fb
f2ad
0e74
076e
f713
fd4b
0e4d
002c
ef95
fa05
f417
f8bf
0f17
022c
fe3a
0b32
013a
04fe
f185
fd64
09be
f58c
f1f3
0ed6
02a2
f2e5
0f86
0c1e
01b9
f734
f9b1
06a2
0437
fcb6
fae5
0a87
0ea2
0b6a
f949
09f7
f61e
f631
0e65
0e23
08ab
010a
efc1
0b44
0370
0699
0776
fb65
f8cf
fa11
ffdd
fa7b
f430
f080
ffad
0f46
f346
0d5e
0188
f8a6
0797
0695
0475
f6f7
07c9
02ef
001a
f479
0dbd
fa12
04b9
fddd
f74b
08a7
fa6c
f26c
f965
0702
f9e8
05fc
f131
0ba6
05a8
085f
fa04
014b
f419
00eb
0637
f1ef
f2a6
f49d
0e11
fa68
015d
fbca
fc2b
0c29
f846
fb54
07e4
f254
fbf2
f915
fac1
07bc
003c
0dcf
f103
0809
0075
0142
ff69
f5c5
f510
0728
f98a
08d3
0ce7
0d09
073a
0027
f742
f5bc
0789
fba7
fcaf
f1e0
09ae
0151
fdb1
f4b8
0681
0d42
f052
08a7
0895
fdba
fb00
f54e
fe69
f427
03c2
fa4d
0912
fd50
f9ae
05b7
f097
f16b
f6f1
03cf
019c
fec0
f1f4
f503
f543
09fa
fc00
0e16
0903
fcd4
0ebb
f857
fbef
0a91
0647
f54e
0db3
04a2
f32a
02cd
fd92
f727
f670
0813
ff1e
0de0
08de
04e3
0159
01ee
f094
fa61
0c11
f69a
f9b0
0028
0624
f086
fd7f
f386
005a
0601
fe69
0d66
f220
f411
f9fa
08c3
efa2
07c0
f033
f2d4
0783
fb85
0004
f151
07a9
005f
0df7
f656
0e3e
f492
0708
f887
0b94
00e5
02f3
f7e5
08b9
0946
fd56
0dfb
fa65
0536
0d62
088d
f9fe
0de0
f7d4
0855
0508
0200
0a4c
0dd7
f078
0855
f0fc
0c98
095a
0d3a
febc
0b32
077e
f857
f74a
f646
f4de
06ea
0aa5
ffc9
08c6
04e8
0f7f
01a5
088e
fd3b
fc14
effd
f32d
fa91
fd19
f9ad
0978
fb84
0dfa
0eb4
0ab2
ff5e
0006
fe17
03d9
fcf9
00c7
efde
0837
f626
f05d
f965
085d
07d8
fb14
fc41
fbe0
f302
f5e2
f6cd
08e5
0dfa
01b9
f1ef
fdcc
f6ab
03ad
08a7
0a0b
0474
0d76
0f1d
f77b
f0e5
fb6c
0b7b
0a79
ff39
fb17
05c0
0bd1
fd6a
00ff
ff39
f2e9
f46e
0de8
f45c
f880
0a06
f643
072c
fb62
027e
f146
f510
f5d6
0a9d
f45a
f790
f02c
f607
f09e
00b2
fa1e
f465
f361
0f74
00d8
0a3e
0754
0a46
fbd2
0709
0127
fdde
f571
0e11
f215
fd29
f369
f4fb
f3e8
fc4d
04f4
f3f5
f055
ff86
f1b9
fe9e
0c2c
08cd
08c6
08f0
fd40
08aa
f73a
03de
fe16
0253
0e09
09f5
0e68
f14c
0400
f614
081b
fa6e
fd46
0a50
0949
f69a
016b
fb4b
0ab4
0b1b
f871
0342
feac
07be
081c
0c42
f973
fd91
00fc
f812
fda5
0463
0d95
0028
0e27
f2d4
fd92
0785
fc6b
03ff
0679
0a34
ffec
f0a6
0325
0a07
f057
ff28
0412
0326
062b
f199
fcc6
f6b0
0c70
f550
f6c2
f1b5
f114
0989
ff67
f444
057a
f649
fa54
f6fa
fae8
f0b2
0e71
0035
0b0b
fdbb
f6b8
01d9
03bb
f06d
0fb8
f052
f0c2
084e
0a9d
0e07
f5ed
fb37
0c88
0633
0cb8
01a8
fc7d
fdf1
0623
0f25
0a00
06b7
0b1c
0fd1
f587
0a9e
03bd
0abf
f575
0df1
fc02
f109
f205
fe6d
fb46
003d
0665
0755
f48b
f736
f449
fe89
f878
072a
fc9a
f648
fc52
f76c
fbd1
f8f5
ff69
0dda
0a83
0a32
0ac9
0e80
f20d
02a5
fa19
01b3
0711
efc6
fdd4
041d
f520
fe7f
0978
fd1f
f45d
f6df
fdc5
f6d9
f1c7
f0ff
0a89
f8c6
fc77
f5b6
0389
fcf9
fb0a
ff3a
0ad6
0c8b
07a0
096c
f7f1
f11e
f68a
f605
08cd
fb72
fc7a
0235
0040
0d6c
07ae
f12d
f96d
0481
fb49
f5a8
0150
f683
